{
  "version": "1.0",
  "truncation": null,
  "padding": null,
  "added_tokens": [
    {
      "id": 0,
      "content": "<pad>",
      "single_word": false,
      "lstrip": false,
      "rstrip": false,
      "normalized": false,
      "special": true
    },
    {
      "id": 1,
      "content": "<bos>",
      "single_word": false,
      "lstrip": false,
      "rstrip": false,
      "normalized": false,
      "special": true
    },
    {
      "id": 2,
      "content": "<eos>",
      "single_word": false,
      "lstrip": false,
      "rstrip": false,
      "normalized": false,
      "special": true
    },
    {
      "id": 3,
      "content": "<unk>",
      "single_word": false,
      "lstrip": false,
      "rstrip": false,
      "normalized": false,
      "special": true
    }
  ],
  "normalizer": null,
  "pre_tokenizer": {
    "type": "ByteLevel",
    "add_prefix_space": false,
    "trim_offsets": true,
    "use_regex": true
  },
  "post_processor": null,
  "decoder": {
    "type": "ByteLevel",
    "add_prefix_space": true,
    "trim_offsets": true,
    "use_regex": true
  },
  "model": {
    "type": "BPE",
    "dropout": null,
    "unk_token": "<unk>",
    "continuing_subword_prefix": null,
    "end_of_word_suffix": null,
    "fuse_unk": false,
    "byte_fallback": false,
    "ignore_merges": false,
    "vocab": {
      "<pad>": 0,
      "<bos>": 1,
      "<eos>": 2,
      "<unk>": 3,
      "!": 4,
      "\"": 5,
      "#": 6,
      "$": 7,
      "%": 8,
      "&": 9,
      "'": 10,
      "(": 11,
      ")": 12,
      "*": 13,
      "+": 14,
      ",": 15,
      "-": 16,
      ".": 17,
      "/": 18,
      "0": 19,
      "1": 20,
      "2": 21,
      "3": 22,
      "4": 23,
      "5": 24,
      "6": 25,
      "7": 26,
      "8": 27,
      "9": 28,
      ":": 29,
      ";": 30,
      "<": 31,
      "=": 32,
      ">": 33,
      "?": 34,
      "@": 35,
      "A": 36,
      "B": 37,
      "C": 38,
      "D": 39,
      "E": 40,
      "F": 41,
      "G": 42,
      "H": 43,
      "I": 44,
      "J": 45,
      "K": 46,
      "L": 47,
      "M": 48,
      "N": 49,
      "O": 50,
      "P": 51,
      "Q": 52,
      "R": 53,
      "S": 54,
      "T": 55,
      "U": 56,
      "V": 57,
      "W": 58,
      "X": 59,
      "Y": 60,
      "Z": 61,
      "[": 62,
      "\\": 63,
      "]": 64,
      "^": 65,
      "_": 66,
      "`": 67,
      "a": 68,
      "b": 69,
      "c": 70,
      "d": 71,
      "e": 72,
      "f": 73,
      "g": 74,
      "h": 75,
      "i": 76,
      "j": 77,
      "k": 78,
      "l": 79,
      "m": 80,
      "n": 81,
      "o": 82,
      "p": 83,
      "q": 84,
      "r": 85,
      "s": 86,
      "t": 87,
      "u": 88,
      "v": 89,
      "w": 90,
      "x": 91,
      "y": 92,
      "z": 93,
      "{": 94,
      "|": 95,
      "}": 96,
      "~": 97,
      "¡": 98,
      "¢": 99,
      "£": 100,
      "¤": 101,
      "¥": 102,
      "¦": 103,
      "§": 104,
      "¨": 105,
      "©": 106,
      "ª": 107,
      "«": 108,
      "¬": 109,
      "®": 110,
      "¯": 111,
      "°": 112,
      "±": 113,
      "²": 114,
      "³": 115,
      "´": 116,
      "µ": 117,
      "¶": 118,
      "·": 119,
      "¸": 120,
      "¹": 121,
      "º": 122,
      "»": 123,
      "¼": 124,
      "½": 125,
      "¾": 126,
      "¿": 127,
      "À": 128,
      "Á": 129,
      "Â": 130,
      "Ã": 131,
      "Ä": 132,
      "Å": 133,
      "Æ": 134,
      "Ç": 135,
      "È": 136,
      "É": 137,
      "Ê": 138,
      "Ë": 139,
      "Ì": 140,
      "Í": 141,
      "Î": 142,
      "Ï": 143,
      "Ð": 144,
      "Ñ": 145,
      "Ò": 146,
      "Ó": 147,
      "Ô": 148,
      "Õ": 149,
      "Ö": 150,
      "×": 151,
      "Ø": 152,
      "Ù": 153,
      "Ú": 154,
      "Û": 155,
      "Ü": 156,
      "Ý": 157,
      "Þ": 158,
      "ß": 159,
      "à": 160,
      "á": 161,
      "â": 162,
      "ã": 163,
      "ä": 164,
      "å": 165,
      "æ": 166,
      "ç": 167,
      "è": 168,
      "é": 169,
      "ê": 170,
      "ë": 171,
      "ì": 172,
      "í": 173,
      "î": 174,
      "ï": 175,
      "ð": 176,
      "ñ": 177,
      "ò": 178,
      "ó": 179,
      "ô": 180,
      "õ": 181,
      "ö": 182,
      "÷": 183,
      "ø": 184,
      "ù": 185,
      "ú": 186,
      "û": 187,
      "ü": 188,
      "ý": 189,
      "þ": 190,
      "ÿ": 191,
      "Ā": 192,
      "ā": 193,
      "Ă": 194,
      "ă": 195,
      "Ą": 196,
      "ą": 197,
      "Ć": 198,
      "ć": 199,
      "Ĉ": 200,
      "ĉ": 201,
      "Ċ": 202,
      "ċ": 203,
      "Č": 204,
      "č": 205,
      "Ď": 206,
      "ď": 207,
      "Đ": 208,
      "đ": 209,
      "Ē": 210,
      "ē": 211,
      "Ĕ": 212,
      "ĕ": 213,
      "Ė": 214,
      "ė": 215,
      "Ę": 216,
      "ę": 217,
      "Ě": 218,
      "ě": 219,
      "Ĝ": 220,
      "ĝ": 221,
      "Ğ": 222,
      "ğ": 223,
      "Ġ": 224,
      "ġ": 225,
      "Ģ": 226,
      "ģ": 227,
      "Ĥ": 228,
      "ĥ": 229,
      "Ħ": 230,
      "ħ": 231,
      "Ĩ": 232,
      "ĩ": 233,
      "Ī": 234,
      "ī": 235,
      "Ĭ": 236,
      "ĭ": 237,
      "Į": 238,
      "į": 239,
      "İ": 240,
      "ı": 241,
      "Ĳ": 242,
      "ĳ": 243,
      "Ĵ": 244,
      "ĵ": 245,
      "Ķ": 246,
      "ķ": 247,
      "ĸ": 248,
      "Ĺ": 249,
      "ĺ": 250,
      "Ļ": 251,
      "ļ": 252,
      "Ľ": 253,
      "ľ": 254,
      "Ŀ": 255,
      "ŀ": 256,
      "Ł": 257,
      "ł": 258,
      "Ń": 259,
      "Ġt": 260,
      "he": 261,
      "âĢ": 262,
      "Ġa": 263,
      "Ġs": 264,
      "in": 265,
      "Ġthe": 266,
      "Ġw": 267,
      "ou": 268,
      "on": 269,
      "it": 270,
      "re": 271,
      "at": 272,
      "nd": 273,
      "er": 274,
      "ing": 275,
      "âĢľ": 276,
      "âĢĿ": 277,
      "Ġc": 278,
      "Ġb": 279,
      "ed": 280,
      "en": 281,
      "Ġo": 282,
      "Ġm": 283,
      "Ġto": 284,
      "Ġl": 285,
      "ĠĠ": 286,
      "ll": 287,
      "id": 288,
      "Ġd": 289,
      "or": 290,
      "Ġf": 291,
      "is": 292,
      "Ġand": 293,
      "Ġh": 294,
      "ce": 295,
      "ar": 296,
      "Ġth": 297,
      "âĢĻ": 298,
      "le": 299,
      "as": 300,
      "an": 301,
      "Ġhe": 302,
      "Ġof": 303,
      "Ġp": 304,
      "ow": 305,
      "Ġit": 306,
      "Ġn": 307,
      "es": 308,
      "Ġin": 309,
      "Ġsa": 310,
      "Ġg": 311,
      "li": 312,
      "ĠâĢľ": 313,
      "Ġshe": 314,
      "ad": 315,
      "ot": 316,
      "Ġbe": 317,
      "se": 318,
      "ly": 319,
      "you": 320,
      "Ġe": 321,
      "Ġsaid": 322,
      "ut": 323,
      "ĠA": 324,
      "me": 325,
      "ver": 326,
      "ion": 327,
      "Ġyou": 328,
      "Ġon": 329,
      "lice": 330,
      ",âĢĿ": 331,
      "al": 332,
      "ĠI": 333,
      "ld": 334,
      "Ġwas": 335,
      "st": 336,
      "ent": 337,
      "ro": 338,
      "gh": 339,
      "Ġher": 340,
      "ĠAlice": 341,
      "ur": 342,
      "out": 343,
      "ch": 344,
      "Ġre": 345,
      "et": 346,
      "Ġu": 347,
      "Ġas": 348,
      "ve": 349,
      "!âĢĿ": 350,
      "oo": 351,
      "Ġthat": 352,
      "ain": 353,
      "âĢĶ": 354,
      "ke": 355,
      "Ġr": 356,
      "Ġwh": 357,
      "im": 358,
      "Ġso": 359,
      "ck": 360,
      "ght": 361,
      "ct": 362,
      "ith": 363,
      "ould": 364,
      "ĠĠĠ": 365,
      "the": 366,
      "Ġst": 367,
      "ay": 368,
      "ss": 369,
      "Ġis": 370,
      "tle": 371,
      "Ġat": 372,
      "Ġnot": 373,
      "ter": 374,
      "Ġwith": 375,
      "Ġfor": 376,
      "and": 377,
      "th": 378,
      "ab": 379,
      "The": 380,
      "all": 381,
      "ir": 382,
      "Ġse": 383,
      "if": 384,
      "Ġsh": 385,
      "Ġ_": 386,
      "very": 387,
      "Ġhad": 388,
      "Ġan": 389,
      "pe": 390,
      "ri": 391,
      "Ġall": 392,
      "Ġmo": 393,
      ".âĢĿ": 394,
      "ation": 395,
      "qu": 396,
      "Ġv": 397,
      "to": 398,
      "Ġdo": 399,
      "ill": 400,
      "ook": 401,
      "Wh": 402,
      "ere": 403,
      "ge": 404,
      "Ġex": 405,
      "ard": 406,
      "ĠM": 407,
      "el": 408,
      "Ġne": 409,
      "?âĢĿ": 410,
      "own": 411,
      "Ġk": 412,
      "Ġsu": 413,
      "Ġup": 414,
      "us": 415,
      "ĊĠĠĠ": 416,
      "Ġlo": 417,
      "ry": 418,
      "ittle": 419,
      "her": 420,
      "Ġout": 421,
      "sel": 422,
      "Ġme": 423,
      "##": 424,
      "ust": 425,
      "ound": 426,
      "ite": 427,
      "ave": 428,
      "Ġvery": 429,
      "self": 430,
      "ul": 431,
      "Ġcon": 432,
      "un": 433,
      "ĠS": 434,
      "ĠT": 435,
      "Ġqu": 436,
      "am": 437,
      "Ġlittle": 438,
      "Ġthis": 439,
      "pp": 440,
      "Ġj": 441,
      "Ġbut": 442,
      "Ġthey": 443,
      "Ġkn": 444,
      "one": 445,
      "Ġdown": 446,
      "Ġcan": 447,
      "Ġli": 448,
      "ue": 449,
      "ĠD": 450,
      "Ġor": 451,
      "Ġde": 452,
      "Ġsee": 453,
      "ic": 454,
      "Ġtr": 455,
      "ĠC": 456,
      "Ġwhe": 457,
      "ep": 458,
      "ell": 459,
      "ought": 460,
      "ong": 461,
      "Ġlook": 462,
      "ort": 463,
      "ight": 464,
      "um": 465,
      "om": 466,
      "iz": 467,
      "Ġab": 468,
      "Ġone": 469,
      "ame": 470,
      "ind": 471,
      "our": 472,
      "Ġch": 473,
      "ĠĠĠĠĠ": 474,
      "ple": 475,
      "red": 476,
      "est": 477,
      "gain": 478,
      "ate": 479,
      "il": 480,
      "lo": 481,
      "Ġif": 482,
      "ice": 483,
      "che": 484,
      "Ġthem": 485,
      "Ġno": 486,
      "Ġgo": 487,
      "Ġabout": 488,
      "Ġhis": 489,
      "Ġbeg": 490,
      "Ġlike": 491,
      "xt": 492,
      "ast": 493,
      "Ġagain": 494,
      "ink": 495,
      "ak": 496,
      "ome": 497,
      "ting": 498,
      "ĠH": 499,
      "ĠQ": 500,
      "ouse": 501,
      "Ġsm": 502,
      "Ġwould": 503,
      "Ġwere": 504,
      "ueen": 505,
      "Ġcould": 506,
      "Ġle": 507,
      "ist": 508,
      "Ġknow": 509,
      "ers": 510,
      "Ġwhat": 511,
      "ig": 512,
      "Ġthought": 513,
      "Ġpro": 514,
      "Ġgr": 515,
      "ĠK": 516,
      "Ġwent": 517,
      "Ġinto": 518,
      "ĠQueen": 519,
      "ect": 520,
      "ken": 521,
      "ock": 522,
      "Ġwhen": 523,
      "It": 524,
      "ure": 525,
      "Ġoff": 526,
      "Ġherself": 527,
      "ther": 528,
      "Ġtrain": 529,
      "ime": 530,
      "Ġsome": 531,
      "ake": 532,
      "ĠG": 533,
      "ĠWh": 534,
      "Ġwor": 535,
      "Ġval": 536,
      "ap": 537,
      "Ġpo": 538,
      "po": 539,
      "pt": 540,
      "atter": 541,
      "Ġdid": 542,
      "Ġfe": 543,
      "ant": 544,
      "ore": 545,
      "Ġhave": 546,
      "Ġhead": 547,
      "urn": 548,
      "urtle": 549,
      "Ġwhi": 550,
      "able": 551,
      "Th": 552,
      "od": 553,
      "ine": 554,
      "ous": 555,
      "Ġmore": 556,
      "ĠKing": 557,
      "te": 558,
      "Ġare": 559,
      "Ġthere": 560,
      "reat": 561,
      "Ġcor": 562,
      "Ġthing": 563,
      "Ġyour": 564,
      "Ġwho": 565,
      "Ġloss": 566,
      "ack": 567,
      "ph": 568,
      "Ġthen": 569,
      "ish": 570,
      "Ġvo": 571,
      "Alice": 572,
      "Ġaf": 573,
      "Ġget": 574,
      "rom": 575,
      "thing": 576,
      "Ġ*": 577,
      "Ġby": 578,
      "Ġmy": 579,
      "ried": 580,
      "ĠMock": 581,
      "Ġsay": 582,
      "ryph": 583,
      "ryphon": 584,
      "pl": 585,
      "bit": 586,
      "de": 587,
      "Ġonly": 588,
      "uch": 589,
      "ĠR": 590,
      "ity": 591,
      "irst": 592,
      "ĠTurtle": 593,
      "ĠCat": 594,
      "ful": 595,
      "Ġway": 596,
      "ough": 597,
      "orm": 598,
      "Ġits": 599,
      "abbit": 600,
      "ĠGryphon": 601,
      "ra": 602,
      "ĠN": 603,
      "Ġtime": 604,
      "ath": 605,
      "ence": 606,
      "ide": 607,
      "ess": 608,
      "ood": 609,
      "imp": 610,
      "ject": 611,
      "Ġmod": 612,
      "Ġquite": 613,
      "Ġvoice": 614,
      "You": 615,
      "av": 616,
      "are": 617,
      "pus": 618,
      "ĠP": 619,
      "Ġmuch": 620,
      "Ġtoo": 621,
      "Ġlar": 622,
      "idation": 623,
      "Ġhow": 624,
      "Ġany": 625,
      "Ġmust": 626,
      "art": 627,
      "Ġmodel": 628,
      "au": 629,
      "fore": 630,
      "Ġ(": 631,
      "Ġtw": 632,
      "Ġal": 633,
      "alk": 634,
      "Ġbegan": 635,
      "aut": 636,
      "dd": 637,
      "ious": 638,
      "mb": 639,
      "way": 640,
      "ĊĠĠ": 641,
      "Ġtheir": 642,
      "ond": 643,
      "Ġthink": 644,
      "ance": 645,
      "Ġcorpus": 646,
      "ling": 647,
      "mar": 648,
      "Ġ=": 649,
      "int": 650,
      "Ġover": 651,
      "Ġlong": 652,
      "Ġhim": 653,
      "ãĢ": 654,
      "ä¸": 655,
      "Ġcont": 656,
      "Ġtraining": 657,
      "ho": 658,
      "led": 659,
      "ning": 660,
      "of": 661,
      "she": 662,
      "uche": 663,
      "Ġar": 664,
      "Ġother": 665,
      "Ġmad": 666,
      "Ġfirst": 667,
      "âĢĶâĢĿ": 668,
      "Ġrun": 669,
      "ĠRabbit": 670,
      "uchess": 671,
      "ment": 672,
      "ne": 673,
      "row": 674,
      "ĠB": 675,
      "ĠThe": 676,
      "Ġback": 677,
      "Ġdon": 678,
      "Ġgot": 679,
      "Ġuse": 680,
      "nt": 681,
      "Ġte": 682,
      "ree": 683,
      "erp": 684,
      "ans": 685,
      "Ġus": 686,
      "Ġnever": 687,
      "ample": 688,
      "but": 689,
      "ĠF": 690,
      "Ġfrom": 691,
      "Ġhand": 692,
      "ass": 693,
      "Ġround": 694,
      "that": 695,
      "ally": 696,
      "ĠDuchess": 697,
      "Ġlooked": 698,
      "Ġwhich": 699,
      "That": 700,
      "ace": 701,
      "ive": 702,
      "Ġ-": 703,
      "âĢĺ": 704,
      "atch": 705,
      "Ġcur": 706,
      "Ġtoken": 707,
      "Ġnow": 708,
      "Ġexp": 709,
      "Ġjust": 710,
      "Ġvalidation": 711,
      "Ġafter": 712,
      "ag": 713,
      "be": 714,
      "hing": 715,
      "ves": 716,
      "ĠL": 717,
      "Ġen": 718,
      "Ġturn": 719,
      "Ġsmall": 720,
      "get": 721,
      "ven": 722,
      "Ġke": 723,
      "Ġcame": 724,
      "Ġpl": 725,
      "Ġbefore": 726,
      "ĠAnd": 727,
      "Ġrep": 728,
      "Ġdoes": 729,
      "Ġsuch": 730,
      "Oh": 731,
      "ked": 732,
      "oot": 733,
      "è¯": 734,
      "Ġsy": 735,
      "Ġcour": 736,
      "Ġshould": 737,
      "What": 738,
      "Ġnext": 739,
      "Ġseem": 740,
      "ize": 741,
      "ds": 742,
      "ict": 743,
      "uc": 744,
      "Ġmake": 745,
      "Ġthan": 746,
      "Ġhere": 747,
      "Ġbeen": 748,
      "app": 749,
      "ire": 750,
      "Ġimp": 751,
      "ather": 752,
      "izer": 753,
      "Ġlarge": 754,
      "age": 755,
      "ile": 756,
      "not": 757,
      "Ġman": 758,
      "other": 759,
      "Ġexample": 760,
      "ãĢĤ": 761,
      "Ġ->": 762,
      "ie": 763,
      "ily": 764,
      "ild": 765,
      "oke": 766,
      "sh": 767,
      "tic": 768,
      "Ġro": 769,
      "Ġtone": 770,
      "ata": 771,
      "Ġcom": 772,
      "Ġgreat": 773,
      "Ġey": 774,
      "__": 775,
      "nthe": 776,
      "heck": 777,
      "Ġwe": 778,
      "Ġwr": 779,
      "Ġlast": 780,
      "ory": 781,
      "Ġput": 782,
      "ury": 783,
      "Ġright": 784,
      "Ġstep": 785,
      "nthetic": 786,
      "ull": 787,
      "Ġy": 788,
      "Ġed": 789,
      "inut": 790,
      "ered": 791,
      "ĊĠĠĠĠĠĠĠ": 792,
      "Ġmade": 793,
      "``": 794,
      "ach": 795,
      "ble": 796,
      "ff": 797,
      "ten": 798,
      "ĠE": 799,
      "hed": 800,
      "Ġsc": 801,
      "nder": 802,
      "Ġbot": 803,
      "Ġlist": 804,
      "ang": 805,
      "Ġheard": 806,
      "Ġgood": 807,
      "Ġbec": 808,
      "illar": 809,
      "Ġdear": 810,
      "Ġsmoke": 811,
      "text": 812,
      "Ġtwo": 813,
      "onder": 814,
      "erpillar": 815,
      "Ġsynthetic": 816,
      "ever": 817,
      "for": 818,
      "ved": 819,
      "Ġset": 820,
      "its": 821,
      "ened": 822,
      "Ġmatter": 823,
      "leas": 824,
      "Ġevery": 825,
      "Ġonce": 826,
      "Ġmoment": 827,
      "Ġdoor": 828,
      "ĠMouse": 829,
      "\")": 830,
      "And": 831,
      "ec": 832,
      "ient": 833,
      "ose": 834,
      "sit": 835,
      "up": 836,
      "wh": 837,
      "ward": 838,
      "Ġ\"": 839,
      "Ġam": 840,
      "Ġspl": 841,
      "Ġwell": 842,
      "ons": 843,
      "Ġfound": 844,
      "Ġpe": 845,
      "roll": 846,
      "umb": 847,
      "ody": 848,
      "ĠCaterpillar": 849,
      "act": 850,
      "ail": 851,
      "old": 852,
      "çļ": 853,
      "ĠâĢĺ": 854,
      "Ġspe": 855,
      "Ġminut": 856,
      "ĠĠĠĠ": 857,
      "Ġfin": 858,
      "Ġhur": 859,
      "Ġpre": 860,
      "Ġun": 861,
      "Ġlear": 862,
      "çļĦ": 863,
      "igh": 864,
      "ĊĊ": 865,
      "Ġtry": 866,
      "Ġtalk": 867,
      "Ġaway": 868,
      "Ġsize": 869,
      "iny": 870,
      "Ġday": 871,
      "Ġfind": 872,
      "otes": 873,
      "ross": 874,
      "Ġread": 875,
      "Ġunder": 876,
      "Ġnear": 877,
      "ult": 878,
      "Ġjury": 879,
      "ĠWhy": 880,
      "Ġpoor": 881,
      "ĠNotes": 882,
      "ucation": 883,
      "Ġeducation": 884,
      "ecut": 885,
      "(\"": 886,
      "But": 887,
      "cl": 888,
      "was": 889,
      "Ġtell": 890,
      "Ġadd": 891,
      "ates": 892,
      "Ġcat": 893,
      "Ġcome": 894,
      "Ġcheck": 895,
      "Ġmay": 896,
      "Ġmight": 897,
      "Ġlow": 898,
      "ise": 899,
      "Ġhard": 900,
      "roject": 901,
      "ool": 902,
      "Ġsoon": 903,
      "Ġstr": 904,
      "Ġnothing": 905,
      "peat": 906,
      "elt": 907,
      "Ġupon": 908,
      "ĠShe": 909,
      "Ġlooking": 910,
      "estion": 911,
      "Ġgrow": 912,
      "ures": 913,
      "Ġthings": 914,
      "ause": 915,
      "autho": 916,
      "Ġseemed": 917,
      "Ġeyes": 918,
      "Ġsplit": 919,
      "rolled": 920,
      "Ġeducational": 921,
      "authored": 922,
      "\":": 923,
      "If": 924,
      "Well": 925,
      "aw": 926,
      "air": 927,
      "body": 928,
      "lp": 929,
      "low": 930,
      "ng": 931,
      "per": 932,
      "so": 933,
      "Ġ/": 934,
      "Ġwa": 935,
      "Ġwon": 936,
      "Ġwill": 937,
      "iting": 938,
      "read": 939,
      "Ġopt": 940,
      "ange": 941,
      "Ġpath": 942,
      "Ġpleas": 943,
      "lied": 944,
      "Ġbeh": 945,
      "ention": 946,
      "Ġrepeat": 947,
      "Ġstill": 948,
      "iff": 949,
      "Ġanother": 950,
      "right": 951,
      "arden": 952,
      "Ġmean": 953,
      "ummar": 954,
      "Ġgoing": 955,
      "ĠHatter": 956,
      "Ġwhile": 957,
      "sition": 958,
      "How": 959,
      "Project": 960,
      "put": 961,
      "æĺ": 962,
      "ç»": 963,
      "Ġac": 964,
      "Ġsort": 965,
      "Ġwonder": 966,
      "Ġold": 967,
      "Ġhapp": 968,
      "Ġthree": 969,
      "Ġpart": 970,
      "Ġgarden": 971,
      "alf": 972,
      "Ġrather": 973,
      "Ġwithout": 974,
      "ounded": 975,
      "ĠSummar": 976,
      "Ġbegin": 977,
      "ign": 978,
      "ĠWhite": 979,
      "Ġwords": 980,
      "Ġcontrolled": 981,
      "ansion": 982,
      "Ġexpansion": 983,
      "Ġenough": 984,
      "Ġoptim": 985,
      "ĠSummary": 986,
      "()": 987,
      "ared": 988,
      "gg": 989,
      "ick": 990,
      "ï¼": 991,
      "Ġtiny": 992,
      "Ġbr": 993,
      "ens": 994,
      "Ġhalf": 995,
      "Ġhelp": 996,
      "Ġpr": 997,
      "Ġsame": 998,
      "Ġeven": 999,
      "Ġres": 1000,
      "Ġshall": 1001,
      "Ġexecut": 1002,
      "loss": 1003,
      "aking": 1004,
      "Ġuseful": 1005,
      "Ġreplied": 1006,
      "ah": 1007,
      "ale": 1008,
      "now": 1009,
      "tention": 1010,
      "æĸ": 1011,
      "è®": 1012,
      "Ġtable": 1013,
      "Ġwish": 1014,
      "Ġfan": 1015,
      "Ġfelt": 1016,
      "Ġgu": 1017,
      "Ġend": 1018,
      "Ġear": 1019,
      "memb": 1020,
      "ents": 1021,
      "Ġrememb": 1022,
      "oop": 1023,
      "pect": 1024,
      "token": 1025,
      "Why": 1026,
      "Ġquestion": 1027,
      "Ġkne": 1028,
      "Ġchild": 1029,
      "ches": 1030,
      "akes": 1031,
      "Ġposition": 1032,
      "point": 1033,
      "Ġfeet": 1034,
      "Ġgetting": 1035,
      "Ġarm": 1036,
      "Ġcourse": 1037,
      "Ġimport": 1038,
      "In": 1039,
      "ft": 1040,
      "ger": 1041,
      "ĠW": 1042,
      "Ġ`": 1043,
      "Ġtim": 1044,
      "Ġtill": 1045,
      "ream": 1046,
      "ert": 1047,
      "Ġcried": 1048,
      "Ġless": 1049,
      "Ġdata": 1050,
      "Ġdiff": 1051,
      "Ġfl": 1052,
      "Ġface": 1053,
      "âĢĻâĢĿ": 1054,
      "Ġhear": 1055,
      "Ġgl": 1056,
      "Ġbet": 1057,
      "vers": 1058,
      "imple": 1059,
      "There": 1060,
      "Ġsure": 1061,
      "indow": 1062,
      "idea": 1063,
      "aving": 1064,
      "Ġtook": 1065,
      "dden": 1066,
      "Ġkeep": 1067,
      "Ġadded": 1068,
      "She": 1069,
      "ac": 1070,
      "aid": 1071,
      "ex": 1072,
      "end": 1073,
      "from": 1074,
      "line": 1075,
      "turn": 1076,
      "xious": 1077,
      "å¤": 1078,
      "Ġtre": 1079,
      "Ġtried": 1080,
      "hen": 1081,
      "Ġspo": 1082,
      "Ġside": 1083,
      "oup": 1084,
      "Ġcall": 1085,
      "Ġhouse": 1086,
      "arch": 1087,
      "les": 1088,
      "Ġpu": 1089,
      "ations": 1090,
      "Ġsupp": 1091,
      "ump": 1092,
      "ĠHow": 1093,
      "Ġproject": 1094,
      "aps": 1095,
      "def": 1096,
      "Ġcurious": 1097,
      "Ġboth": 1098,
      "Come": 1099,
      "So": 1100,
      "ape": 1101,
      "bst": 1102,
      "du": 1103,
      "form": 1104,
      "main": 1105,
      "ned": 1106,
      "ness": 1107,
      "oll": 1108,
      "rain": 1109,
      "ä»": 1110,
      "ä¼": 1111,
      "å®": 1112,
      "åĪ": 1113,
      "åı": 1114,
      "Ġidea": 1115,
      "here": 1116,
      "oud": 1117,
      "Ġbit": 1118,
      "Ġop": 1119,
      "Ġdire": 1120,
      "Ġfar": 1121,
      "ished": 1122,
      "Ġhigh": 1123,
      "ary": 1124,
      "Ġoften": 1125,
      "Ġper": 1126,
      "Ġpass": 1127,
      "Ġint": 1128,
      "Ġinde": 1129,
      "Ġbeing": 1130,
      "Ġel": 1131,
      "Ġeat": 1132,
      "Ġever": 1133,
      "Ġeach": 1134,
      "Ġremar": 1135,
      "Ġran": 1136,
      "Ġseen": 1137,
      "iful": 1138,
      "Ġlog": 1139,
      "Ġleft": 1140,
      "Ġwork": 1141,
      "ully": 1142,
      "Ġyet": 1143,
      "ertain": 1144,
      "Ġdirect": 1145,
      ".)": 1146,
      "cor": 1147,
      "dv": 1148,
      "em": 1149,
      "man": 1150,
      "op": 1151,
      "run": 1152,
      "æľ": 1153,
      "Ġtest": 1154,
      "Ġtake": 1155,
      "Ġair": 1156,
      "Ġsw": 1157,
      "Ġwalk": 1158,
      "ress": 1159,
      "ering": 1160,
      "Ġbounded": 1161,
      "Ġmis": 1162,
      "Ġmain": 1163,
      "ors": 1164,
      "Ġhast": 1165,
      "Ġgen": 1166,
      "adient": 1167,
      "Ġru": 1168,
      "Ġwhy": 1169,
      "aby": 1170,
      "They": 1171,
      "pend": 1172,
      "Ġsudden": 1173,
      "ush": 1174,
      "Ġconf": 1175,
      "Ġjo": 1176,
      "ĠHe": 1177,
      "Ġsomething": 1178,
      "Ġfeel": 1179,
      "Ġwhole": 1180,
      "Ġanything": 1181,
      "Ġplay": 1182,
      "ngl": 1183,
      "ï¼Į": 1184,
      "Ġprint": 1185,
      "Ġspoke": 1186,
      ":âĢĶ": 1187,
      "ali": 1188,
      "con": 1189,
      "cal": 1190,
      "do": 1191,
      "dge": 1192,
      "fully": 1193,
      "haps": 1194,
      "ix": 1195,
      "mo": 1196,
      "ol": 1197,
      "pr": 1198,
      "ppe": 1199,
      "path": 1200,
      "rough": 1201,
      "sent": 1202,
      "val": 1203,
      "ĠO": 1204,
      "Ġought": 1205,
      "Ġtri": 1206,
      "head": 1207,
      "Ġappe": 1208,
      "Ġsat": 1209,
      "Ġsimple": 1210,
      "inah": 1211,
      "itting": 1212,
      "ren": 1213,
      "ret": 1214,
      "ater": 1215,
      "Ġclo": 1216,
      "Ġcreat": 1217,
      "idd": 1218,
      "Ġfoot": 1219,
      "owed": 1220,
      "Ġgave": 1221,
      "Ġeas": 1222,
      "outh": 1223,
      "Ġ__": 1224,
      "erent": 1225,
      "Ġlocal": 1226,
      "Ġdec": 1227,
      "ical": 1228,
      "Ġwhether": 1229,
      "ility": 1230,
      "Ġheads": 1231,
      "This": 1232,
      "plain": 1233,
      "arts": 1234,
      "ĊĠĠĠĠĠĠ": 1235,
      "Ġmany": 1236,
      "```": 1237,
      "Ġmatters": 1238,
      "Ġminute": 1239,
      "Ġmeaning": 1240,
      "Ġbetter": 1241,
      "xiously": 1242,
      "Ġelse": 1243,
      "Ġhastily": 1244,
      "Ġgener": 1245,
      "nglish": 1246,
      "aliz": 1247,
      "CH": 1248,
      "No": 1249,
      "aj": 1250,
      "ez": 1251,
      "gr": 1252,
      "king": 1253,
      "ople": 1254,
      "uck": 1255,
      "with": 1256,
      "ying": 1257,
      "Ġsil": 1258,
      "ited": 1259,
      "Ġcr": 1260,
      "Ġcook": 1261,
      "Ġcertain": 1262,
      "Ġbro": 1263,
      "Ġbus": 1264,
      "eng": 1265,
      "Ġmor": 1266,
      "Ġmouse": 1267,
      "Ġmouth": 1268,
      "Ġlet": 1269,
      "ids": 1270,
      "idly": 1271,
      "Ġdist": 1272,
      "Ġdance": 1273,
      "Ġfall": 1274,
      "ars": 1275,
      "Ġinter": 1276,
      "Ġgone": 1277,
      "ions": 1278,
      "ĠIt": 1279,
      "Ġreturn": 1280,
      "Ġasked": 1281,
      "Ġrate": 1282,
      "Ġattention": 1283,
      "ability": 1284,
      "ife": 1285,
      "ĠDorm": 1286,
      "Ġdeep": 1287,
      "Ġchang": 1288,
      "Ġdidn": 1289,
      "odo": 1290,
      "Ġlarger": 1291,
      "ĠBill": 1292,
      "beg": 1293,
      "Ġturned": 1294,
      "gether": 1295,
      "Ġcourt": 1296,
      "what": 1297,
      "umber": 1298,
      "Ġacross": 1299,
      "Ġoptimizer": 1300,
      "æĸĩ": 1301,
      "Ġremember": 1302,
      "Ġknew": 1303,
      "ä¼ļ": 1304,
      "Ġindeed": 1305,
      "ĠDormouse": 1306,
      "As": 1307,
      "For": 1308,
      "_,âĢĿ": 1309,
      "cum": 1310,
      "cour": 1311,
      "ding": 1312,
      "ek": 1313,
      "eer": 1314,
      "fter": 1315,
      "gs": 1316,
      "his": 1317,
      "ich": 1318,
      "ige": 1319,
      "iers": 1320,
      "little": 1321,
      "mon": 1322,
      "no": 1323,
      "ru": 1324,
      "vid": 1325,
      "zz": 1326,
      "æķ": 1327,
      "è§": 1328,
      "éĩ": 1329,
      "Ġadv": 1330,
      "Ġsl": 1331,
      "rect": 1332,
      "erim": 1333,
      "Ġcle": 1334,
      "Ġbatch": 1335,
      "Ġbaby": 1336,
      "ense": 1337,
      "Ġmet": 1338,
      "Ġdone": 1339,
      "Ġfoll": 1340,
      "cess": 1341,
      "Ġgame": 1342,
      "lie": 1343,
      "ality": 1344,
      "urpr": 1345,
      "Ġreas": 1346,
      "Ġstate": 1347,
      "Then": 1348,
      "Ġshar": 1349,
      "quet": 1350,
      "Who": 1351,
      "Ġmem": 1352,
      "ĠSo": 1353,
      "pped": 1354,
      "ĠDodo": 1355,
      "Ġwhere": 1356,
      "esty": 1357,
      "ĠWhat": 1358,
      "ormaliz": 1359,
      "import": 1360,
      "autiful": 1361,
      "Ġruns": 1362,
      "ĠThere": 1363,
      "Ġused": 1364,
      "Ġhands": 1365,
      "Ġexperim": 1366,
      "Ġdoesn": 1367,
      "Ġbecause": 1368,
      "Ġspeak": 1369,
      "Ġtrying": 1370,
      "Ġtalking": 1371,
      "Ġcats": 1372,
      "Ġbehind": 1373,
      "Ġexecution": 1374,
      "Ġcalled": 1375,
      "duce": 1376,
      "Ġsuddenly": 1377,
      "Ġjoin": 1378,
      "Ġclose": 1379,
      "ajesty": 1380,
      "ength": 1381,
      "igeon": 1382,
      "))": 1383,
      "10": 1384,
      "AP": 1385,
      "ER": 1386,
      "TER": 1387,
      "When": 1388,
      "_,": 1389,
      "_âĢĿ": 1390,
      "bo": 1391,
      "cab": 1392,
      "ipe": 1393,
      "son": 1394,
      "said": 1395,
      "uff": 1396,
      "we": 1397,
      "wn": 1398,
      "would": 1399,
      "¨¡": 1400,
      "ªĮ": 1401,
      "ä¹": 1402,
      "ä¿": 1403,
      "æį": 1404,
      "æ¨¡": 1405,
      "éªĮ": 1406,
      "Ġ{": 1407,
      "Ġsne": 1408,
      "Ġsign": 1409,
      "Ġwant": 1410,
      "ount": 1411,
      "ither": 1412,
      "âĢľ_": 1413,
      "Ġbest": 1414,
      "edding": 1415,
      "Ġob": 1416,
      "Ġown": 1417,
      "Ġdou": 1418,
      "ised": 1419,
      "Ġitself": 1420,
      "Ġsaw": 1421,
      "Ġglo": 1422,
      "step": 1423,
      "roquet": 1424,
      "Ġrest": 1425,
      "Ġstable": 1426,
      "this": 1427,
      "about": 1428,
      "Ġmost": 1429,
      "quence": 1430,
      "ĠMarch": 1431,
      "ĠMajesty": 1432,
      "Ġsub": 1433,
      "herself": 1434,
      "ĠSoup": 1435,
      "pping": 1436,
      "ĠDinah": 1437,
      "Ġord": 1438,
      "ortun": 1439,
      "Ġcho": 1440,
      "redict": 1441,
      "Ġcorrect": 1442,
      "Ġafra": 1443,
      "ract": 1444,
      "mbedding": 1445,
      "ways": 1446,
      "Ġlonger": 1447,
      "ãĢģ": 1448,
      "ä¸Ģ": 1449,
      "ä¸Ń": 1450,
      "Ġcontin": 1451,
      "Ġtokenizer": 1452,
      "ager": 1453,
      "ootman": 1454,
      "iece": 1455,
      "ĠEnglish": 1456,
      "Ġlisten": 1457,
      "Ġamong": 1458,
      "Ġpeople": 1459,
      "Ġminutes": 1460,
      "Ġfinished": 1461,
      "Ġhurry": 1462,
      "Ġhurried": 1463,
      "Ġcheckpoint": 1464,
      "Ġdifferent": 1465,
      "åĪĨ": 1466,
      "conf": 1467,
      "CHAP": 1468,
      "ipeline": 1469,
      "Ġsneez": 1470,
      "Ġafraid": 1471,
      "CHAPTER": 1472,
      "),": 1473,
      "He": 1474,
      "Here": 1475,
      "Not": 1476,
      "ax": 1477,
      "bb": 1478,
      "co": 1479,
      "cond": 1480,
      "day": 1481,
      "ies": 1482,
      "oes": 1483,
      "rink": 1484,
      "ted": 1485,
      "tim": 1486,
      "train": 1487,
      "ually": 1488,
      "ving": 1489,
      "wo": 1490,
      "wor": 1491,
      "®æ": 1492,
      "Ġ[": 1493,
      "Ġim": 1494,
      "įå": 1495,
      "įç": 1496,
      "Ńç»": 1497,
      "Ġtail": 1498,
      "Ġact": 1499,
      "Ġsurpr": 1500,
      "Ġthese": 1501,
      "Ġwit": 1502,
      "Ġwindow": 1503,
      "only": 1504,
      "ated": 1505,
      "Ġbat": 1506,
      "Ġmar": 1507,
      "Ġmas": 1508,
      "Ġmakes": 1509,
      "Ġlife": 1510,
      "ides": 1511,
      "arame": 1512,
      "Ġthrough": 1513,
      "any": 1514,
      "Ġhedge": 1515,
      "Ġpatter": 1516,
      "Ġpredict": 1517,
      "Ġpipeline": 1518,
      "Ġname": 1519,
      "Ġinst": 1520,
      "adata": 1521,
      "your": 1522,
      "Ġeager": 1523,
      "uture": 1524,
      "str": 1525,
      "ently": 1526,
      "Ġreally": 1527,
      "Ġwhis": 1528,
      "them": 1529,
      "think": 1530,
      "abel": 1531,
      "irds": 1532,
      "Ġsea": 1533,
      "Ġsequence": 1534,
      "Ġshow": 1535,
      "Ġshout": 1536,
      "Ġshri": 1537,
      "Ġang": 1538,
      "Ġanxiously": 1539,
      "Ġcons": 1540,
      "Ġcontext": 1541,
      "Ġqueer": 1542,
      "Ġquality": 1543,
      "Ġdeal": 1544,
      "ization": 1545,
      "Ġchange": 1546,
      "load": 1547,
      "lock": 1548,
      "Ġagainst": 1549,
      "ĠHare": 1550,
      "Ġwouldn": 1551,
      "Ġgrin": 1552,
      "Ġword": 1553,
      "Ġfew": 1554,
      "tend": 1555,
      "Ġsaying": 1556,
      "ĠPigeon": 1557,
      "ĠBut": 1558,
      "Ġtears": 1559,
      "Ġkept": 1560,
      "Ġroom": 1561,
      "Ġwrite": 1562,
      "forward": 1563,
      "Ġhardly": 1564,
      "Ġwaited": 1565,
      "Ġplease": 1566,
      "Ġrepeated": 1567,
      "æĺİ": 1568,
      "Ġbeginning": 1569,
      "è®Ńç»": 1570,
      "ĠHowever": 1571,
      "Ġperhaps": 1572,
      "Ġtrial": 1573,
      "Ġcertainly": 1574,
      "vidence": 1575,
      "æķ°": 1576,
      "Ġreason": 1577,
      "Ġsharp": 1578,
      "100": 1579,
      "Ġdoub": 1580,
      "Ġwitness": 1581,
      "arameter": 1582,
      "è®Ńç»ĥ": 1583,
      "Val": 1584,
      "We": 1585,
      "Yes": 1586,
      "cy": 1587,
      "even": 1588,
      "fect": 1589,
      "got": 1590,
      "iet": 1591,
      "iam": 1592,
      "ible": 1593,
      "know": 1594,
      "ls": 1595,
      "look": 1596,
      "mall": 1597,
      "nly": 1598,
      "nave": 1599,
      "sw": 1600,
      "sing": 1601,
      "ued": 1602,
      "´æĺİ": 1603,
      "äº": 1604,
      "æŃ": 1605,
      "è¡": 1606,
      "è¿": 1607,
      "Ġ1": 1608,
      "Ġæ": 1609,
      "Ġti": 1610,
      "Ġsing": 1611,
      "Ġsight": 1612,
      "resent": 1613,
      "ery": 1614,
      "âĢľâĢĶ": 1615,
      "Ġcl": 1616,
      "Ġcap": 1617,
      "Ġbo": 1618,
      "Ġbook": 1619,
      "Ġopp": 1620,
      "Ġmind": 1621,
      "Ġmile": 1622,
      "Ġline": 1623,
      "Ġloud": 1624,
      "Ġlater": 1625,
      "Ġdis": 1626,
      "Ġdes": 1627,
      "Ġdict": 1628,
      "Ġfur": 1629,
      "Ġfact": 1630,
      "ister": 1631,
      "Ġhaving": 1632,
      "arrow": 1633,
      "Ġthose": 1634,
      "aned": 1635,
      "Ġpig": 1636,
      "Ġpool": 1637,
      "Ġnumber": 1638,
      "Ġnormaliz": 1639,
      "Ġinform": 1640,
      "Ġbelie": 1641,
      "Ġevidence": 1642,
      "Ġrecor": 1643,
      "Ġreduce": 1644,
      "Ġask": 1645,
      "Ġsold": 1646,
      "they": 1647,
      "Ġshort": 1648,
      "Ġansw": 1649,
      "Ġexplain": 1650,
      "Ġneed": 1651,
      "Ġjump": 1652,
      "ommon": 1653,
      "ately": 1654,
      "ched": 1655,
      "Ġprove": 1656,
      "pted": 1657,
      "Ġvocab": 1658,
      "raw": 1659,
      "ĠNone": 1660,
      "aught": 1661,
      "Ġ==": 1662,
      "off": 1663,
      "erpent": 1664,
      "è¯´æĺİ": 1665,
      "Ġscale": 1666,
      "Ġbottle": 1667,
      "Ġlearning": 1668,
      "Ġnearly": 1669,
      "aws": 1670,
      "Ġbehav": 1671,
      "rightened": 1672,
      "æĺ¯": 1673,
      "ç»ĵ": 1674,
      "Ġchildren": 1675,
      "Ġglad": 1676,
      "ended": 1677,
      "Ġpuzz": 1678,
      "Ġrule": 1679,
      "important": 1680,
      "æ¨¡å": 1681,
      "Ġgloves": 1682,
      "ractical": 1683,
      "ä¸Ńæĸĩ": 1684,
      "Ġshouted": 1685,
      "Validation": 1686,
      "\",": 1687,
      "):": 1688,
      ",)": 1689,
      "An": 1690,
      "Do": 1691,
      "Now": 1692,
      "Off": 1693,
      "Would": 1694,
      "aim": 1695,
      "aus": 1696,
      "again": 1697,
      "ci": 1698,
      "can": 1699,
      "could": 1700,
      "had": 1701,
      "ier": 1702,
      "ior": 1703,
      "ky": 1704,
      "name": 1705,
      "some": 1706,
      "side": 1707,
      "tone": 1708,
      "time": 1709,
      "ual": 1710,
      "ured": 1711,
      "ude": 1712,
      "window": 1713,
      "£Ģ": 1714,
      "å°": 1715,
      "å¾": 1716,
      "åľ": 1717,
      "æŁ": 1718,
      "Ġent": 1719,
      "ĠOh": 1720,
      "ĥ½": 1721,
      "Ļ¨": 1722,
      "ŀĭ": 1723,
      "Ġsp": 1724,
      "Ġslow": 1725,
      "Ġsitting": 1726,
      "Ġsister": 1727,
      "Ġco": 1728,
      "Ġcar": 1729,
      "Ġcli": 1730,
      "Ġcare": 1731,
      "Ġcroquet": 1732,
      "Ġbu": 1733,
      "Ġblock": 1734,
      "edforward": 1735,
      "Ġtop": 1736,
      "Ġlying": 1737,
      "idate": 1738,
      "Ġdream": 1739,
      "Ġfell": 1740,
      "Ġhas": 1741,
      "Ġhall": 1742,
      "Ġhold": 1743,
      "aring": 1744,
      "leep": 1745,
      "Ġpers": 1746,
      "Ġparameter": 1747,
      "Ġnice": 1748,
      "Ġgive": 1749,
      "Ġembedding": 1750,
      "met": 1751,
      "als": 1752,
      "ĠIn": 1753,
      "sting": 1754,
      "room": 1755,
      "Ġreload": 1756,
      "âĢĶâĢĺ": 1757,
      "Ġwhite": 1758,
      "Ġwhiting": 1759,
      "Ġstage": 1760,
      "Ġnotic": 1761,
      "illiam": 1762,
      "Ġsuc": 1763,
      "Ġupd": 1764,
      "usion": 1765,
      "Ġlobst": 1766,
      "Ġconvers": 1767,
      "pper": 1768,
      "Ġdepend": 1769,
      "loat": 1770,
      "Ġgradient": 1771,
      "ĠKnave": 1772,
      "Ġoffended": 1773,
      "antly": 1774,
      "tem": 1775,
      "Ġyourself": 1776,
      "ĠPath": 1777,
      "ĠPractical": 1778,
      "Ġthinking": 1779,
      "ney": 1780,
      "rowd": 1781,
      "ĠBe": 1782,
      "ĠFootman": 1783,
      "atching": 1784,
      "Ġtokens": 1785,
      "ĠLo": 1786,
      "Ġturns": 1787,
      "Ġturning": 1788,
      "Ġkey": 1789,
      "Ġplace": 1790,
      "è¯ģ": 1791,
      "iew": 1792,
      "__\":": 1793,
      "Ġwrong": 1794,
      "Ġeverything": 1795,
      "Ġ\"__": 1796,
      "Ġlearn": 1797,
      "Ġready": 1798,
      "Ġgrowing": 1799,
      "Ġwaiting": 1800,
      "Ġhappen": 1801,
      "Ġoptimization": 1802,
      "Ġresult": 1803,
      "Ġtimidly": 1804,
      "Ġlessons": 1805,
      "Ġtremb": 1806,
      "Ġsuppose": 1807,
      "åı¯": 1808,
      "Ġopen": 1809,
      "Ġopened": 1810,
      "Ġlogits": 1811,
      "Ġwalked": 1812,
      "Ġfeeling": 1813,
      "Ġcreatures": 1814,
      "Ġsilence": 1815,
      "began": 1816,
      "rupted": 1817,
      "éĩį": 1818,
      "Ġslates": 1819,
      "Ġexperiment": 1820,
      "éªĮè¯ģ": 1821,
      "ortunity": 1822,
      "Ġcontinued": 1823,
      "times": 1824,
      "Ġhedgeho": 1825,
      "Ġdoubt": 1826,
      "Ġopportunity": 1827,
      "Ġbelieve": 1828,
      "Ġsoldiers": 1829,
      "Ġbehavior": 1830,
      "£ĢæŁ": 1831,
      "£ĢæŁ¥": 1832,
      ".âĢĻâĢĿ": 1833,
      "?_âĢĿ": 1834,
      "Of": 1835,
      "PU": 1836,
      "Turtle": 1837,
      "With": 1838,
      "]:": 1839,
      "ced": 1840,
      "cus": 1841,
      "ear": 1842,
      "ead": 1843,
      "fe": 1844,
      "fort": 1845,
      "go": 1846,
      "grow": 1847,
      "how": 1848,
      "hand": 1849,
      "have": 1850,
      "iol": 1851,
      "mind": 1852,
      "ring": 1853,
      "vo": 1854,
      "®µ": 1855,
      "¶æ": 1856,
      "æİ": 1857,
      "æ£ĢæŁ¥": 1858,
      "è¦": 1859,
      "è¾": 1860,
      "éĢ": 1861,
      "éĺ": 1862,
      "Ġour": 1863,
      "hesh": 1864,
      "Ġsent": 1865,
      "Ġsound": 1866,
      "inting": 1867,
      "iness": 1868,
      "Ġwood": 1869,
      "rew": 1870,
      "atient": 1871,
      "Ġcross": 1872,
      "Ġcrowd": 1873,
      "Ġmidd": 1874,
      "Ġtogether": 1875,
      "Ġloop": 1876,
      "ided": 1877,
      "Ġdi": 1878,
      "Ġdat": 1879,
      "Ġden": 1880,
      "Ġdry": 1881,
      "Ġho": 1882,
      "Ġhon": 1883,
      "ceed": 1884,
      "cept": 1885,
      "ark": 1886,
      "lem": 1887,
      "let": 1888,
      "ase": 1889,
      "ank": 1890,
      "anch": 1891,
      "Ġheld": 1892,
      "Ġpiece": 1893,
      "Ġnarrow": 1894,
      "Ġsad": 1895,
      "lig": 1896,
      "light": 1897,
      "ĠâĢľâĢĶ": 1898,
      "Ġbeautiful": 1899,
      "Ġeither": 1900,
      "ĠAt": 1901,
      "Ġwasn": 1902,
      "ural": 1903,
      "chool": 1904,
      "Ġremain": 1905,
      "etch": 1906,
      "âĢĶâĢľ": 1907,
      "imney": 1908,
      "Ġsolem": 1909,
      "then": 1910,
      "their": 1911,
      "Ġstay": 1912,
      "Ġstood": 1913,
      "Ġforward": 1914,
      "Ġforgot": 1915,
      "Ġsecond": 1916,
      "Ġshut": 1917,
      "Ġshape": 1918,
      "Ġshoes": 1919,
      "Ġhadn": 1920,
      "pered": 1921,
      "rily": 1922,
      "Ġdocum": 1923,
      "Ġexpect": 1924,
      "ardon": 1925,
      "Ġneck": 1926,
      "Ġkind": 1927,
      "Ġmeans": 1928,
      "ular": 1929,
      "ulary": 1930,
      "ĠSmall": 1931,
      "Ġquiet": 1932,
      "aming": 1933,
      "ppy": 1934,
      "Ġdelight": 1935,
      "icult": 1936,
      "Ġchin": 1937,
      "Ġnose": 1938,
      "Ġgold": 1939,
      "Ġcouldn": 1940,
      "Ġleave": 1941,
      "Ġprocess": 1942,
      "Ġgrown": 1943,
      "Ġfeedforward": 1944,
      "aven": 1945,
      "arer": 1946,
      "Ġalso": 1947,
      "Ġalways": 1948,
      "Ġarg": 1949,
      "ĠFor": 1950,
      "Ġeng": 1951,
      "Ġsmaller": 1952,
      "Ġimpro": 1953,
      "Ġcomp": 1954,
      "Ġeye": 1955,
      "Ġweak": 1956,
      "Ġbecom": 1957,
      "Ġbecome": 1958,
      "onsense": 1959,
      "Ġhappened": 1960,
      "Ġparty": 1961,
      "Ġgardeners": 1962,
      "Ġhelps": 1963,
      "losses": 1964,
      "tokenizer": 1965,
      "Ġimportant": 1966,
      "ĠWilliam": 1967,
      "Ġtimes": 1968,
      "Ġdifficult": 1969,
      "Ġglass": 1970,
      "Ġpuppy": 1971,
      "Ġprojection": 1972,
      "ä»¥": 1973,
      "Ġremark": 1974,
      "æľ¬": 1975,
      "ressed": 1976,
      "ushroom": 1977,
      "Ġappeared": 1978,
      "ĊĠĠĠĠĠĠĠĠ": 1979,
      "Ġmeaningful": 1980,
      "Ġgenerally": 1981,
      "Ġbroken": 1982,
      "Ġbusiness": 1983,
      "Ġmoral": 1984,
      "Ġdistance": 1985,
      "Ġinterrupted": 1986,
      "court": 1987,
      "Ġfollowed": 1988,
      "ä¿Ŀ": 1989,
      "config": 1990,
      "Ġpattern": 1991,
      "Ġeagerly": 1992,
      "Ġvocabulary": 1993,
      "æ¨¡åŀĭ": 1994,
      "Ġslowly": 1995,
      "Ġnoticed": 1996,
      "Ġconversation": 1997,
      "heshire": 1998,
      "Ġmiddle": 1999,
      "=\"": 2000,
      "At": 2001,
      "Be": 2002,
      "Don": 2003,
      "Just": 2004,
      "Let": 2005,
      "Sh": 2006,
      "St": 2007,
      "Will": 2008,
      "bs": 2009,
      "bly": 2010,
      "com": 2011,
      "down": 2012,
      "dict": 2013,
      "duc": 2014,
      "future": 2015,
      "ging": 2016,
      "json": 2017,
      "long": 2018,
      "length": 2019,
      "men": 2020,
      "ner": 2021,
      "oly": 2022,
      "pig": 2023,
      "rown": 2024,
      "radient": 2025,
      "su": 2026,
      "tif": 2027,
      "tory": 2028,
      "ud": 2029,
      "view": 2030,
      "´ç": 2031,
      "¸¸": 2032,
      "»ç»ĵ": 2033,
      "å½": 2034,
      "åŃ": 2035,
      "å¸¸": 2036,
      "æĽ": 2037,
      "æĿ": 2038,
      "æŀ": 2039,
      "çİ": 2040,
      "çĽ": 2041,
      "èĥ½": 2042,
      "Ġ0": 2043,
      "Ġver": 2044,
      "Ġve": 2045,
      "ĠYou": 2046,
      "Ġä¸Ńæĸĩ": 2047,
      "Ģ»ç»ĵ": 2048,
      "ģæ": 2049,
      "Ĥ¹": 2050,
      "łĩ": 2051,
      "Ġsn": 2052,
      "Ġsir": 2053,
      "Ġsong": 2054,
      "Ġserpent": 2055,
      "Ġsleep": 2056,
      "Ġschool": 2057,
      "ouble": 2058,
      "itten": 2059,
      "ative": 2060,
      "err": 2061,
      "erv": 2062,
      "Ġche": 2063,
      "Ġcount": 2064,
      "Ġbl": 2065,
      "Ġbright": 2066,
      "Ġoh": 2067,
      "Ġmel": 2068,
      "Ġmine": 2069,
      "Ġlay": 2070,
      "Ġlate": 2071,
      "Ġlength": 2072,
      "ider": 2073,
      "ident": 2074,
      "Ġdet": 2075,
      "orrow": 2076,
      "Ġfas": 2077,
      "Ġfull": 2078,
      "Ġfix": 2079,
      "Ġfrightened": 2080,
      "ison": 2081,
      "Ġhour": 2082,
      "Ġhair": 2083,
      "less": 2084,
      "Ġpict": 2085,
      "Ġpardon": 2086,
      "Ġnonsense": 2087,
      "Ġinches": 2088,
      "Ġgir": 2089,
      "lic": 2090,
      "Ġegg": 2091,
      "veral": 2092,
      "Ġyouth": 2093,
      "stand": 2094,
      "stance": 2095,
      "entures": 2096,
      "Ġremind": 2097,
      "etime": 2098,
      "Ġstability": 2099,
      "ssible": 2100,
      "Ġisn": 2101,
      "Ġattend": 2102,
      "Ġshap": 2103,
      "Ġannot": 2104,
      "ric": 2105,
      "riz": 2106,
      "Ġvent": 2107,
      "together": 2108,
      "eresting": 2109,
      "Ġext": 2110,
      "Ġexact": 2111,
      "Ġexcl": 2112,
      "ards": 2113,
      "Ġlove": 2114,
      "rying": 2115,
      "Ġoutput": 2116,
      "ĠSh": 2117,
      "ĠTh": 2118,
      "Ġquick": 2119,
      "Ġcannot": 2120,
      "ĠCheshire": 2121,
      "izard": 2122,
      "Ġchimney": 2123,
      "Ġbegun": 2124,
      "Ġgrave": 2125,
      "Ġworld": 2126,
      "Ġworth": 2127,
      "Ġvalue": 2128,
      "Ġvalidate": 2129,
      "appe": 2130,
      "append": 2131,
      "oder": 2132,
      "odel": 2133,
      "inea": 2134,
      "Ġlosses": 2135,
      "aves": 2136,
      "Ġhowever": 2137,
      "Ġalong": 2138,
      "alking": 2139,
      "Ġhimself": 2140,
      "Ġartif": 2141,
      "Ġrunning": 2142,
      "Ġtea": 2143,
      "Ġtem": 2144,
      "Ġtext": 2145,
      "ĠFive": 2146,
      "aged": 2147,
      "ĠLory": 2148,
      "Ġplan": 2149,
      "Ġrepresent": 2150,
      "è¯įå": 2151,
      "Ġcoming": 2152,
      "Ġwritten": 2153,
      "Ġscream": 2154,
      "Ġpepper": 2155,
      "olded": 2156,
      "ĠâĢĺ_": 2157,
      "Ġpress": 2158,
      "Ġlearned": 2159,
      "Ġpleased": 2160,
      "Ġguinea": 2161,
      "Ġarms": 2162,
      "Ġflaming": 2163,
      "Ġtrees": 2164,
      "å®ŀ": 2165,
      "Ġinteresting": 2166,
      "Ġremarked": 2167,
      "Ġdirection": 2168,
      "ems": 2169,
      "Ġswim": 2170,
      "most": 2171,
      "value": 2172,
      "Ġdecided": 2173,
      "Ġcleaned": 2174,
      "Ġmemor": 2175,
      "Ġmemory": 2176,
      "Ġexecutioner": 2177,
      "box": 2178,
      "steps": 2179,
      "Ġorder": 2180,
      "Ġchoice": 2181,
      "åĪĨè¯įå": 2182,
      "Ġsneezing": 2183,
      "Ġsurprised": 2184,
      "Ġmarked": 2185,
      "Ġmask": 2186,
      "æķ°æį": 2187,
      "è¡Į": 2188,
      "ĠæĢ»ç»ĵ": 2189,
      "Ġtired": 2190,
      "Ġnormalization": 2191,
      "Ġinformation": 2192,
      "Ġrecord": 2193,
      "Ġpuzzled": 2194,
      "å°ı": 2195,
      "Ġlobsters": 2196,
      "Ġhedgehog": 2197,
      "éĢļ": 2198,
      "atiently": 2199,
      "ancholy": 2200,
      "Ġgolden": 2201,
      "Ġbecomes": 2202,
      "Ġmelancholy": 2203,
      "Ġannotations": 2204,
      "åĪĨè¯įåĻ¨": 2205,
      ").": 2206,
      ")`": 2207,
      "Are": 2208,
      "All": 2209,
      "After": 2210,
      "Ex": 2211,
      "Every": 2212,
      "On": 2213,
      "One": 2214,
      "PE": 2215,
      "_âĢĶ": 2216,
      "_.âĢĿ": 2217,
      "bability": 2218,
      "cc": 2219,
      "cle": 2220,
      "ext": 2221,
      "fish": 2222,
      "fitting": 2223,
      "gar": 2224,
      "iv": 2225,
      "lite": 2226,
      "min": 2227,
      "med": 2228,
      "model": 2229,
      "par": 2230,
      "pret": 2231,
      "ser": 2232,
      "sed": 2233,
      "say": 2234,
      "size": 2235,
      "ty": 2236,
      "tered": 2237,
      "wr": 2238,
      "went": 2239,
      "will": 2240,
      "wonder": 2241,
      "wise": 2242,
      "where": 2243,
      "©ç": 2244,
      "½®": 2245,
      "ä½": 2246,
      "åº": 2247,
      "åħ": 2248,
      "åĬ": 2249,
      "åĮ": 2250,
      "åĲ": 2251,
      "æ³": 2252,
      "ç¡": 2253,
      "çĤ¹": 2254,
      "ĊĊĠĠĠ": 2255,
      "Ġes": 2256,
      "Ġerr": 2257,
      "Ģ¼": 2258,
      "łģ": 2259,
      "Ġten": 2260,
      "Ġtar": 2261,
      "Ġtreat": 2262,
      "Ġtarts": 2263,
      "Ġsqu": 2264,
      "Ġsigh": 2265,
      "Ġsounded": 2266,
      "ines": 2267,
      "instance": 2268,
      "Ġwaving": 2269,
      "ones": 2270,
      "itude": 2271,
      "rent": 2272,
      "inger": 2273,
      "Ġcut": 2274,
      "Ġcatch": 2275,
      "Ġcaus": 2276,
      "Ġcase": 2277,
      "Ġbreat": 2278,
      "Ġbirds": 2279,
      "Ġmaking": 2280,
      "Ġmushroom": 2281,
      "Ġtold": 2282,
      "Ġlad": 2283,
      "Ġlabel": 2284,
      "Ġdro": 2285,
      "Ġdim": 2286,
      "Ġdread": 2287,
      "Ġfour": 2288,
      "isy": 2289,
      "Ġhun": 2290,
      "Ġhome": 2291,
      "Ġhaven": 2292,
      "arm": 2293,
      "arge": 2294,
      "Ġthough": 2295,
      "Ġthrow": 2296,
      "ases": 2297,
      "Ġheight": 2298,
      "Ġpack": 2299,
      "Ġpair": 2300,
      "Ġnerv": 2301,
      "esides": 2302,
      "Ġins": 2303,
      "Ġincl": 2304,
      "Ġinput": 2305,
      "Ġgi": 2306,
      "Ġgre": 2307,
      "like": 2308,
      "set": 2309,
      "ĠAn": 2310,
      "ĠAs": 2311,
      "Ġreach": 2312,
      "Ġreview": 2313,
      "Ġunt": 2314,
      "Ġass": 2315,
      "Ġrat": 2316,
      "Ġrabbit": 2317,
      "Ġstra": 2318,
      "Ġstart": 2319,
      "Ġstory": 2320,
      "Ġstick": 2321,
      "Ġisinstance": 2322,
      "thought": 2323,
      "Ġsees": 2324,
      "Ġsepar": 2325,
      "Ġshan": 2326,
      "Ġshook": 2327,
      "Ġshrink": 2328,
      "Ġanim": 2329,
      "ribut": 2330,
      "riend": 2331,
      "Ġmove": 2332,
      "Ġvan": 2333,
      "Ġviol": 2334,
      "Ġdoing": 2335,
      "ookah": 2336,
      "Which": 2337,
      "Ġnew": 2338,
      "Ġkid": 2339,
      "Ġsum": 2340,
      "Ġmeant": 2341,
      "Ġconcl": 2342,
      "ĠThis": 2343,
      "ĠTwo": 2344,
      "amp": 2345,
      "Ġjur": 2346,
      "Ġlive": 2347,
      "Ġtrouble": 2348,
      "ĠCheck": 2349,
      "ĠCommon": 2350,
      "Ġchance": 2351,
      "iling": 2352,
      "ilence": 2353,
      "Ġgoes": 2354,
      "Ġgoal": 2355,
      "Ġhistory": 2356,
      "Ġleast": 2357,
      "Ġprof": 2358,
      "Ġprobability": 2359,
      "Ġgrun": 2360,
      "ocket": 2361,
      "Ġsomebody": 2362,
      "Ġsometimes": 2363,
      "ĠGPU": 2364,
      "Ġvalu": 2365,
      "Ġpolite": 2366,
      "ineering": 2367,
      "Ġaffect": 2368,
      "ĠNo": 2369,
      "Ġtwel": 2370,
      "Ġaltogether": 2371,
      "Ġalmost": 2372,
      "Ġothers": 2373,
      "ĠThey": 2374,
      "ansform": 2375,
      "Ġusually": 2376,
      "Ġusual": 2377,
      "butter": 2378,
      "Ġhandle": 2379,
      "Ġcurrent": 2380,
      "before": 2381,
      "ĠLet": 2382,
      "ĠLizard": 2383,
      "Ġreply": 2384,
      "Ġmanage": 2385,
      "Ġexamples": 2386,
      "Ġrose": 2387,
      "Ġroof": 2388,
      "Ġsteps": 2389,
      "Ġsetting": 2390,
      "lease": 2391,
      "Ġeverybody": 2392,
      "\"),": 2393,
      "upid": 2394,
      "wards": 2395,
      "Ġfinite": 2396,
      "Ġfinish": 2397,
      "Ġunf": 2398,
      "ulti": 2399,
      "Ġlower": 2400,
      "airs": 2401,
      "Ġacc": 2402,
      "Ġwondering": 2403,
      "Ġhappens": 2404,
      "gging": 2405,
      "ï¼ļ": 2406,
      "Ġrespect": 2407,
      "Ġfancy": 2408,
      "Ġguess": 2409,
      "Ġears": 2410,
      "Ġremembered": 2411,
      "Ġknee": 2412,
      "Ġ`(": 2413,
      "acup": 2414,
      "bster": 2415,
      "Ġdirectly": 2416,
      "Ġtests": 2417,
      "Ġswam": 2418,
      "ĠHearts": 2419,
      "idden": 2420,
      "Ġeasier": 2421,
      "Ġdecoder": 2422,
      "ĊĠĠĠĠĠĠĠĠĠĠĠ": 2423,
      "Ġchanged": 2424,
      "Ġchanges": 2425,
      "ä¼ļæ": 2426,
      "è§Ħ": 2427,
      "Ġmetadata": 2428,
      "Ġfollow": 2429,
      "uffled": 2430,
      "ween": 2431,
      "Ġsignal": 2432,
      "Ġsubject": 2433,
      "Ġcorrectness": 2434,
      "training": 2435,
      "worth": 2436,
      "®æłĩ": 2437,
      "Ġ[]": 2438,
      "įç½®": 2439,
      "Ġactiv": 2440,
      "Ġwhispered": 2441,
      "Ġshrill": 2442,
      "Ġangry": 2443,
      "Ġangrily": 2444,
      "Ġconsid": 2445,
      "Ġsharply": 2446,
      "looking": 2447,
      "äºİ": 2448,
      "Ġbox": 2449,
      "Ġanswer": 2450,
      "rawling": 2451,
      "aimed": 2452,
      "åľ¨": 2453,
      "Ġspread": 2454,
      "Ġclipping": 2455,
      "Ġparameters": 2456,
      "metric": 2457,
      "Ġsucceed": 2458,
      "Ġdepends": 2459,
      "tempt": 2460,
      "Ġtrembling": 2461,
      "¶æ®µ": 2462,
      "æİ©ç": 2463,
      "è¦ģ": 2464,
      "éĺ¶æ®µ": 2465,
      "Ġdatetime": 2466,
      "Ġforgotten": 2467,
      "Ġquietly": 2468,
      "Ġargum": 2469,
      "Ġengineering": 2470,
      "æĽ´": 2471,
      "æŀľ": 2472,
      "çĽ®æłĩ": 2473,
      "Ġeggs": 2474,
      "Ġreminder": 2475,
      "rizes": 2476,
      "Ġexactly": 2477,
      "Ġexclaimed": 2478,
      "ĠThat": 2479,
      "Ġquickly": 2480,
      "Ġartifact": 2481,
      "Ġtemper": 2482,
      "Ġflamingo": 2483,
      "Ġerrors": 2484,
      "Ġtarget": 2485,
      "Ġsque": 2486,
      "Ġdimens": 2487,
      "Ġnervous": 2488,
      "Ġstraight": 2489,
      "ribution": 2490,
      "Ġpolitely": 2491,
      "æİ©çłģ": 2492,
      "!âĢĻ": 2493,
      "!_âĢĿ": 2494,
      "?âĢĶ": 2495,
      "By": 2496,
      "Call": 2497,
      "First": 2498,
      "Gryphon": 2499,
      "Gradient": 2500,
      "Hold": 2501,
      "II": 2502,
      "My": 2503,
      "Please": 2504,
      "Queen": 2505,
      "Sure": 2506,
      "Very": 2507,
      "],": 2508,
      "az": 2509,
      "after": 2510,
      "by": 2511,
      "book": 2512,
      "birds": 2513,
      "cre": 2514,
      "cat": 2515,
      "cent": 2516,
      "come": 2517,
      "cause": 2518,
      "cape": 2519,
      "don": 2520,
      "der": 2521,
      "fr": 2522,
      "fit": 2523,
      "float": 2524,
      "gli": 2525,
      "hor": 2526,
      "hot": 2527,
      "happ": 2528,
      "ied": 2529,
      "ibb": 2530,
      "ibly": 2531,
      "just": 2532,
      "len": 2533,
      "large": 2534,
      "mp": 2535,
      "my": 2536,
      "must": 2537,
      "mom": 2538,
      "minut": 2539,
      "max": 2540,
      "ny": 2541,
      "oh": 2542,
      "os": 2543,
      "py": 2544,
      "pical": 2545,
      "piece": 2546,
      "ron": 2547,
      "sc": 2548,
      "spl": 2549,
      "tell": 2550,
      "tree": 2551,
      "two": 2552,
      "uad": 2553,
      "udge": 2554,
      "vent": 2555,
      "whe": 2556,
      "ware": 2557,
      "when": 2558,
      "ypical": 2559,
      "¦Ĥ": 2560,
      "°´ç": 2561,
      "µģæ": 2562,
      "º¿": 2563,
      "å·": 2564,
      "åĩ": 2565,
      "åī": 2566,
      "åİ": 2567,
      "åĢ¼": 2568,
      "å¦Ĥ": 2569,
      "æĦ": 2570,
      "æī": 2571,
      "æĹ": 2572,
      "çķ": 2573,
      "è¶": 2574,
      "è½": 2575,
      "ĊĠ": 2576,
      "Ġ+": 2577,
      "ĠV": 2578,
      "Ġ|": 2579,
      "ĠâĢĻ": 2580,
      "Ġvers": 2581,
      "Ġids": 2582,
      "ĠValidation": 2583,
      "ĴĮ": 2584,
      "Ġtong": 2585,
      "Ġtast": 2586,
      "Ġtree": 2587,
      "Ġtens": 2588,
      "Ġtaking": 2589,
      "Ġtaught": 2590,
      "Ġage": 2591,
      "Ġsin": 2592,
      "Ġsit": 2593,
      "Ġsoup": 2594,
      "Ġsky": 2595,
      "Ġsorrow": 2596,
      "inter": 2597,
      "Ġwow": 2598,
      "Ġwand": 2599,
      "Ġwild": 2600,
      "oun": 2601,
      "ital": 2602,
      "itche": 2603,
      "rely": 2604,
      "atural": 2605,
      "ings": 2606,
      "Ġcaut": 2607,
      "Ġbad": 2608,
      "Ġburn": 2609,
      "Ġbowed": 2610,
      "Ġmut": 2611,
      "Ġmice": 2612,
      "Ġmix": 2613,
      "Ġmax": 2614,
      "lle": 2615,
      "Ġdish": 2616,
      "Ġdare": 2617,
      "Ġdrink": 2618,
      "Ġdrew": 2619,
      "Ġdark": 2620,
      "orpo": 2621,
      "Ġfun": 2622,
      "Ġfast": 2623,
      "Ġfig": 2624,
      "Ġfree": 2625,
      "Ġfire": 2626,
      "Ġfile": 2627,
      "Ġfail": 2628,
      "Ġflow": 2629,
      "Ġfuture": 2630,
      "Ġfloat": 2631,
      "Ġfetch": 2632,
      "Ġfrown": 2633,
      "Ġfinger": 2634,
      "Ġfriend": 2635,
      "iss": 2636,
      "ises": 2637,
      "Ġhookah": 2638,
      "Ġhidden": 2639,
      "arly": 2640,
      "lead": 2641,
      "ash": 2642,
      "asic": 2643,
      "aning": 2644,
      "anxiously": 2645,
      "anced": 2646,
      "Ġpur": 2647,
      "Ġpale": 2648,
      "Ġporpo": 2649,
      "Ġnur": 2650,
      "Ġnone": 2651,
      "Ġnight": 2652,
      "Ġsave": 2653,
      "ĠâĢľ_": 2654,
      "ade": 2655,
      "Ġbeat": 2656,
      "Ġbeaut": 2657,
      "Ġbelong": 2658,
      "sea": 2659,
      "Ġem": 2660,
      "Ġeff": 2661,
      "Ġyoung": 2662,
      "stri": 2663,
      "stems": 2664,
      "roduc": 2665,
      "ropy": 2666,
      "Ġhers": 2667,
      "Ġrepo": 2668,
      "Ġreco": 2669,
      "verely": 2670,
      "oose": 2671,
      "aint": 2672,
      "key": 2673,
      "Ġraw": 2674,
      "Ġrange": 2675,
      "imble": 2676,
      "Ġsobs": 2677,
      "ction": 2678,
      "Ġsto": 2679,
      "Ġstand": 2680,
      "Ġstack": 2681,
      "Ġstop": 2682,
      "ayer": 2683,
      "Ġnote": 2684,
      "Ġform": 2685,
      "Ġforget": 2686,
      "though": 2687,
      "through": 2688,
      "ably": 2689,
      "Ġseveral": 2690,
      "Ġseverely": 2691,
      "ify": 2692,
      "peak": 2693,
      "rille": 2694,
      "Ġmoving": 2695,
      "question": 2696,
      "Ġvar": 2697,
      "Ġexist": 2698,
      "ĠMabel": 2699,
      "Ġnearer": 2700,
      "Ġkitche": 2701,
      "Ġsul": 2702,
      "using": 2703,
      "used": 2704,
      "Ġload": 2705,
      "Ġlock": 2706,
      "Ġlogging": 2707,
      "Ġoutside": 2708,
      "selves": 2709,
      "ĠSoo": 2710,
      "ĠTr": 2711,
      "Ġjudge": 2712,
      "Ġknock": 2713,
      "ĠDo": 2714,
      "Ġdead": 2715,
      "icers": 2716,
      "icular": 2717,
      "Ġtrust": 2718,
      "Ġtrue": 2719,
      "ĠCome": 2720,
      "ights": 2721,
      "ests": 2722,
      "Ġnobody": 2723,
      "Ġnoisy": 2724,
      "Ġlikely": 2725,
      "asts": 2726,
      "inkling": 2727,
      "Ġlead": 2728,
      "Ġleaves": 2729,
      "igging": 2730,
      "Ġproper": 2731,
      "Ġgrass": 2732,
      "ected": 2733,
      "aper": 2734,
      "pose": 2735,
      "pointing": 2736,
      "Ġfear": 2737,
      "ode": 2738,
      "Ġmyself": 2739,
      "Ġsays": 2740,
      "Ġmodels": 2741,
      "Ġ(âĢľ": 2742,
      "Ġtwice": 2743,
      "Ġalone": 2744,
      "ä¸İ": 2745,
      "hole": 2746,
      "Ġarches": 2747,
      "never": 2748,
      "ĠBPE": 2749,
      "Ġteacup": 2750,
      "Ġuses": 2751,
      "ĠFather": 2752,
      "because": 2753,
      "oots": 2754,
      "ootiful": 2755,
      "Ġsystems": 2756,
      "Ġseems": 2757,
      "Ġimpatiently": 2758,
      "Ġmanaged": 2759,
      "shape": 2760,
      "Ġcomput": 2761,
      "Ġweek": 2762,
      "Ġweights": 2763,
      "Ġwriting": 2764,
      "Ġyer": 2765,
      "Ġscal": 2766,
      "anged": 2767,
      "Ġsett": 2768,
      "while": 2769,
      "which": 2770,
      "Ġpeep": 2771,
      "Ġspeaking": 2772,
      "Ġfinal": 2773,
      "Ġunderstand": 2774,
      "Ġjurymen": 2775,
      "(\"\\": 2776,
      "class": 2777,
      "Ġstrange": 2778,
      "sol": 2779,
      "Ġparticular": 2780,
      "gged": 2781,
      "Ġbring": 2782,
      "Ġexecuted": 2783,
      "Ġearly": 2784,
      "tokens": 2785,
      "Ġpositions": 2786,
      "Ġlesson": 2787,
      "Ġflat": 2788,
      "Ġfaces": 2789,
      "Ġbetween": 2790,
      "Ġkeeps": 2791,
      "acity": 2792,
      "example": 2793,
      "execut": 2794,
      "å¤§": 2795,
      "å¤±": 2796,
      "Ġsupport": 2797,
      "Ġsuppressed": 2798,
      "å®ĥ": 2799,
      "Ġpassed": 2800,
      "Ġworks": 2801,
      "æľī": 2802,
      "Ġmissing": 2803,
      "Ġconfig": 2804,
      "Ġplayers": 2805,
      "door": 2806,
      "rench": 2807,
      "retched": 2808,
      "Ġcreature": 2809,
      "Ġeasy": 2810,
      "Ġeasily": 2811,
      "ground": 2812,
      "without": 2813,
      "Ġsilent": 2814,
      "Ġbroad": 2815,
      "Ġbusily": 2816,
      "Ġmorning": 2817,
      "Ġmouths": 2818,
      "Ġdistribution": 2819,
      "Ġfallen": 2820,
      "Ġinterpret": 2821,
      "Ġdeeply": 2822,
      "begin": 2823,
      "Ġadventures": 2824,
      "Ġexperiments": 2825,
      "ä¿¡": 2826,
      "Ġordered": 2827,
      "Nothing": 2828,
      "bbing": 2829,
      "Ġimmed": 2830,
      "Ġsurprise": 2831,
      "Ġbats": 2832,
      "Ġbatches": 2833,
      "anything": 2834,
      "Ġprediction": 2835,
      "Ġinstantly": 2836,
      "Ġinstead": 2837,
      "Ġshriek": 2838,
      "fectly": 2839,
      "æŃ£": 2840,
      "Ġcapital": 2841,
      "Ġmilest": 2842,
      "Ġjumped": 2843,
      "Ġcarried": 2844,
      "Ġbuild": 2845,
      "Ġupdate": 2846,
      "Ġupdates": 2847,
      "ĠBeau": 2848,
      "ĠLobster": 2849,
      "éĩįè¦ģ": 2850,
      "fortable": 2851,
      "Ġsentence": 2852,
      "Ġhope": 2853,
      "Ġhonour": 2854,
      "Ġpieces": 2855,
      "Ġsadly": 2856,
      "Ġsolemnly": 2857,
      "Ġdocument": 2858,
      "Ġprocession": 2859,
      "Ġimprove": 2860,
      "Ġdifficulty": 2861,
      "Ġpatterns": 2862,
      "jsonl": 2863,
      "pigs": 2864,
      "æĿ¥": 2865,
      "Ġvect": 2866,
      "Ġsleepy": 2867,
      "Ġfaster": 2868,
      "Ġhours": 2869,
      "Ġgirl": 2870,
      "Ġattending": 2871,
      "Ġshapes": 2872,
      "Ġscreamed": 2873,
      "Ġdecidedly": 2874,
      "Ġchoices": 2875,
      "æķ°æį®æ": 2876,
      "éĢļå¸¸": 2877,
      "saying": 2878,
      "Ġbreath": 2879,
      "Ġdreadfully": 2880,
      "Ġinspect": 2881,
      "Ġgreen": 2882,
      "ĠAnn": 2883,
      "Ġuntil": 2884,
      "Ġshrinking": 2885,
      "Ġvanished": 2886,
      "Ġjurors": 2887,
      "ĠCheckpoint": 2888,
      "Ġgrunted": 2889,
      "Ġtwelve": 2890,
      "ansformer": 2891,
      "Ġargument": 2892,
      "Ġdimension": 2893,
      "glif": 2894,
      "moment": 2895,
      "minute": 2896,
      "uadrille": 2897,
      "°´çº¿": 2898,
      "µģæ°´çº¿": 2899,
      "å¦Ĥæŀľ": 2900,
      "æĦı": 2901,
      "Ġtongue": 2902,
      "Ġfrowning": 2903,
      "Ġporpoise": 2904,
      "strip": 2905,
      "Ġkitchen": 2906,
      "Ġimmedi": 2907,
      "!âĢĶ": 2908,
      ".âĢĻ": 2909,
      ";âĢĿ": 2910,
      "Ah": 2911,
      "Bill": 2912,
      "Cons": 2913,
      "Did": 2914,
      "Down": 2915,
      "Duchess": 2916,
      "Dinah": 2917,
      "Each": 2918,
      "English": 2919,
      "Footman": 2920,
      "Give": 2921,
      "IN": 2922,
      "LU": 2923,
      "Mouse": 2924,
      "Never": 2925,
      "OR": 2926,
      "Only": 2927,
      "Po": 2928,
      "Re": 2929,
      "Rabbit": 2930,
      "Se": 2931,
      "Soo": 2932,
      "Some": 2933,
      "Tis": 2934,
      "Turn": 2935,
      "Yet": 2936,
      "_.": 2937,
      "bow": 2938,
      "back": 2939,
      "call": 2940,
      "came": 2941,
      "cil": 2942,
      "cod": 2943,
      "cup": 2944,
      "count": 2945,
      "did": 2946,
      "dis": 2947,
      "dign": 2948,
      "every": 2949,
      "eep": 2950,
      "fl": 2951,
      "fan": 2952,
      "fth": 2953,
      "four": 2954,
      "first": 2955,
      "face": 2956,
      "felt": 2957,
      "flow": 2958,
      "gl": 2959,
      "ges": 2960,
      "good": 2961,
      "hr": 2962,
      "ios": 2963,
      "kers": 2964,
      "lt": 2965,
      "lines": 2966,
      "ms": 2967,
      "mer": 2968,
      "ming": 2969,
      "ners": 2970,
      "norm": 2971,
      "oken": 2972,
      "ocus": 2973,
      "pu": 2974,
      "pre": 2975,
      "pass": 2976,
      "pocket": 2977,
      "ray": 2978,
      "rather": 2979,
      "sp": 2980,
      "ses": 2981,
      "sure": 2982,
      "tis": 2983,
      "till": 2984,
      "ume": 2985,
      "uous": 2986,
      "under": 2987,
      "vice": 2988,
      "vents": 2989,
      "wl": 2990,
      "who": 2991,
      "walking": 2992,
      "yes": 2993,
      "yst": 2994,
      "yet": 2995,
      "},": 2996,
      "¨æĦı": 2997,
      "ªçİ": 2998,
      "å¯": 2999,
      "å±": 3000,
      "å¹": 3001,
      "åĽ": 3002,
      "åĴĮ": 3003,
      "æģ": 3004,
      "æĪ": 3005,
      "èĢ": 3006,
      "èĩ": 3007,
      "éħ": 3008,
      "éĻ": 3009,
      "éĽ": 3010,
      "éĿ": 3011,
      "Ġ2": 3012,
      "ĠU": 3013,
      "ĠX": 3014,
      "Ġ}": 3015,
      "Ġid": 3016,
      "Ġimple": 3017,
      "ĠåĪĨè¯įåĻ¨": 3018,
      "ĬĬ": 3019,
      "Ķ¨": 3020,
      "Łå¤±": 3021,
      "Ńæĸ": 3022,
      "Ġtou": 3023,
      "Ġter": 3024,
      "Ġtak": 3025,
      "Ġtie": 3026,
      "Ġtumb": 3027,
      "Ġtuck": 3028,
      "hes": 3029,
      "Ġag": 3030,
      "Ġali": 3031,
      "Ġapp": 3032,
      "Ġavo": 3033,
      "Ġalig": 3034,
      "Ġser": 3035,
      "Ġsli": 3036,
      "Ġsig": 3037,
      "Ġsimp": 3038,
      "Ġsense": 3039,
      "Ġsides": 3040,
      "ining": 3041,
      "inal": 3042,
      "Ġwat": 3043,
      "Ġwater": 3044,
      "Ġwatching": 3045,
      "itted": 3046,
      "reme": 3047,
      "reak": 3048,
      "atches": 3049,
      "nds": 3050,
      "Ġcre": 3051,
      "Ġcand": 3052,
      "Ġcry": 3053,
      "Ġcust": 3054,
      "Ġcake": 3055,
      "Ġcause": 3056,
      "Ġcakes": 3057,
      "Ġcaught": 3058,
      "Ġcards": 3059,
      "Ġcode": 3060,
      "Ġblow": 3061,
      "Ġbread": 3062,
      "Ġbank": 3063,
      "Ġbesides": 3064,
      "Ġbasic": 3065,
      "Ġboots": 3066,
      "Ġbreak": 3067,
      "eds": 3068,
      "encil": 3069,
      "Ġocc": 3070,
      "Ġmus": 3071,
      "Ġmist": 3072,
      "Ġmag": 3073,
      "Ġmention": 3074,
      "Ġmaps": 3075,
      "Ġtoes": 3076,
      "Ġtoss": 3077,
      "Ġled": 3078,
      "Ġlim": 3079,
      "Ġlau": 3080,
      "Ġdot": 3081,
      "Ġdur": 3082,
      "Ġdri": 3083,
      "Ġdull": 3084,
      "orto": 3085,
      "orus": 3086,
      "Ġfly": 3087,
      "Ġfam": 3088,
      "Ġfight": 3089,
      "Ġflo": 3090,
      "Ġfish": 3091,
      "Ġfond": 3092,
      "Ġfair": 3093,
      "Ġfolded": 3094,
      "ising": 3095,
      "Ġhab": 3096,
      "Ġhig": 3097,
      "Ġhang": 3098,
      "Ġhop": 3099,
      "arre": 3100,
      "arse": 3101,
      "Ġthimble": 3102,
      "lew": 3103,
      "asion": 3104,
      "ashed": 3105,
      "anther": 3106,
      "Ġpat": 3107,
      "Ġpun": 3108,
      "Ġpity": 3109,
      "Ġpie": 3110,
      "Ġpaw": 3111,
      "Ġpaws": 3112,
      "Ġprizes": 3113,
      "Ġpaper": 3114,
      "Ġnine": 3115,
      "Ġnibb": 3116,
      "Ġnatural": 3117,
      "Ġinv": 3118,
      "Ġincre": 3119,
      "Ġindign": 3120,
      "Ġsaved": 3121,
      "lib": 3122,
      "ĠâĢľâĢĺ": 3123,
      "ote": 3124,
      "Ġbelow": 3125,
      "Ġbehead": 3126,
      "second": 3127,
      "uth": 3128,
      "ĠAfter": 3129,
      "verage": 3130,
      "always": 3131,
      "Ġwashing": 3132,
      "enth": 3133,
      "enty": 3134,
      "rog": 3135,
      "root": 3136,
      "urried": 3137,
      "ching": 3138,
      "child": 3139,
      "changed": 3140,
      "Ġreg": 3141,
      "Ġrelie": 3142,
      "Ġund": 3143,
      "Ġune": 3144,
      "Ġasking": 3145,
      "vel": 3146,
      "ainting": 3147,
      "Ġra": 3148,
      "Ġring": 3149,
      "Ġrid": 3150,
      "Ġrow": 3151,
      "Ġrace": 3152,
      "Ġrises": 3153,
      "ckpoint": 3154,
      "cture": 3155,
      "ctac": 3156,
      "there": 3157,
      "Ġstates": 3158,
      "Ġstuff": 3159,
      "Ġstaring": 3160,
      "Ġstairs": 3161,
      "ssibly": 3162,
      "Ġisol": 3163,
      "Ġnotes": 3164,
      "Ġnotion": 3165,
      "Ġnotice": 3166,
      "tering": 3167,
      "terday": 3168,
      "andom": 3169,
      "three": 3170,
      "allow": 3171,
      "Ġsend": 3172,
      "Ġsection": 3173,
      "Ġshore": 3174,
      "quite": 3175,
      "Ġdog": 3176,
      "Ġdogs": 3177,
      "illed": 3178,
      "While": 3179,
      "Ġexcept": 3180,
      "ĠME": 3181,
      "ĠMary": 3182,
      "els": 3183,
      "Ġneat": 3184,
      "Ġkill": 3185,
      "Ġkick": 3186,
      "Ġlost": 3187,
      "Ġmeas": 3188,
      "Ġmeet": 3189,
      "Ġconst": 3190,
      "unimportant": 3191,
      "ĠSaid": 3192,
      "ĠSeven": 3193,
      "ĠTell": 3194,
      "ĠTiny": 3195,
      "ĠTrain": 3196,
      "ĠToken": 3197,
      "ĠTorto": 3198,
      "Ġquarre": 3199,
      "ames": 3200,
      "ament": 3201,
      "Ġjson": 3202,
      "Ġlivery": 3203,
      "Ġliked": 3204,
      "ĠDon": 3205,
      "ĠDrawling": 3206,
      "Ġdef": 3207,
      "Ġdecl": 3208,
      "Ġdevice": 3209,
      "Ġtrump": 3210,
      "Ġtruth": 3211,
      "ĠCon": 3212,
      "ĠCau": 3213,
      "Ġabs": 3214,
      "Ġchorus": 3215,
      "pleas": 3216,
      "atever": 3217,
      "checkpoint": 3218,
      "ĠHer": 3219,
      "ĠQuadrille": 3220,
      "Ġlegs": 3221,
      "Ġthoughtfully": 3222,
      "Ġprom": 3223,
      "Ġproves": 3224,
      "Ġproble": 3225,
      "Ġground": 3226,
      "ection": 3227,
      "Ġofficers": 3228,
      "ĠWho": 3229,
      "Ġpointing": 3230,
      "Ġpossible": 3231,
      "poison": 3232,
      "possible": 3233,
      "ores": 3234,
      "Those": 3235,
      "Thank": 3236,
      "Ġcorner": 3237,
      "things": 3238,
      "plan": 3239,
      "place": 3240,
      "dear": 3241,
      "oughly": 3242,
      "rail": 3243,
      "jective": 3244,
      "Ġvoices": 3245,
      "avy": 3246,
      "ĠPanther": 3247,
      "Ġhowling": 3248,
      "Ġmustard": 3249,
      "Ġtwinkling": 3250,
      "Ġalas": 3251,
      "Ġalread": 3252,
      "Ġaloud": 3253,
      "iously": 3254,
      "Ġoverfitting": 3255,
      "ä¸ª": 3256,
      "ä¸º": 3257,
      "ä¸Ĭ": 3258,
      "ä¸ĭ": 3259,
      "ä¸į": 3260,
      "Ġcontent": 3261,
      "Ġcontro": 3262,
      "ledge": 3263,
      "ments": 3264,
      "mentation": 3265,
      "ĠThen": 3266,
      "Ġbackward": 3267,
      "Ġteach": 3268,
      "Ġteles": 3269,
      "erpents": 3270,
      "answ": 3271,
      "ĠFirst": 3272,
      "ĠFrench": 3273,
      "Ġhanded": 3274,
      "Ġcurves": 3275,
      "Ġcurios": 3276,
      "aglet": 3277,
      "ĠLat": 3278,
      "ĠLong": 3279,
      "Ġencour": 3280,
      "Ġreproduc": 3281,
      "è¯į": 3282,
      "è¯Ńæĸ": 3283,
      "Ġcourage": 3284,
      "Ġshoulder": 3285,
      "Ġshoulders": 3286,
      "nothing": 3287,
      "otherwise": 3288,
      "should": 3289,
      "shuffled": 3290,
      "Ġroses": 3291,
      "Ġcomes": 3292,
      "Ġedge": 3293,
      "ĠEx": 3294,
      "ĠEaglet": 3295,
      "angu": 3296,
      "Ġdears": 3297,
      "why": 3298,
      "Ġ\"\\": 3299,
      "umbs": 3300,
      "Ġspectac": 3301,
      "Ġhurt": 3302,
      "Ġpref": 3303,
      "Ġpresent": 3304,
      "Ġprevents": 3305,
      "Ġunits": 3306,
      "Ġuncom": 3307,
      "çļĦç": 3308,
      "çļĦä¸Ģ": 3309,
      "Ġfinding": 3310,
      "Ġreading": 3311,
      "Ġadding": 3312,
      "Ġchecks": 3313,
      "Ġchecked": 3314,
      "Ġhardware": 3315,
      "soon": 3316,
      "Ġwaist": 3317,
      "Ġpathlib": 3318,
      "Ġrepeating": 3319,
      "ifferent": 3320,
      "Ġsorts": 3321,
      "Ġbrought": 3322,
      "Ġprison": 3323,
      "è®©": 3324,
      "Ġguard": 3325,
      "Ġguests": 3326,
      "Ġearth": 3327,
      "Ġquestions": 3328,
      "Ġtimid": 3329,
      "Ġhearing": 3330,
      "versity": 3331,
      "å®ļ": 3332,
      "Ġpassion": 3333,
      "Ġremarking": 3334,
      "Ġlogs": 3335,
      "Ġlogic": 3336,
      "Ġdirections": 3337,
      "emory": 3338,
      "open": 3339,
      "running": 3340,
      "æľª": 3341,
      "Ġmism": 3342,
      "Ġrules": 3343,
      "Ġconfir": 3344,
      "Ġconfusion": 3345,
      "Ġconfusing": 3346,
      "does": 3347,
      "docum": 3348,
      "moved": 3349,
      "ĠOwl": 3350,
      "Ġtrick": 3351,
      "Ġappear": 3352,
      "Ġfootman": 3353,
      "Ġgeneral": 3354,
      "Ġcrown": 3355,
      "Ġcrash": 3356,
      "Ġchanging": 3357,
      "æĸĩæľ¬": 3358,
      "è§£": 3359,
      "Ġslate": 3360,
      "cessful": 3361,
      "ormalization": 3362,
      "Ġjoined": 3363,
      "_,âĢĻâĢĿ": 3364,
      "board": 3365,
      "ä¹Ī": 3366,
      "ä¹ĭ": 3367,
      "ä¹Ł": 3368,
      "æįŁå¤±": 3369,
      "Ġ{\"": 3370,
      "Ġwanted": 3371,
      "Ġoblig": 3372,
      "Ġobjective": 3373,
      "Ġmostly": 3374,
      "ortunate": 3375,
      "Ġchoked": 3376,
      "Ġcorrectly": 3377,
      "Ġlistening": 3378,
      "cope": 3379,
      "Ġimpossible": 3380,
      "įåĲ": 3381,
      "Ġtails": 3382,
      "Ġmark": 3383,
      "Ġmaster": 3384,
      "Ġpattering": 3385,
      "themselves": 3386,
      "Ġshows": 3387,
      "Ġgrinned": 3388,
      "evening": 3389,
      "è¡¨": 3390,
      "è¿Ľ": 3391,
      "Ġclaim": 3392,
      "Ġcapacity": 3393,
      "Ġboy": 3394,
      "Ġmiles": 3395,
      "Ġlinear": 3396,
      "Ġloudly": 3397,
      "Ġdescent": 3398,
      "Ġinformative": 3399,
      "Ġreduces": 3400,
      "Ġanswered": 3401,
      "Ġneedn": 3402,
      "Ġneeds": 3403,
      "Ġjumping": 3404,
      "windows": 3405,
      "å¾ªçİ": 3406,
      "åľ°": 3407,
      "Ġentropy": 3408,
      "Ġcoverage": 3409,
      "Ġfellow": 3410,
      "Ġperson": 3411,
      "metadata": 3412,
      "Ġsuccessful": 3413,
      "Ġgradients": 3414,
      "ĠBeautiful": 3415,
      "Ġlearns": 3416,
      "åı¯ä»¥": 3417,
      "Without": 3418,
      "going": 3419,
      "growing": 3420,
      "æ£ĢæŁ¥çĤ¹": 3421,
      "è¾ĥ": 3422,
      "Ġsounds": 3423,
      "Ġcrowded": 3424,
      "Ġdiversity": 3425,
      "Ġhoarse": 3426,
      "Ġhonest": 3427,
      "ĠAttention": 3428,
      "Ġsolemn": 3429,
      "Ġdocuments": 3430,
      "Ġexpecting": 3431,
      "Ġexpected": 3432,
      "ä¿ĿåŃ": 3433,
      "Shared": 3434,
      "å½ĵ": 3435,
      "çİ°": 3436,
      "Ġsnail": 3437,
      "Ġdetail": 3438,
      "Ġfixed": 3439,
      "Ġpictures": 3440,
      "Ġventure": 3441,
      "Ġventured": 3442,
      "Ġextreme": 3443,
      "Ġgravely": 3444,
      "appear": 3445,
      "appeared": 3446,
      "Ġrepresentation": 3447,
      "Ġpressed": 3448,
      "Ġmemorize": 3449,
      "Everybody": 3450,
      "_âĢĶâĢĻ": 3451,
      "cleaned": 3452,
      "åºĶ": 3453,
      "åĮĸ": 3454,
      "Ġescape": 3455,
      "Ġcausal": 3456,
      "Ġdropped": 3457,
      "Ġhunting": 3458,
      "Ġinclude": 3459,
      "Ġgives": 3460,
      "Ġanimals": 3461,
      "Ġviolently": 3462,
      "Ġsummar": 3463,
      "Ġconclusion": 3464,
      "Ġprofile": 3465,
      "Ġvaluable": 3466,
      "Ġunfortunate": 3467,
      "Ġaccident": 3468,
      "Ġfollows": 3469,
      "worthy": 3470,
      "Ġactivation": 3471,
      "Ġconsidered": 3472,
      "Ġsucceeded": 3473,
      "Ġartifacts": 3474,
      "åĩº": 3475,
      "åīį": 3476,
      "è¶³": 3477,
      "Ġverses": 3478,
      "Ġsince": 3479,
      "Ġmuttering": 3480,
      "Ġfigure": 3481,
      "Ġnursing": 3482,
      "Ġbelongs": 3483,
      "Ġeffect": 3484,
      "Ġsulky": 3485,
      "ĠTransformer": 3486,
      "Ġtrustworthy": 3487,
      "Ġsettled": 3488,
      "Ġpeeped": 3489,
      "solved": 3490,
      "Ġinterpretation": 3491,
      "Ġmilestone": 3492,
      "Ġvectors": 3493,
      "æķ°æį®æµģæ°´çº¿": 3494,
      "Ġimmediately": 3495,
      "Consider": 3496,
      "called": 3497,
      "everything": 3498,
      "puzz": 3499,
      "èĢĮ": 3500,
      "éħįç½®": 3501,
      "éĽĨ": 3502,
      "Ġtaken": 3503,
      "Ġtucked": 3504,
      "Ġalive": 3505,
      "Ġavoid": 3506,
      "Ġsighed": 3507,
      "Ġcandle": 3508,
      "Ġmentioned": 3509,
      "Ġdoth": 3510,
      "Ġduring": 3511,
      "Ġfloor": 3512,
      "Ġhanging": 3513,
      "ĠTortoise": 3514,
      "Ġtrumpet": 3515,
      "ĠCaucus": 3516,
      "Ġalready": 3517,
      "Ġcuriosity": 3518,
      "è¯ŃæĸĻ": 3519,
      "Ġspectacles": 3520,
      "Ġuncomfortable": 3521,
      "document": 3522,
      "Ġobliged": 3523,
      "Ġclaims": 3524,
      "å¾ªçİ¯": 3525,
      "ä¿ĿåŃĺ": 3526,
      "!âĢĻâĢĿ": 3527,
      "\"]": 3528,
      ");": 3529,
      ")âĢĶâĢľ": 3530,
      ",âĢĻ": 3531,
      ".\")": 3532,
      "42": 3533,
      "?âĢĻâĢĿ": 3534,
      "AR": 3535,
      "Adv": 3536,
      "Can": 3537,
      "Check": 3538,
      "Cross": 3539,
      "Common": 3540,
      "DR": 3541,
      "Different": 3542,
      "Even": 3543,
      "Found": 3544,
      "Go": 3545,
      "Get": 3546,
      "GPU": 3547,
      "HE": 3548,
      "Hard": 3549,
      "King": 3550,
      "Keep": 3551,
      "Lo": 3552,
      "Last": 3553,
      "Met": 3554,
      "May": 3555,
      "Many": 3556,
      "Multi": 3557,
      "Memory": 3558,
      "ND": 3559,
      "Next": 3560,
      "Normalization": 3561,
      "Over": 3562,
      "Other": 3563,
      "Per": 3564,
      "Present": 3565,
      "Su": 3566,
      "Sy": 3567,
      "Soup": 3568,
      "Seven": 3569,
      "Serpent": 3570,
      "Silence": 3571,
      "Speak": 3572,
      "Take": 3573,
      "Train": 3574,
      "Typical": 3575,
      "US": 3576,
      "Un": 3577,
      "Wow": 3578,
      "Where": 3579,
      "])": 3580,
      "_:": 3581,
      "away": 3582,
      "ault": 3583,
      "bu": 3584,
      "bur": 3585,
      "bour": 3586,
      "bish": 3587,
      "batch": 3588,
      "bble": 3589,
      "bread": 3590,
      "baby": 3591,
      "cr": 3592,
      "cing": 3593,
      "car": 3594,
      "cur": 3595,
      "creat": 3596,
      "certain": 3597,
      "croquet": 3598,
      "common": 3599,
      "di": 3600,
      "dw": 3601,
      "data": 3602,
      "dream": 3603,
      "drun": 3604,
      "ee": 3605,
      "eed": 3606,
      "ech": 3607,
      "ears": 3608,
      "either": 3609,
      "epper": 3610,
      "fall": 3611,
      "found": 3612,
      "fits": 3613,
      "fetch": 3614,
      "filled": 3615,
      "ged": 3616,
      "gly": 3617,
      "gry": 3618,
      "glo": 3619,
      "great": 3620,
      "ghed": 3621,
      "gits": 3622,
      "gress": 3623,
      "hy": 3624,
      "hion": 3625,
      "ham": 3626,
      "hind": 3627,
      "hist": 3628,
      "hod": 3629,
      "haven": 3630,
      "hurried": 3631,
      "ili": 3632,
      "iver": 3633,
      "ipp": 3634,
      "ience": 3635,
      "jo": 3636,
      "jury": 3637,
      "jump": 3638,
      "kind": 3639,
      "land": 3640,
      "list": 3641,
      "lves": 3642,
      "loop": 3643,
      "later": 3644,
      "layer": 3645,
      "mas": 3646,
      "mine": 3647,
      "much": 3648,
      "moke": 3649,
      "making": 3650,
      "makes": 3651,
      "mushroom": 3652,
      "mitted": 3653,
      "nat": 3654,
      "nur": 3655,
      "nected": 3656,
      "nament": 3657,
      "oc": 3658,
      "oing": 3659,
      "ole": 3660,
      "over": 3661,
      "ove": 3662,
      "ogr": 3663,
      "occ": 3664,
      "pan": 3665,
      "pro": 3666,
      "pto": 3667,
      "pers": 3668,
      "plied": 3669,
      "pick": 3670,
      "paws": 3671,
      "painting": 3672,
      "rith": 3673,
      "rab": 3674,
      "ram": 3675,
      "rate": 3676,
      "rance": 3677,
      "sn": 3678,
      "sold": 3679,
      "sents": 3680,
      "surpr": 3681,
      "small": 3682,
      "silence": 3683,
      "speak": 3684,
      "tr": 3685,
      "tse": 3686,
      "tast": 3687,
      "take": 3688,
      "tling": 3689,
      "tail": 3690,
      "tale": 3691,
      "talking": 3692,
      "uit": 3693,
      "und": 3694,
      "uce": 3695,
      "uct": 3696,
      "vious": 3697,
      "vage": 3698,
      "vail": 3699,
      "viol": 3700,
      "were": 3701,
      "wist": 3702,
      "want": 3703,
      "watch": 3704,
      "ys": 3705,
      "yed": 3706,
      "yle": 3707,
      "yal": 3708,
      "}\")": 3709,
      "¡ç": 3710,
      "¢«": 3711,
      "¤äº": 3712,
      "¦»": 3713,
      "§ĭ": 3714,
      "§è¡Į": 3715,
      "¨³": 3716,
      "«ĺ": 3717,
      "¬ä»": 3718,
      "¬æį": 3719,
      "®Ĺ": 3720,
      "¯Ķ": 3721,
      "³¨æĦı": 3722,
      "·åĢ¼": 3723,
      "¹çķ": 3724,
      "åį": 3725,
      "åĻ¨": 3726,
      "å§ĭ": 3727,
      "æĮ": 3728,
      "æĶ": 3729,
      "æ®µ": 3730,
      "çĲ": 3731,
      "çľ": 3732,
      "çĶ¨": 3733,
      "è·": 3734,
      "è¢«": 3735,
      "éĶ": 3736,
      "éļ": 3737,
      "éĥ½": 3738,
      "é«ĺ": 3739,
      "Ġ3": 3740,
      "ĠJ": 3741,
      "Ġident": 3742,
      "Ġå®ŀ": 3743,
      "Ġä¸º": 3744,
      "Ģģ": 3745,
      "Ģä¹Ī": 3746,
      "ĤĦ": 3747,
      "ĦçĲ": 3748,
      "ĩåĪĨ": 3749,
      "ĩæ®µ": 3750,
      "īĩæ®µ": 3751,
      "Ĭ¶æ": 3752,
      "ĮçļĦ": 3753,
      "Ĳè¡Į": 3754,
      "ĺåĮĸ": 3755,
      "Ļè¯": 3756,
      "Ľæİ©çłģ": 3757,
      "ŀäºİ": 3758,
      "Łå§ĭ": 3759,
      "Ġtall": 3760,
      "Ġturtle": 3761,
      "Ġtread": 3762,
      "Ġtale": 3763,
      "Ġtakes": 3764,
      "Ġtones": 3765,
      "help": 3766,
      "Ġax": 3767,
      "Ġaut": 3768,
      "Ġago": 3769,
      "Ġavail": 3770,
      "Ġsk": 3771,
      "Ġsim": 3772,
      "Ġsiz": 3773,
      "Ġsour": 3774,
      "Ġsang": 3775,
      "Ġsens": 3776,
      "Ġsix": 3777,
      "Ġserpents": 3778,
      "inn": 3779,
      "Ġwid": 3780,
      "Ġwar": 3781,
      "Ġwet": 3782,
      "Ġwom": 3783,
      "Ġwink": 3784,
      "Ġwatch": 3785,
      "Ġwag": 3786,
      "Ġwretched": 3787,
      "ouple": 3788,
      "once": 3789,
      "itation": 3790,
      "itive": 3791,
      "itions": 3792,
      "itated": 3793,
      "remar": 3794,
      "resh": 3795,
      "replace": 3796,
      "replied": 3797,
      "atures": 3798,
      "eror": 3799,
      "eral": 3800,
      "erable": 3801,
      "erved": 3802,
      "erret": 3803,
      "erci": 3804,
      "ermin": 3805,
      "erboard": 3806,
      "âĢľâĢĻ": 3807,
      "Ġcir": 3808,
      "Ġcart": 3809,
      "Ġcau": 3810,
      "Ġcoll": 3811,
      "Ġcatching": 3812,
      "Ġcrying": 3813,
      "Ġcouple": 3814,
      "Ġbor": 3815,
      "Ġbar": 3816,
      "Ġbal": 3817,
      "Ġbir": 3818,
      "Ġbound": 3819,
      "Ġbite": 3820,
      "Ġbody": 3821,
      "Ġbool": 3822,
      "Ġbarrow": 3823,
      "Ġbark": 3824,
      "Ġblew": 3825,
      "enough": 3826,
      "ency": 3827,
      "enny": 3828,
      "Ġoper": 3829,
      "Ġmin": 3830,
      "Ġmer": 3831,
      "Ġmere": 3832,
      "Ġmath": 3833,
      "Ġmess": 3834,
      "Ġmatch": 3835,
      "Ġmatches": 3836,
      "Ġlen": 3837,
      "Ġlap": 3838,
      "Ġlaw": 3839,
      "Ġlaz": 3840,
      "Ġlangu": 3841,
      "lling": 3842,
      "llent": 3843,
      "idual": 3844,
      "Ġda": 3845,
      "Ġdan": 3846,
      "Ġdty": 3847,
      "Ġdigging": 3848,
      "ord": 3849,
      "orter": 3850,
      "orth": 3851,
      "oroughly": 3852,
      "orcar": 3853,
      "Ġfit": 3854,
      "Ġfif": 3855,
      "Ġfine": 3856,
      "Ġfra": 3857,
      "Ġfav": 3858,
      "Ġfather": 3859,
      "Ġfits": 3860,
      "Ġfright": 3861,
      "Ġfron": 3862,
      "Ġfaint": 3863,
      "Ġfocus": 3864,
      "ision": 3865,
      "isable": 3866,
      "isof": 3867,
      "Ġhit": 3868,
      "Ġhot": 3869,
      "Ġhate": 3870,
      "Ġhatter": 3871,
      "cellent": 3872,
      "arr": 3873,
      "aris": 3874,
      "Ġthro": 3875,
      "Ġthous": 3876,
      "Ġthoroughly": 3877,
      "âĢĻâĢĶ": 3878,
      "leaves": 3879,
      "legged": 3880,
      "level": 3881,
      "ask": 3882,
      "asing": 3883,
      "aset": 3884,
      "ashing": 3885,
      "anter": 3886,
      "anting": 3887,
      "anches": 3888,
      "Ġheart": 3889,
      "Ġpull": 3890,
      "Ġpause": 3891,
      "Ġpick": 3892,
      "Ġparch": 3893,
      "Ġpatiently": 3894,
      "Ġpocket": 3895,
      "Ġplead": 3896,
      "Ġphr": 3897,
      "Ġpencil": 3898,
      "Ġpanting": 3899,
      "Ġnor": 3900,
      "Ġnorm": 3901,
      "esterday": 3902,
      "Ġink": 3903,
      "Ġinte": 3904,
      "Ġintend": 3905,
      "Ġinfr": 3906,
      "Ġsaves": 3907,
      "Ġsafe": 3908,
      "Ġsalt": 3909,
      "Ġsauce": 3910,
      "Ġsavage": 3911,
      "Ġgidd": 3912,
      "Ġgently": 3913,
      "Ġgoose": 3914,
      "lives": 3915,
      "lipping": 3916,
      "add": 3917,
      "ades": 3918,
      "otic": 3919,
      "otting": 3920,
      "Ġbeasts": 3921,
      "see": 3922,
      "semb": 3923,
      "seem": 3924,
      "several": 3925,
      "Ġele": 3926,
      "ute": 3927,
      "utf": 3928,
      "ĠAll": 3929,
      "meaning": 3930,
      "verdict": 3931,
      "ĠImp": 3932,
      "ldron": 3933,
      "stable": 3934,
      "start": 3935,
      "stupid": 3936,
      "roduce": 3937,
      "ghing": 3938,
      "urd": 3939,
      "urred": 3940,
      "urpose": 3941,
      "outing": 3942,
      "output": 3943,
      "outline": 3944,
      "Ġred": 3945,
      "Ġref": 3946,
      "Ġreli": 3947,
      "Ġreal": 3948,
      "Ġrequ": 3949,
      "Ġreality": 3950,
      "Ġremoved": 3951,
      "Ġresolved": 3952,
      "Ġugly": 3953,
      "Ġasleep": 3954,
      "Ġasdict": 3955,
      "Ġasham": 3956,
      "Ġassemb": 3957,
      "vered": 3958,
      "ains": 3959,
      "âĢĶâĢĻâĢĿ": 3960,
      "Ġrust": 3961,
      "Ġrap": 3962,
      "Ġrng": 3963,
      "Ġraving": 3964,
      "Ġrush": 3965,
      "Ġrandom": 3966,
      "Ġwhatever": 3967,
      "iment": 3968,
      "imson": 3969,
      "Ġsol": 3970,
      "Ġsoft": 3971,
      "Ġsobbing": 3972,
      "Ġstar": 3973,
      "Ġstoop": 3974,
      "Ġstamp": 3975,
      "Ġstupid": 3976,
      "Ġstretched": 3977,
      "Ġstores": 3978,
      "Ġatom": 3979,
      "Ġattempt": 3980,
      "Ġwithin": 3981,
      "These": 3982,
      "alls": 3983,
      "irring": 3984,
      "Ġseq": 3985,
      "Ġseed": 3986,
      "Ġsell": 3987,
      "ifully": 3988,
      "Ġshill": 3989,
      "Ġshaking": 3990,
      "Ġshuffled": 3991,
      "Ġshorter": 3992,
      "Ġanger": 3993,
      "Ġanxious": 3994,
      "Ġanno": 3995,
      "pec": 3996,
      "people": 3997,
      "peci": 3998,
      "ria": 3999,
      "rier": 4000,
      "ript": 4001,
      "Ġallowed": 4002,
      "Ġalloc": 4003,
      "Ġmoved": 4004,
      "queer": 4005,
      "queror": 4006,
      "Ġview": 4007,
      "top": 4008,
      "geho": 4009,
      "Ġexplan": 4010,
      "Ġexcellent": 4011,
      "ĠMa": 4012,
      "ĠMulti": 4013,
      "ĠMiss": 4014,
      "ĠMorcar": 4015,
      "ĠMask": 4016,
      "elf": 4017,
      "eling": 4018,
      "Ġneigh": 4019,
      "Ġsun": 4020,
      "Ġsuit": 4021,
      "ounds": 4022,
      "ulous": 4023,
      "Ġconver": 4024,
      "Ġcontempt": 4025,
      "Ġconnected": 4026,
      "ung": 4027,
      "unning": 4028,
      "ĠSmoke": 4029,
      "ĠToo": 4030,
      "ĠTest": 4031,
      "ĠTable": 4032,
      "ĠTypical": 4033,
      "Ġquery": 4034,
      "amine": 4035,
      "Ġthistle": 4036,
      "ppose": 4037,
      "Ġjar": 4038,
      "Ġjaws": 4039,
      "Ġbutter": 4040,
      "Ġknot": 4041,
      "Ġknife": 4042,
      "onely": 4043,
      "Ġlie": 4044,
      "Ġlives": 4045,
      "ĠDuck": 4046,
      "Ġdemo": 4047,
      "Ġseeing": 4048,
      "ication": 4049,
      "ically": 4050,
      "icient": 4051,
      "Ġtrans": 4052,
      "Ġtrotting": 4053,
      "ĠCore": 4054,
      "ĠCrab": 4055,
      "elled": 4056,
      "ongly": 4057,
      "ortant": 4058,
      "umpt": 4059,
      "Ġabove": 4060,
      "Ġchar": 4061,
      "Ġchose": 4062,
      "please": 4063,
      "ilt": 4064,
      "iled": 4065,
      "ilar": 4066,
      "Ġnoise": 4067,
      "Ġgoals": 4068,
      "astru": 4069,
      "aked": 4070,
      "Ġsmile": 4071,
      "Ġsmiling": 4072,
      "Ġsmiled": 4073,
      "Ġleak": 4074,
      "Ġleaning": 4075,
      "ists": 4076,
      "isted": 4077,
      "istic": 4078,
      "istling": 4079,
      "Ġknows": 4080,
      "Ġknowing": 4081,
      "Ġknowledge": 4082,
      "ersault": 4083,
      "Ġthoughts": 4084,
      "Ġproved": 4085,
      "Ġproceed": 4086,
      "Ġproduc": 4087,
      "Ġsomewhere": 4088,
      "ĠGo": 4089,
      "ĠGood": 4090,
      "ĠGradient": 4091,
      "ĠWhile": 4092,
      "ĠWhich": 4093,
      "aphy": 4094,
      "Ġpoint": 4095,
      "Ġpossibly": 4096,
      "Ġfeather": 4097,
      "Ġfeatures": 4098,
      "ants": 4099,
      "antage": 4100,
      "teen": 4101,
      "teenth": 4102,
      "Ġyours": 4103,
      "Ġwhose": 4104,
      "phas": 4105,
      "deep": 4106,
      "demo": 4107,
      "ĠRe": 4108,
      "ĠRel": 4109,
      "ormat": 4110,
      "race": 4111,
      "ĠNow": 4112,
      "ĠNext": 4113,
      "ĠNorth": 4114,
      "Ġmoder": 4115,
      "ĠPat": 4116,
      "ĠPray": 4117,
      "ĠParis": 4118,
      "forehead": 4119,
      "Ġtwenty": 4120,
      "Ġalarm": 4121,
      "ĊĠĠĠĠ": 4122,
      "linging": 4123,
      "intment": 4124,
      "Ġlonged": 4125,
      "Ġcontents": 4126,
      "Ġarch": 4127,
      "Ġaround": 4128,
      "next": 4129,
      "neath": 4130,
      "nearly": 4131,
      "ĠFe": 4132,
      "Ġhandling": 4133,
      "Ġcurled": 4134,
      "Ġnowhere": 4135,
      "Ġafterwards": 4136,
      "aging": 4137,
      "ages": 4138,
      "agine": 4139,
      "behind": 4140,
      "ĠLear": 4141,
      "Ġencod": 4142,
      "Ġsmallest": 4143,
      "Ġplates": 4144,
      "è¯»": 4145,
      "Ġsymb": 4146,
      "Ġshouldn": 4147,
      "ucumber": 4148,
      "irely": 4149,
      "ief": 4150,
      "ield": 4151,
      "short": 4152,
      "Ġrole": 4153,
      "Ġroyal": 4154,
      "Ġcomple": 4155,
      "Ġcommon": 4156,
      "Ġcomfort": 4157,
      "Ġcomfits": 4158,
      "Ġwrote": 4159,
      "Ġlasted": 4160,
      "Ġputting": 4161,
      "Ġyesterday": 4162,
      "Ġeditions": 4163,
      "ĠEmbedding": 4164,
      "hedgeho": 4165,
      "Ġscroll": 4166,
      "Ġscript": 4167,
      "angled": 4168,
      "Ġbecame": 4169,
      "onderland": 4170,
      "Ġdoors": 4171,
      "\").": 4172,
      "upon": 4173,
      "upset": 4174,
      "Ġsplashing": 4175,
      "Ġpebble": 4176,
      "umbria": 4177,
      "Ġspeed": 4178,
      "Ġspeech": 4179,
      "ĠĠĠĠĠĠĠĠĠ": 4180,
      "Ġpretend": 4181,
      "Ġpreser": 4182,
      "Ġpretraining": 4183,
      "Ġunhapp": 4184,
      "Ġunpleas": 4185,
      "Ġunstable": 4186,
      "Ġlearnt": 4187,
      "Ġundertone": 4188,
      "Ġunderneath": 4189,
      "Ġtelling": 4190,
      "Ġcheckpointing": 4191,
      "Ġstruck": 4192,
      "Ġstruct": 4193,
      "Ġstrongly": 4194,
      "Ġgrowl": 4195,
      "awned": 4196,
      "perhaps": 4197,
      "perfectly": 4198,
      "periment": 4199,
      "Ġpleasure": 4200,
      "However": 4201,
      "pute": 4202,
      "Ġwonderful": 4203,
      "())": 4204,
      "().": 4205,
      "():": 4206,
      "Ġbrown": 4207,
      "Ġbranches": 4208,
      "ensive": 4209,
      "Ġhelpful": 4210,
      "Ġevening": 4211,
      "Ġresume": 4212,
      "Ġresidual": 4213,
      "Ġexecute": 4214,
      "æĸ°": 4215,
      "è®º": 4216,
      "è®¡ç": 4217,
      "Ġtables": 4218,
      "Ġfanci": 4219,
      "Ġearls": 4220,
      "pective": 4221,
      "ĠWe": 4222,
      "ĠWith": 4223,
      "ĠWhen": 4224,
      "ĠWhere": 4225,
      "Ġdataclass": 4226,
      "Ġflapp": 4227,
      "Ġkeeping": 4228,
      "acc": 4229,
      "acle": 4230,
      "examine": 4231,
      "exists": 4232,
      "turning": 4233,
      "turned": 4234,
      "å¤į": 4235,
      "å¤Ł": 4236,
      "å¤įç": 4237,
      "å¤ĦçĲ": 4238,
      "Ġtrends": 4239,
      "ä»İ": 4240,
      "ä»·åĢ¼": 4241,
      "ä»Ģä¹Ī": 4242,
      "ä¼ĺåĮĸ": 4243,
      "å®¹": 4244,
      "åĪ°": 4245,
      "åĪĩåĪĨ": 4246,
      "åıª": 4247,
      "åıĺ": 4248,
      "Ġperfectly": 4249,
      "Ġpassage": 4250,
      "Ġindex": 4251,
      "Ġelbow": 4252,
      "Ġdirected": 4253,
      "corpus": 4254,
      "Ġtesting": 4255,
      "Ġswallow": 4256,
      "Ġwalking": 4257,
      "ressing": 4258,
      "ression": 4259,
      "Ġmissed": 4260,
      "Ġmislead": 4261,
      "Ġmiserable": 4262,
      "Ġplaying": 4263,
      "convers": 4264,
      "proud": 4265,
      "sentence": 4266,
      "validate": 4267,
      "ĠOn": 4268,
      "ĠOver": 4269,
      "ĠOff": 4270,
      "Ġappearing": 4271,
      "retching": 4272,
      "Ġcreated": 4273,
      "Ġfootsteps": 4274,
      "ĊĠĠĠĠĠĠĠĠĠĠĠĠĠĠĠ": 4275,
      "Ġgeneration": 4276,
      "Ġgeneraliz": 4277,
      "CHOR": 4278,
      "grad": 4279,
      "grand": 4280,
      "uckily": 4281,
      "Ġcrumbs": 4282,
      "Ġcrimson": 4283,
      "Ġbroke": 4284,
      "Ġbusy": 4285,
      "Ġletter": 4286,
      "Ġdistant": 4287,
      "Ġinteract": 4288,
      "Ġreturned": 4289,
      "Ġdeeper": 4290,
      "Ġcourtiers": 4291,
      "course": 4292,
      "è§ģ": 4293,
      "éĩĬ": 4294,
      "Ġadvance": 4295,
      "Ġadvisable": 4296,
      "Ġadvantage": 4297,
      "Ġclear": 4298,
      "Ġmethod": 4299,
      "Ġreasons": 4300,
      "Ġwherever": 4301,
      "boards": 4302,
      "Ġ{}": 4303,
      "Ġsigned": 4304,
      "Ġobser": 4305,
      "Ġobvious": 4306,
      "Ġsubwor": 4307,
      "Ġsublayer": 4308,
      "ä¸Ģèĩ": 4309,
      "ä¸Ģä¸ª": 4310,
      "Ġcontinue": 4311,
      "Ġhurriedly": 4312,
      "confusion": 4313,
      "Ġsneeze": 4314,
      "Ġsneezes": 4315,
      "Head": 4316,
      "axing": 4317,
      "bbed": 4318,
      "coat": 4319,
      "days": 4320,
      "Ġactually": 4321,
      "Ġpredicted": 4322,
      "Ġpredictable": 4323,
      "Ġinstance": 4324,
      "Ġwhiskers": 4325,
      "Ġshowing": 4326,
      "Ġconsist": 4327,
      "è®Ńç»ĥå¾ªçİ¯": 4328,
      "looked": 4329,
      "æŃ¢": 4330,
      "è¿ĩ": 4331,
      "è¿Ĳè¡Į": 4332,
      "Ġæ³¨æĦı": 4333,
      "Ġsingle": 4334,
      "Ġsingers": 4335,
      "Ġclaws": 4336,
      "Ġdishes": 4337,
      "Ġdesper": 4338,
      "Ġdesign": 4339,
      "Ġfurther": 4340,
      "Ġfurrow": 4341,
      "Ġpigs": 4342,
      "Ġnormalize": 4343,
      "Ġrecords": 4344,
      "Ġneeded": 4345,
      "aughter": 4346,
      "ç»ĵè®º": 4347,
      "Ġpuzzling": 4348,
      "something": 4349,
      "å¾Ī": 4350,
      "å¾Ĺ": 4351,
      "Ġentirely": 4352,
      "Ġentangled": 4353,
      "Ġcost": 4354,
      "Ġcoaxing": 4355,
      "Ġcarrying": 4356,
      "Ġclip": 4357,
      "Ġcares": 4358,
      "Ġcarefully": 4359,
      "Ġbugs": 4360,
      "Ġblocks": 4361,
      "Ġhasn": 4362,
      "Ġholding": 4363,
      "Ġpersisted": 4364,
      "Ġperspective": 4365,
      "Ġnicely": 4366,
      "Ġembeddings": 4367,
      "âĢĶâĢĺ_": 4368,
      "Ġlobster": 4369,
      "Ġdepending": 4370,
      "tempered": 4371,
      "ĠLoss": 4372,
      "Ġplaces": 4373,
      "Ġresults": 4374,
      "Ġtrembled": 4375,
      "åı¯èĥ½": 4376,
      "åı¯å¤įç": 4377,
      "Ġfeelings": 4378,
      "éªĮè¯ģéĽĨ": 4379,
      "timespec": 4380,
      "Ġhedgehogs": 4381,
      "Ġdoubtful": 4382,
      "Ġdoubtfully": 4383,
      "vocab": 4384,
      "è¾ĵ": 4385,
      "è¾¹çķ": 4386,
      "Ġcrossed": 4387,
      "Ġdataset": 4388,
      "Ġdeny": 4389,
      "Ġdenied": 4390,
      "lets": 4391,
      "letter": 4392,
      "Ġremains": 4393,
      "Ġremained": 4394,
      "Ġsecondly": 4395,
      "Ġshutting": 4396,
      "Ġkindly": 4397,
      "Ġdelighted": 4398,
      "Ġdelightful": 4399,
      "Ġcompare": 4400,
      "Ġremarkable": 4401,
      "æľ¬åľ°": 4402,
      "ä¿ĿæĮ": 4403,
      "Attention": 4404,
      "Beautiful": 4405,
      "sudden": 4406,
      "uded": 4407,
      "Ġverse": 4408,
      "Ġverdict": 4409,
      "Ġverify": 4410,
      "Ġsnatch": 4411,
      "Ġcheap": 4412,
      "Ġcheered": 4413,
      "Ġblasts": 4414,
      "Ġlayer": 4415,
      "Ġdetermin": 4416,
      "Ġfashion": 4417,
      "Ġpicture": 4418,
      "Ġgirls": 4419,
      "Ġshaped": 4420,
      "Ġextr": 4421,
      "Ġlovely": 4422,
      "Ġrepresentations": 4423,
      "Ġpressure": 4424,
      "å®ŀéªĮ": 4425,
      "å®ŀçİ°": 4426,
      "Ġswimming": 4427,
      "Ġmemorization": 4428,
      "æķ°æį®": 4429,
      "Example": 4430,
      "Explain": 4431,
      "Everything": 4432,
      "write": 4433,
      "wondering": 4434,
      "ä½įç½®": 4435,
      "åħĥ": 4436,
      "åĬĽæİ©çłģ": 4437,
      "æ³ķ": 4438,
      "ç¡¬ä»": 4439,
      "Ġespeci": 4440,
      "Ġtreated": 4441,
      "Ġsighing": 4442,
      "Ġcaused": 4443,
      "Ġlady": 4444,
      "Ġladder": 4445,
      "Ġlabels": 4446,
      "Ġhungry": 4447,
      "Ġthrowing": 4448,
      "Ġgiving": 4449,
      "likely": 4450,
      "Ġreviewable": 4451,
      "Ġassign": 4452,
      "Ġassumpt": 4453,
      "Ġrattling": 4454,
      "Ġstarted": 4455,
      "Ġseparate": 4456,
      "Ġanimal": 4457,
      "Ġsummer": 4458,
      "Ġconcluded": 4459,
      "Ġprofiling": 4460,
      "Ġvalues": 4461,
      "Ġaffects": 4462,
      "Ġunfolded": 4463,
      "Ġguessed": 4464,
      "ä¼ļæĬĬ": 4465,
      "è§Ħæ¨¡": 4466,
      "è§Ħæ¨¡å": 4467,
      "Ġactivations": 4468,
      "Ġconsidering": 4469,
      "metrics": 4470,
      "Ġsucceeds": 4471,
      "Ġsqueaking": 4472,
      "Ġsqueez": 4473,
      "bye": 4474,
      "hority": 4475,
      "myself": 4476,
      "splits": 4477,
      "whether": 4478,
      "å·¥": 4479,
      "å·²": 4480,
      "åİŁå§ĭ": 4481,
      "æī§è¡Į": 4482,
      "æĹ¶": 4483,
      "çķĻ": 4484,
      "è½½": 4485,
      "è½¬æį": 4486,
      "Ġtasted": 4487,
      "Ġtensor": 4488,
      "Ġtensors": 4489,
      "Ġwandering": 4490,
      "Ġwildly": 4491,
      "ounting": 4492,
      "Ġcaution": 4493,
      "Ġmixed": 4494,
      "Ġfunny": 4495,
      "Ġfailure": 4496,
      "Ġfriends": 4497,
      "Ġpurring": 4498,
      "adeoff": 4499,
      "Ġbeautifully": 4500,
      "Ġemphas": 4501,
      "Ġrecovered": 4502,
      "Ġstopped": 4503,
      "Ġforgetting": 4504,
      "Ġvari": 4505,
      "Ġexists": 4506,
      "Ġlocks": 4507,
      "Ġknocking": 4508,
      "Ġleaderboard": 4509,
      "Ġcomputation": 4510,
      "Ġscaling": 4511,
      "Ġbringing": 4512,
      "executed": 4513,
      "beginning": 4514,
      "ä¿¡æģ": 4515,
      "æŃ£ç¡": 4516,
      "ĠCheckpointMet": 4517,
      "glification": 4518,
      "INK": 4519,
      "Poor": 4520,
      "cupboards": 4521,
      "fancy": 4522,
      "fthand": 4523,
      "glass": 4524,
      "å¯¹": 4525,
      "å±ŀäºİ": 4526,
      "å¹¶": 4527,
      "åĽł": 4528,
      "åĴĮçĽ®æłĩ": 4529,
      "æĪĲ": 4530,
      "éĿ¢": 4531,
      "Ġimplementation": 4532,
      "Ġtouch": 4533,
      "Ġtumbling": 4534,
      "Ġagree": 4535,
      "Ġapples": 4536,
      "Ġalign": 4537,
      "Ġslipped": 4538,
      "Ġsimply": 4539,
      "Ġwatched": 4540,
      "Ġcustody": 4541,
      "Ġoccurred": 4542,
      "Ġmusic": 4543,
      "Ġmistake": 4544,
      "Ġmagic": 4545,
      "Ġtossing": 4546,
      "Ġfamili": 4547,
      "Ġhabit": 4548,
      "Ġhigher": 4549,
      "Ġhoping": 4550,
      "asionally": 4551,
      "Ġnibbling": 4552,
      "Ġinvitation": 4553,
      "Ġincreases": 4554,
      "Ġindignantly": 4555,
      "Ġbeheaded": 4556,
      "seconds": 4557,
      "Ġregime": 4558,
      "Ġrelief": 4559,
      "Ġuneas": 4560,
      "Ġraised": 4561,
      "Ġsending": 4562,
      "Ġneatly": 4563,
      "Ġmeasure": 4564,
      "Ġconstant": 4565,
      "ĠTraining": 4566,
      "ĠTokenizer": 4567,
      "Ġquarrelling": 4568,
      "Ġdeclare": 4569,
      "ĠConqueror": 4570,
      "Ġabsurd": 4571,
      "Ġproblem": 4572,
      "Ġcontrols": 4573,
      "Ġteaching": 4574,
      "Ġtelescope": 4575,
      "answer": 4576,
      "ĠLatitude": 4577,
      "ĠLongitude": 4578,
      "Ġreproducible": 4579,
      "è¯įè¡¨": 4580,
      "Ġwaistcoat": 4581,
      "Ġprisoner": 4582,
      "Ġguardrail": 4583,
      "æľªæĿ¥": 4584,
      "Ġmismatch": 4585,
      "Ġconfirm": 4586,
      "doesn": 4587,
      "è§£éĩĬ": 4588,
      "ä¹Łèĥ½": 4589,
      "įåĲĳ": 4590,
      "è¿Ľè¡Į": 4591,
      "Ġextremely": 4592,
      "åºĶå½ĵ": 4593,
      "è¶³å¤Ł": 4594,
      "puzzling": 4595,
      "DRINK": 4596,
      "Perhaps": 4597,
      "Presently": 4598,
      "Synthetic": 4599,
      "bishop": 4600,
      "creatures": 4601,
      "dwin": 4602,
      "drunk": 4603,
      "gloves": 4604,
      "history": 4605,
      "natured": 4606,
      "nurse": 4607,
      "namented": 4608,
      "ography": 4609,
      "ptoe": 4610,
      "soldiers": 4611,
      "uition": 4612,
      "¨³å®ļ": 4613,
      "åįķ": 4614,
      "éĶĻè¯": 4615,
      "Ġä¸ºä»Ģä¹Ī": 4616,
      "Ĭ¶æĢģ": 4617,
      "Ġtaller": 4618,
      "Ġturtles": 4619,
      "Ġtreading": 4620,
      "Ġavailable": 4621,
      "Ġsimilar": 4622,
      "Ġsizes": 4623,
      "Ġsensation": 4624,
      "Ġwidth": 4625,
      "Ġwarning": 4626,
      "Ġwoman": 4627,
      "remark": 4628,
      "errets": 4629,
      "ercia": 4630,
      "Ġcauldron": 4631,
      "Ġcollected": 4632,
      "Ġboring": 4633,
      "Ġbalanced": 4634,
      "Ġbird": 4635,
      "Ġbarrowful": 4636,
      "ennyworth": 4637,
      "Ġmerely": 4638,
      "Ġmessages": 4639,
      "Ġdancing": 4640,
      "Ġdtype": 4641,
      "Ġfrag": 4642,
      "isoformat": 4643,
      "Ġthroat": 4644,
      "Ġthousand": 4645,
      "Ġparchment": 4646,
      "Ġpleaded": 4647,
      "Ġphrases": 4648,
      "Ġintended": 4649,
      "Ġinfrastru": 4650,
      "Ġgiddy": 4651,
      "seemed": 4652,
      "meaningful": 4653,
      "Ġrequire": 4654,
      "Ġashamed": 4655,
      "Ġassembled": 4656,
      "Ġrapidly": 4657,
      "Ġstamping": 4658,
      "Ġexplanation": 4659,
      "Ġneighbour": 4660,
      "Ġcontemptuous": 4661,
      "ĠNorthumbria": 4662,
      "Ġencoding": 4663,
      "Ġpebbles": 4664,
      "Ġunhappy": 4665,
      "Ġunpleasant": 4666,
      "Ġstructural": 4667,
      "è®¡ç®Ĺ": 4668,
      "Ġfancied": 4669,
      "å¤ĦçĲĨ": 4670,
      "ä¼ĺåĮĸåĻ¨": 4671,
      "Ġmisleading": 4672,
      "Ġgeneralization": 4673,
      "CHORUS": 4674,
      "Ġmethods": 4675,
      "Ġobserved": 4676,
      "Ġsubword": 4677,
      "ä¸Ģèĩ´": 4678,
      "ä¸Ģä¸ªéĺ¶æ®µ": 4679,
      "ä¿ĿæĮģ": 4680,
      "Ġdeterministic": 4681,
      "ç¡¬ä»¶": 4682,
      "Ġespecially": 4683,
      "ä¼ļæĬĬåİŁå§ĭ": 4684,
      "è½¬æį¢": 4685,
      "ä¿¡æģ¯": 4686,
      "ĠCheckpointMetadata": 4687,
      "éĶĻè¯¯": 4688,
      "Ġinfrastructure": 4689,
      "!_": 4690,
      "\".": 4691,
      "\"{": 4692,
      "\"},": 4693,
      "'s": 4694,
      ")]": 4695,
      ")âĢĶ": 4696,
      ")}\")": 4697,
      ",_": 4698,
      ",âĢĻâĢĿ": 4699,
      ".,": 4700,
      ".]": 4701,
      ".âĢĶ": 4702,
      ".âĢĶâĢľ": 4703,
      "03": 4704,
      "32": 4705,
      "33": 4706,
      "46": 4707,
      "70": 4708,
      "846": 4709,
      ";âĢĶ": 4710,
      "?)": 4711,
      "?_": 4712,
      "AB": 4713,
      "AD": 4714,
      "AL": 4715,
      "AN": 4716,
      "AT": 4717,
      "Al": 4718,
      "Am": 4719,
      "Ahe": 4720,
      "BI": 4721,
      "Br": 4722,
      "Bet": 4723,
      "Back": 4724,
      "Birds": 4725,
      "Bring": 4726,
      "BPE": 4727,
      "Boots": 4728,
      "Ch": 4729,
      "Cat": 4730,
      "Cur": 4731,
      "Com": 4732,
      "Catch": 4733,
      "Coll": 4734,
      "Certain": 4735,
      "Cheshire": 4736,
      "Chor": 4737,
      "Code": 4738,
      "Chr": 4739,
      "Clipping": 4740,
      "Dri": 4741,
      "Dist": 4742,
      "Duck": 4743,
      "Dodo": 4744,
      "Does": 4745,
      "Drink": 4746,
      "Dear": 4747,
      "Digging": 4748,
      "EE": 4749,
      "Either": 4750,
      "Embedding": 4751,
      "ELU": 4752,
      "EAR": 4753,
      "Edwin": 4754,
      "EAT": 4755,
      "FU": 4756,
      "Fal": 4757,
      "Fif": 4758,
      "Fort": 4759,
      "Four": 4760,
      "Fish": 4761,
      "From": 4762,
      "Five": 4763,
      "Fury": 4764,
      "Fetch": 4765,
      "French": 4766,
      "Fainting": 4767,
      "GE": 4768,
      "Ge": 4769,
      "Gr": 4770,
      "Game": 4771,
      "GLU": 4772,
      "Hd": 4773,
      "Hj": 4774,
      "Hm": 4775,
      "His": 4776,
      "Had": 4777,
      "Hand": 4778,
      "Have": 4779,
      "Hush": 4780,
      "Hole": 4781,
      "Heral": 4782,
      "Is": 4783,
      "Imp": 4784,
      "Idi": 4785,
      "Knave": 4786,
      "Le": 4787,
      "Lar": 4788,
      "Look": 4789,
      "Lau": 4790,
      "Lory": 4791,
      "Lear": 4792,
      "Lizard": 4793,
      "Large": 4794,
      "Layer": 4795,
      "Luckily": 4796,
      "Mas": 4797,
      "Mind": 4798,
      "Mine": 4799,
      "March": 4800,
      "Mary": 4801,
      "Mix": 4802,
      "Majesty": 4803,
      "Miss": 4804,
      "Mercia": 4805,
      "MAL": 4806,
      "NL": 4807,
      "Nay": 4808,
      "None": 4809,
      "Near": 4810,
      "Nonsense": 4811,
      "OU": 4812,
      "Or": 4813,
      "OÃ": 4814,
      "ONL": 4815,
      "Pat": 4816,
      "Pig": 4817,
      "Pigeon": 4818,
      "Parameter": 4819,
      "Prizes": 4820,
      "Pray": 4821,
      "Pepper": 4822,
      "Pennyworth": 4823,
      "Quadrille": 4824,
      "Ru": 4825,
      "Right": 4826,
      "Rome": 4827,
      "Race": 4828,
      "Read": 4829,
      "Random": 4830,
      "Running": 4831,
      "Si": 4832,
      "Sw": 4833,
      "Sit": 4834,
      "Sent": 4835,
      "Sto": 4836,
      "Same": 4837,
      "Such": 4838,
      "Saving": 4839,
      "Said": 4840,
      "Self": 4841,
      "Sounds": 4842,
      "SONL": 4843,
      "TS": 4844,
      "To": 4845,
      "Tr": 4846,
      "Tre": 4847,
      "Ten": 4848,
      "Tut": 4849,
      "Too": 4850,
      "Tell": 4851,
      "Two": 4852,
      "Talking": 4853,
      "Twent": 4854,
      "THE": 4855,
      "Up": 4856,
      "Ugh": 4857,
      "Uglification": 4858,
      "UEE": 4859,
      "Wa": 4860,
      "Wr": 4861,
      "Was": 4862,
      "Wake": 4863,
      "William": 4864,
      "Wonderland": 4865,
      "Your": 4866,
      "Ze": 4867,
      "[-": 4868,
      "[:": 4869,
      "]]": 4870,
      "]]:": 4871,
      "]}\")": 4872,
      "_;": 4873,
      "_{": 4874,
      "_âĢĻ": 4875,
      "_?âĢĿ": 4876,
      "_âĢĶâĢĿ": 4877,
      "_.âĢĻâĢĿ": 4878,
      "_).": 4879,
      "`.": 4880,
      "`:": 4881,
      "aly": 4882,
      "aign": 4883,
      "aited": 4884,
      "afe": 4885,
      "aography": 4886,
      "bl": 4887,
      "bed": 4888,
      "bas": 4889,
      "bot": 4890,
      "bal": 4891,
      "bir": 4892,
      "bell": 4893,
      "best": 4894,
      "bore": 4895,
      "bject": 4896,
      "bling": 4897,
      "bury": 4898,
      "bility": 4899,
      "brightened": 4900,
      "bring": 4901,
      "bank": 4902,
      "besides": 4903,
      "cif": 4904,
      "cri": 4905,
      "clo": 4906,
      "care": 4907,
      "cious": 4908,
      "cient": 4909,
      "cons": 4910,
      "cross": 4911,
      "cert": 4912,
      "cop": 4913,
      "cret": 4914,
      "cying": 4915,
      "crowd": 4916,
      "cided": 4917,
      "cular": 4918,
      "cud": 4919,
      "cute": 4920,
      "cucumber": 4921,
      "da": 4922,
      "dj": 4923,
      "dat": 4924,
      "dro": 4925,
      "dry": 4926,
      "done": 4927,
      "dist": 4928,
      "dered": 4929,
      "dread": 4930,
      "dump": 4931,
      "diam": 4932,
      "dging": 4933,
      "dgar": 4934,
      "different": 4935,
      "dged": 4936,
      "ef": 4937,
      "ew": 4938,
      "eat": 4939,
      "eck": 4940,
      "eere": 4941,
      "eel": 4942,
      "eam": 4943,
      "eak": 4944,
      "eked": 4945,
      "eble": 4946,
      "evid": 4947,
      "eager": 4948,
      "ebly": 4949,
      "eiling": 4950,
      "eyes": 4951,
      "eenth": 4952,
      "eyed": 4953,
      "fly": 4954,
      "fur": 4955,
      "fell": 4956,
      "fig": 4957,
      "fake": 4958,
      "fond": 4959,
      "fire": 4960,
      "file": 4961,
      "full": 4962,
      "fair": 4963,
      "fright": 4964,
      "frightened": 4965,
      "finger": 4966,
      "friend": 4967,
      "focus": 4968,
      "final": 4969,
      "frog": 4970,
      "flinging": 4971,
      "field": 4972,
      "ferrets": 4973,
      "gn": 4974,
      "gin": 4975,
      "gall": 4976,
      "gir": 4977,
      "gher": 4978,
      "gave": 4979,
      "gest": 4980,
      "gant": 4981,
      "gence": 4982,
      "gold": 4983,
      "garden": 4984,
      "gular": 4985,
      "gative": 4986,
      "gmentation": 4987,
      "him": 4988,
      "hast": 4989,
      "house": 4990,
      "hood": 4991,
      "half": 4992,
      "hated": 4993,
      "hookah": 4994,
      "hidden": 4995,
      "hung": 4996,
      "ial": 4997,
      "ired": 4998,
      "iest": 4999,
      "ially": 5000,
      "iven": 5001,
      "ived": 5002,
      "iper": 5003,
      "ipath": 5004,
      "iotic": 5005,
      "iptoe": 5006,
      "iGLU": 5007,
      "ibility": 5008,
      "jure": 5009,
      "kn": 5010,
      "ks": 5011,
      "kv": 5012,
      "ker": 5013,
      "kes": 5014,
      "kim": 5015,
      "kne": 5016,
      "kily": 5017,
      "kiss": 5018,
      "lv": 5019,
      "lad": 5020,
      "lple": 5021,
      "late": 5022,
      "last": 5023,
      "link": 5024,
      "lau": 5025,
      "lass": 5026,
      "lause": 5027,
      "loud": 5028,
      "lmon": 5029,
      "lways": 5030,
      "label": 5031,
      "lative": 5032,
      "lonely": 5033,
      "luckily": 5034,
      "mn": 5035,
      "mu": 5036,
      "mor": 5037,
      "mis": 5038,
      "mot": 5039,
      "mly": 5040,
      "mur": 5041,
      "may": 5042,
      "might": 5043,
      "mple": 5044,
      "mist": 5045,
      "make": 5046,
      "matter": 5047,
      "mory": 5048,
      "maid": 5049,
      "mouth": 5050,
      "mense": 5051,
      "morrow": 5052,
      "made": 5053,
      "mulous": 5054,
      "mersault": 5055,
      "magine": 5056,
      "nel": 5057,
      "night": 5058,
      "nest": 5059,
      "nine": 5060,
      "nose": 5061,
      "nline": 5062,
      "number": 5063,
      "nately": 5064,
      "nitude": 5065,
      "nibb": 5066,
      "natural": 5067,
      "ob": 5068,
      "oid": 5069,
      "oad": 5070,
      "oil": 5071,
      "obe": 5072,
      "osition": 5073,
      "oking": 5074,
      "opped": 5075,
      "olic": 5076,
      "ointment": 5077,
      "ps": 5078,
      "pit": 5079,
      "ped": 5080,
      "por": 5081,
      "pot": 5082,
      "pth": 5083,
      "pation": 5084,
      "pher": 5085,
      "pence": 5086,
      "pans": 5087,
      "pict": 5088,
      "pie": 5089,
      "project": 5090,
      "pool": 5091,
      "pair": 5092,
      "pract": 5093,
      "parameter": 5094,
      "present": 5095,
      "pardon": 5096,
      "plic": 5097,
      "pairs": 5098,
      "paper": 5099,
      "pencil": 5100,
      "purpose": 5101,
      "pressing": 5102,
      "qkv": 5103,
      "rh": 5104,
      "rar": 5105,
      "rad": 5106,
      "rif": 5107,
      "rus": 5108,
      "rone": 5109,
      "rabbit": 5110,
      "rimp": 5111,
      "rup": 5112,
      "rumb": 5113,
      "range": 5114,
      "ratching": 5115,
      "rstrip": 5116,
      "ritated": 5117,
      "rants": 5118,
      "rrh": 5119,
      "sq": 5120,
      "sat": 5121,
      "sen": 5122,
      "sli": 5123,
      "sad": 5124,
      "sal": 5125,
      "sir": 5126,
      "spe": 5127,
      "sort": 5128,
      "sight": 5129,
      "som": 5130,
      "siz": 5131,
      "same": 5132,
      "sil": 5133,
      "such": 5134,
      "simp": 5135,
      "sav": 5136,
      "sample": 5137,
      "sigh": 5138,
      "saw": 5139,
      "summar": 5140,
      "sens": 5141,
      "smo": 5142,
      "swe": 5143,
      "sister": 5144,
      "school": 5145,
      "sorrow": 5146,
      "serpents": 5147,
      "safe": 5148,
      "skim": 5149,
      "slate": 5150,
      "ts": 5151,
      "ton": 5152,
      "tit": 5153,
      "tre": 5154,
      "tor": 5155,
      "tes": 5156,
      "too": 5157,
      "tain": 5158,
      "tri": 5159,
      "took": 5160,
      "tun": 5161,
      "til": 5162,
      "tried": 5163,
      "tart": 5164,
      "tire": 5165,
      "tons": 5166,
      "tarts": 5167,
      "tier": 5168,
      "trying": 5169,
      "tty": 5170,
      "tlen": 5171,
      "twist": 5172,
      "tretching": 5173,
      "tiptoe": 5174,
      "uli": 5175,
      "use": 5176,
      "uss": 5177,
      "uation": 5178,
      "uge": 5179,
      "upp": 5180,
      "uine": 5181,
      "uish": 5182,
      "uity": 5183,
      "ugg": 5184,
      "uick": 5185,
      "ubs": 5186,
      "uglif": 5187,
      "vas": 5188,
      "vate": 5189,
      "vil": 5190,
      "vance": 5191,
      "vol": 5192,
      "vision": 5193,
      "won": 5194,
      "wand": 5195,
      "well": 5196,
      "wind": 5197,
      "wig": 5198,
      "wood": 5199,
      "wfully": 5200,
      "watching": 5201,
      "wider": 5202,
      "waited": 5203,
      "wiGLU": 5204,
      "xy": 5205,
      "xpo": 5206,
      "xpect": 5207,
      "yly": 5208,
      "yard": 5209,
      "ything": 5210,
      "yles": 5211,
      "yawned": 5212,
      "ze": 5213,
      "zy": 5214,
      "zing": 5215,
      "zig": 5216,
      "zag": 5217,
      "}\"": 5218,
      "}\"]": 5219,
      "¡£": 5220,
      "¡éªĮ": 5221,
      "¡è¿Ĳè¡Į": 5222,
      "¢å": 5223,
      "¢ĳ": 5224,
      "¢èĥ½": 5225,
      "¢åĬ": 5226,
      "¢å¤į": 5227,
      "£ä¹Ī": 5228,
      "£åįķ": 5229,
      "¤º": 5230,
      "¤è¶": 5231,
      "¥æķ°": 5232,
      "¥æ£ĢæŁ¥": 5233,
      "¥åº": 5234,
      "¥è®©": 5235,
      "¥æĶ": 5236,
      "¦ä¹": 5237,
      "¦æĿ": 5238,
      "¦è§£": 5239,
      "¦ä¹Łèĥ½": 5240,
      "§ç": 5241,
      "§ģ": 5242,
      "§į": 5243,
      "§åĪ": 5244,
      "§è¦": 5245,
      "¨ĭ": 5246,
      "¨éĩ": 5247,
      "¨åĪĨ": 5248,
      "¨ä¼ļæ": 5249,
      "©ä¸İ": 5250,
      "©ä»·åĢ¼": 5251,
      "ªäº": 5252,
      "ªå°ı": 5253,
      "ªåĽ": 5254,
      "«å°": 5255,
      "¬Ķ": 5256,
      "¬æ¨¡åŀĭ": 5257,
      "¬¡è¿Ĳè¡Į": 5258,
      "®éĩį": 5259,
      "¯ı": 5260,
      "¯å¾": 5261,
      "±Ĥ": 5262,
      "±æĺ¯": 5263,
      "±åĲ": 5264,
      "²æŃ¢": 5265,
      "²æľªæĿ¥": 5266,
      "´¨éĩ": 5267,
      "µ·": 5268,
      "µéĩ": 5269,
      "¶å": 5270,
      "¶æĸĩæľ¬": 5271,
      "··": 5272,
      "·æľ¬": 5273,
      "·ä¿¡": 5274,
      "¹å¤§": 5275,
      "¹è¿Ľ": 5276,
      "¹åıĺ": 5277,
      "¹æ³ķ": 5278,
      "ºĲ": 5279,
      "ºåĪĨ": 5280,
      "ºç¡": 5281,
      "º¦æĿ": 5282,
      "º«å°": 5283,
      "»æŃ¢": 5284,
      "»è§£éĩĬ": 5285,
      "¼ı": 5286,
      "¼æŃ": 5287,
      "¼©ä¸İ": 5288,
      "½æķ°": 5289,
      "¾¿": 5290,
      "¾ä»¥": 5291,
      "¾å°ı": 5292,
      "¾åĴĮçĽ®æłĩ": 5293,
      "¿åħ": 5294,
      "¿éĢļå¸¸": 5295,
      "¿çĶ¨": 5296,
      "ä¾¿": 5297,
      "åģ": 5298,
      "åĨ": 5299,
      "åŁ": 5300,
      "åŀĭ": 5301,
      "æĭ": 5302,
      "æı": 5303,
      "æĴ": 5304,
      "æł": 5305,
      "æłĩ": 5306,
      "æµģæ°´çº¿": 5307,
      "æĬĬ": 5308,
      "æ¯Ķ": 5309,
      "æĤĦ": 5310,
      "æ¡£": 5311,
      "æ¬¡è¿Ĳè¡Į": 5312,
      "æ¯ı": 5313,
      "æ··": 5314,
      "æºĲ": 5315,
      "çŁ": 5316,
      "çŃ": 5317,
      "ç¦»": 5318,
      "ç¨³å®ļ": 5319,
      "çĬ¶æĢģ": 5320,
      "ç¤º": 5321,
      "ç§į": 5322,
      "ç¨ĭ": 5323,
      "ç¬Ķ": 5324,
      "çº¦æĿ": 5325,
      "ç¼©ä¸İ": 5326,
      "èĬ": 5327,
      "èĮ": 5328,
      "è´¨éĩ": 5329,
      "èµ·": 5330,
      "èº«å°": 5331,
      "éģ": 5332,
      "éĤ": 5333,
      "éĥ": 5334,
      "éĹ": 5335,
      "éľ": 5336,
      "é¢ĳ": 5337,
      "ĊĊĠĠĠĠĠĠĠĠ": 5338,
      "ĊĊĠĠĠĠ": 5339,
      "Ġ)": 5340,
      "Ġ:": 5341,
      "Ġ\\": 5342,
      "Ġir": 5343,
      "Ġest": 5344,
      "Ġide": 5345,
      "ĠçļĦ": 5346,
      "Ġign": 5347,
      "Ġ100": 5348,
      "Ġæĺ¯": 5349,
      "ĠéªĮè¯ģ": 5350,
      "ĠJust": 5351,
      "Ġåħ": 5352,
      "Ġä¹Ł": 5353,
      "ĠæįŁå¤±": 5354,
      "Ġæķ°æį®æµģæ°´çº¿": 5355,
      "Ġéħįç½®": 5356,
      "Ġçľ": 5357,
      "Ġè®Ńç»ĥå¾ªçİ¯": 5358,
      "Ġä½įç½®": 5359,
      "Ġå±ŀäºİ": 5360,
      "Ġè®¡ç®Ĺ": 5361,
      "ĠZe": 5362,
      "Ġqkv": 5363,
      "Ġzig": 5364,
      "ĢçļĦ": 5365,
      "Ģ§è¦": 5366,
      "ĢåŁ": 5367,
      "ģĩ": 5368,
      "ĤçļĦ": 5369,
      "Ĥå¯": 5370,
      "ĥéĩį": 5371,
      "ĥåĮĸ": 5372,
      "ĦæŃ£ç¡": 5373,
      "Ħéľ": 5374,
      "ħä¸ĭ": 5375,
      "ħä»·åĢ¼": 5376,
      "ħå®¹": 5377,
      "ħæĭ": 5378,
      "ĨçĽ": 5379,
      "Ĩåīį": 5380,
      "ĨèĬ": 5381,
      "ĪéĢ": 5382,
      "Īåľ°": 5383,
      "īè§Ħæ¨¡å": 5384,
      "ī©ä»·åĢ¼": 5385,
      "Ĭåħĥ": 5386,
      "ĭåĬ": 5387,
      "ĭåĪ°": 5388,
      "ĭç¼©ä¸İ": 5389,
      "ĮçĤ¹": 5390,
      "ĮæĪĲ": 5391,
      "Įçº¦æĿ": 5392,
      "İ°": 5393,
      "İæģ": 5394,
      "ıä¿Ŀ": 5395,
      "ıè¶³å¤Ł": 5396,
      "Ĳè¯": 5397,
      "ĲçļĦ": 5398,
      "Ĳæĺ¯": 5399,
      "ĳè§ģ": 5400,
      "Ĵè®Ńç»ĥ": 5401,
      "ĵè¢«": 5402,
      "ĵªäº": 5403,
      "Ķ¹åıĺ": 5404,
      "Ķç¨³å®ļ": 5405,
      "ĸæ£ĢæŁ¥": 5406,
      "ĸéĿ¢": 5407,
      "ĹæĽ´": 5408,
      "Ļä¸į": 5409,
      "ľçļĦä¸Ģ": 5410,
      "ľæĹ¶": 5411,
      "Ŀ¥æ£ĢæŁ¥": 5412,
      "ŀå½": 5413,
      "ŀéĢļ": 5414,
      "ŁæŃ£": 5415,
      "ŁçļĦä¸Ģ": 5416,
      "ŁåĪ°": 5417,
      "łçļĦ": 5418,
      "łåı¯å¤įç": 5419,
      "łæ³ķ": 5420,
      "łè½½": 5421,
      "ł·æľ¬": 5422,
      "łæĴ": 5423,
      "ŃèĢĮ": 5424,
      "Ńīè§Ħæ¨¡å": 5425,
      "Ġtid": 5426,
      "Ġtut": 5427,
      "Ġtur": 5428,
      "Ġtun": 5429,
      "Ġtight": 5430,
      "Ġture": 5431,
      "Ġtide": 5432,
      "Ġtying": 5433,
      "Ġterr": 5434,
      "Ġtinkling": 5435,
      "Ġtuli": 5436,
      "held": 5437,
      "hest": 5438,
      "heavy": 5439,
      "helple": 5440,
      "Ġache": 5441,
      "Ġamb": 5442,
      "Ġagg": 5443,
      "Ġado": 5444,
      "Ġaud": 5445,
      "Ġadj": 5446,
      "Ġawfully": 5447,
      "Ġson": 5448,
      "Ġsor": 5449,
      "Ġsur": 5450,
      "Ġsple": 5451,
      "Ġsche": 5452,
      "Ġsink": 5453,
      "Ġsess": 5454,
      "Ġsits": 5455,
      "Ġslic": 5456,
      "ined": 5457,
      "inent": 5458,
      "inch": 5459,
      "inqu": 5460,
      "into": 5461,
      "input": 5462,
      "inary": 5463,
      "inside": 5464,
      "inner": 5465,
      "invent": 5466,
      "Ġwin": 5467,
      "Ġwal": 5468,
      "Ġwri": 5469,
      "Ġwel": 5470,
      "Ġwep": 5471,
      "Ġwind": 5472,
      "Ġwig": 5473,
      "Ġwore": 5474,
      "Ġwra": 5475,
      "Ġwide": 5476,
      "Ġwond": 5477,
      "Ġwits": 5478,
      "Ġwise": 5479,
      "Ġwife": 5480,
      "Ġwider": 5481,
      "Ġwarm": 5482,
      "Ġwinter": 5483,
      "Ġwings": 5484,
      "oured": 5485,
      "ouched": 5486,
      "ony": 5487,
      "onents": 5488,
      "onoun": 5489,
      "itself": 5490,
      "itations": 5491,
      "itute": 5492,
      "real": 5493,
      "requ": 5494,
      "really": 5495,
      "reng": 5496,
      "remain": 5497,
      "recor": 5498,
      "rearing": 5499,
      "resting": 5500,
      "remed": 5501,
      "resolved": 5502,
      "regular": 5503,
      "ating": 5504,
      "atte": 5505,
      "attention": 5506,
      "ndidly": 5507,
      "ndeed": 5508,
      "erred": 5509,
      "erget": 5510,
      "erfully": 5511,
      "ernly": 5512,
      "erision": 5513,
      "erically": 5514,
      "ingy": 5515,
      "ingle": 5516,
      "âĢĿ)": 5517,
      "âĢĿ,": 5518,
      "âĢĿ;": 5519,
      "Ġcow": 5520,
      "Ġcal": 5521,
      "Ġcent": 5522,
      "Ġcro": 5523,
      "Ġcard": 5524,
      "Ġcher": 5525,
      "Ġcam": 5526,
      "Ġcure": 5527,
      "Ġcore": 5528,
      "Ġcack": 5529,
      "Ġcra": 5530,
      "Ġcold": 5531,
      "Ġcool": 5532,
      "Ġcush": 5533,
      "Ġcraw": 5534,
      "Ġcamp": 5535,
      "Ġcrawling": 5536,
      "Ġcunning": 5537,
      "Ġclinging": 5538,
      "Ġcucumber": 5539,
      "Ġcounting": 5540,
      "Ġceiling": 5541,
      "Ġban": 5542,
      "Ġbow": 5543,
      "Ġbent": 5544,
      "Ġbill": 5545,
      "Ġbone": 5546,
      "Ġbough": 5547,
      "Ġbath": 5548,
      "Ġbare": 5549,
      "Ġbree": 5550,
      "Ġbag": 5551,
      "Ġbother": 5552,
      "Ġbold": 5553,
      "Ġbuff": 5554,
      "Ġbrightened": 5555,
      "Ġbones": 5556,
      "Ġboun": 5557,
      "Ġbeds": 5558,
      "Ġballs": 5559,
      "Ġbaked": 5560,
      "edly": 5561,
      "ening": 5562,
      "enced": 5563,
      "Ġodd": 5564,
      "Ġobst": 5565,
      "Ġosc": 5566,
      "Ġoyst": 5567,
      "Ġointment": 5568,
      "Ġma": 5569,
      "Ġmall": 5570,
      "Ġmil": 5571,
      "Ġmach": 5572,
      "Ġmaj": 5573,
      "Ġmulti": 5574,
      "Ġtoy": 5575,
      "Ġtoast": 5576,
      "Ġtoff": 5577,
      "Ġtowards": 5578,
      "Ġtoys": 5579,
      "Ġtomorrow": 5580,
      "Ġlit": 5581,
      "Ġland": 5582,
      "Ġlab": 5583,
      "Ġlif": 5584,
      "Ġlest": 5585,
      "Ġlull": 5586,
      "Ġlaid": 5587,
      "Ġlately": 5588,
      "Ġlines": 5589,
      "Ġlamp": 5590,
      "Ġloose": 5591,
      "Ġlonely": 5592,
      "Ġlaughter": 5593,
      "iday": 5594,
      "idge": 5595,
      "idget": 5596,
      "idated": 5597,
      "Ġdel": 5598,
      "Ġdun": 5599,
      "Ġdig": 5600,
      "Ġdried": 5601,
      "Ġdra": 5602,
      "Ġdive": 5603,
      "Ġdie": 5604,
      "Ġdup": 5605,
      "Ġdates": 5606,
      "Ġduck": 5607,
      "Ġdense": 5608,
      "Ġdraw": 5609,
      "Ġdressed": 5610,
      "Ġdrown": 5611,
      "Ġdaint": 5612,
      "Ġdinn": 5613,
      "Ġdaughter": 5614,
      "Ġdrif": 5615,
      "Ġdinner": 5616,
      "orant": 5617,
      "orpus": 5618,
      "orage": 5619,
      "ornamented": 5620,
      "Ġfat": 5621,
      "Ġfis": 5622,
      "Ġfad": 5623,
      "Ġfill": 5624,
      "Ġfake": 5625,
      "Ġfive": 5626,
      "Ġfury": 5627,
      "Ġfumb": 5628,
      "Ġfold": 5629,
      "Ġfool": 5630,
      "Ġfitting": 5631,
      "Ġfount": 5632,
      "Ġflock": 5633,
      "Ġfrying": 5634,
      "Ġfitted": 5635,
      "Ġflew": 5636,
      "Ġfrog": 5637,
      "Ġfilled": 5638,
      "Ġfund": 5639,
      "Ġfresh": 5640,
      "Ġferrets": 5641,
      "Ġfrequ": 5642,
      "Ġfidget": 5643,
      "ism": 5644,
      "isit": 5645,
      "isies": 5646,
      "issed": 5647,
      "iskers": 5648,
      "isitive": 5649,
      "Ġhat": 5650,
      "Ġhid": 5651,
      "Ġhum": 5652,
      "Ġhous": 5653,
      "Ġhide": 5654,
      "Ġhint": 5655,
      "Ġhumb": 5656,
      "Ġholl": 5657,
      "Ġhush": 5658,
      "Ġhol": 5659,
      "Ġhides": 5660,
      "Ġhatching": 5661,
      "Ġharm": 5662,
      "Ġhipp": 5663,
      "Ġhund": 5664,
      "Ġhuge": 5665,
      "ceived": 5666,
      "arp": 5667,
      "arth": 5668,
      "arall": 5669,
      "arri": 5670,
      "around": 5671,
      "arant": 5672,
      "Ġthin": 5673,
      "Ġthir": 5674,
      "Ġthick": 5675,
      "Ġthump": 5676,
      "Ġthrew": 5677,
      "Ġthrown": 5678,
      "Ġthunder": 5679,
      "Ġthrone": 5680,
      "âĢĻ_": 5681,
      "âĢĻ?âĢĿ": 5682,
      "ley": 5683,
      "leave": 5684,
      "least": 5685,
      "lefthand": 5686,
      "aside": 5687,
      "asci": 5688,
      "asped": 5689,
      "anim": 5690,
      "another": 5691,
      "anxious": 5692,
      "anary": 5693,
      "anism": 5694,
      "Ġheal": 5695,
      "Ġheap": 5696,
      "Ġheav": 5697,
      "Ġhearts": 5698,
      "Ġheels": 5699,
      "Ġheavy": 5700,
      "Ġpow": 5701,
      "Ġpet": 5702,
      "Ġpri": 5703,
      "Ġpite": 5704,
      "Ġpour": 5705,
      "Ġpast": 5706,
      "Ġpink": 5707,
      "Ġpant": 5708,
      "Ġpine": 5709,
      "Ġpence": 5710,
      "Ġpace": 5711,
      "Ġpush": 5712,
      "Ġpigeon": 5713,
      "Ġpractical": 5714,
      "Ġpaus": 5715,
      "Ġpriz": 5716,
      "Ġpaint": 5717,
      "Ġpounds": 5718,
      "Ġparall": 5719,
      "ower": 5720,
      "Ġitems": 5721,
      "Ġnet": 5722,
      "Ġnum": 5723,
      "Ġnom": 5724,
      "Ġnest": 5725,
      "Ġnast": 5726,
      "Ġnumb": 5727,
      "Ġnames": 5728,
      "escent": 5729,
      "escape": 5730,
      "Ġinqu": 5731,
      "Ġincor": 5732,
      "Ġincess": 5733,
      "Ġinside": 5734,
      "Ġinwards": 5735,
      "Ġinvent": 5736,
      "Ġinsol": 5737,
      "Ġinvalidate": 5738,
      "Ġinjure": 5739,
      "Ġsand": 5740,
      "Ġsage": 5741,
      "Ġsauc": 5742,
      "Ġsands": 5743,
      "Ġsalmon": 5744,
      "Ġsample": 5745,
      "Ġgain": 5746,
      "Ġgay": 5747,
      "Ġgate": 5748,
      "Ġgather": 5749,
      "Ġgated": 5750,
      "Ġgrew": 5751,
      "Ġgaz": 5752,
      "Ġgames": 5753,
      "lia": 5754,
      "liest": 5755,
      "liked": 5756,
      "living": 5757,
      "life": 5758,
      "Ġsheep": 5759,
      "Ġshedd": 5760,
      "Ġshelves": 5761,
      "Ġshepher": 5762,
      "advance": 5763,
      "ots": 5764,
      "otam": 5765,
      "othing": 5766,
      "otary": 5767,
      "otection": 5768,
      "Ġbee": 5769,
      "Ġbend": 5770,
      "Ġbear": 5771,
      "Ġbelo": 5772,
      "Ġbeast": 5773,
      "Ġbeak": 5774,
      "Ġbelt": 5775,
      "seed": 5776,
      "seen": 5777,
      "seful": 5778,
      "sequence": 5779,
      "seems": 5780,
      "secute": 5781,
      "Ġech": 5782,
      "Ġequ": 5783,
      "Ġeel": 5784,
      "Ġeval": 5785,
      "Ġeels": 5786,
      "uttered": 5787,
      "ĠAh": 5788,
      "ĠAthe": 5789,
      "ĠAust": 5790,
      "ĠAnt": 5791,
      "ĠAdv": 5792,
      "ĠAND": 5793,
      "ĠArith": 5794,
      "ĠAda": 5795,
      "ĠAlways": 5796,
      "metic": 5797,
      "memory": 5798,
      "verse": 5799,
      "verge": 5800,
      "ioned": 5801,
      "ional": 5802,
      "ionately": 5803,
      "Ġones": 5804,
      "Ġonions": 5805,
      "aled": 5806,
      "alter": 5807,
      "aland": 5808,
      "alone": 5809,
      "along": 5810,
      "aloud": 5811,
      "ĠII": 5812,
      "ĠIV": 5813,
      "ĠIX": 5814,
      "ĠIf": 5815,
      "ĠInt": 5816,
      "ĠIII": 5817,
      "ĠImagine": 5818,
      "ĠIndeed": 5819,
      "ldom": 5820,
      "Ġwash": 5821,
      "Ġwasting": 5822,
      "state": 5823,
      "storm": 5824,
      "stood": 5825,
      "states": 5826,
      "stiff": 5827,
      "stream": 5828,
      "stery": 5829,
      "stead": 5830,
      "stairs": 5831,
      "style": 5832,
      "stirring": 5833,
      "stopped": 5834,
      "entiet": 5835,
      "rove": 5836,
      "rock": 5837,
      "rope": 5838,
      "roof": 5839,
      "roved": 5840,
      "rofile": 5841,
      "uration": 5842,
      "urry": 5843,
      "urance": 5844,
      "urpation": 5845,
      "outside": 5846,
      "chain": 5847,
      "change": 5848,
      "chop": 5849,
      "chimney": 5850,
      "chief": 5851,
      "chanism": 5852,
      "Ġreus": 5853,
      "Ġreact": 5854,
      "Ġreshape": 5855,
      "Ġreeds": 5856,
      "Ġrerunning": 5857,
      "Ġrelative": 5858,
      "Ġretire": 5859,
      "Ġreceived": 5860,
      "eth": 5861,
      "ets": 5862,
      "ettle": 5863,
      "etween": 5864,
      "etection": 5865,
      "etitive": 5866,
      "Ġuglif": 5867,
      "!âĢĿ)": 5868,
      "Ġthatched": 5869,
      "ainly": 5870,
      "âĢĶ(": 5871,
      "âĢĶ]": 5872,
      "âĢĶ_": 5873,
      "âĢĶâĢĻ": 5874,
      "keep": 5875,
      "kept": 5876,
      "Ġrus": 5877,
      "Ġric": 5878,
      "Ġrapp": 5879,
      "Ġrail": 5880,
      "Ġrise": 5881,
      "Ġrich": 5882,
      "Ġrarer": 5883,
      "Ġrising": 5884,
      "Ġroughly": 5885,
      "Ġripp": 5886,
      "Ġrouting": 5887,
      "Ġriper": 5888,
      "Ġrotary": 5889,
      "Ġwhom": 5890,
      "Ġwhistling": 5891,
      "ims": 5892,
      "Ġsob": 5893,
      "Ġsobbed": 5894,
      "Ġsomersault": 5895,
      "Ġsoothing": 5896,
      "cking": 5897,
      "ckrrh": 5898,
      "ctured": 5899,
      "these": 5900,
      "theless": 5901,
      "Ġstation": 5902,
      "Ġstock": 5903,
      "Ġstalk": 5904,
      "Ġstup": 5905,
      "Ġstool": 5906,
      "Ġstarts": 5907,
      "Ġstead": 5908,
      "Ġstably": 5909,
      "Ġstyle": 5910,
      "Ġstalls": 5911,
      "Ġstirring": 5912,
      "Ġstretching": 5913,
      "Ġsteam": 5914,
      "Ġstyles": 5915,
      "Ġstreng": 5916,
      "Ġsternly": 5917,
      "Ġstingy": 5918,
      "Ġstorage": 5919,
      "Ġissu": 5920,
      "Ġate": 5921,
      "Ġattem": 5922,
      "Ġfork": 5923,
      "Ġfortun": 5924,
      "andy": 5925,
      "anding": 5926,
      "andum": 5927,
      "those": 5928,
      "thump": 5929,
      "thday": 5930,
      "threw": 5931,
      "thimble": 5932,
      "thunder": 5933,
      "Their": 5934,
      "allowed": 5935,
      "irt": 5936,
      "irons": 5937,
      "irited": 5938,
      "Ġseven": 5939,
      "Ġsearch": 5940,
      "Ġseated": 5941,
      "Ġsecret": 5942,
      "Ġsegmentation": 5943,
      "Ġseaside": 5944,
      "Ġseldom": 5945,
      "ifting": 5946,
      "ifies": 5947,
      "ifier": 5948,
      "Ġshock": 5949,
      "Ġshake": 5950,
      "Ġshare": 5951,
      "Ġshiny": 5952,
      "Ġshade": 5953,
      "Ġshining": 5954,
      "Ġshiver": 5955,
      "Ġshrimp": 5956,
      "Ġshyly": 5957,
      "Ġshingle": 5958,
      "Ġshifting": 5959,
      "Ġancient": 5960,
      "peare": 5961,
      "peless": 5962,
      "riek": 5963,
      "ribly": 5964,
      "riction": 5965,
      "riotic": 5966,
      "rief": 5967,
      "Ġallow": 5968,
      "Ġmoves": 5969,
      ".âĢĿ)": 5970,
      "quest": 5971,
      "quiet": 5972,
      "Ġvul": 5973,
      "Ġvine": 5974,
      "Ġvag": 5975,
      "tom": 5976,
      "tole": 5977,
      "toms": 5978,
      "Ġdomin": 5979,
      "Ġdodged": 5980,
      "Ġdozing": 5981,
      "illate": 5982,
      "White": 5983,
      "erexpo": 5984,
      "Ġexam": 5985,
      "ĠMay": 5986,
      "ĠMind": 5987,
      "ĠMag": 5988,
      "ĠModel": 5989,
      "ĠMyst": 5990,
      "ĠMemory": 5991,
      "ĠMAR": 5992,
      "ĠMercia": 5993,
      "elp": 5994,
      "elids": 5995,
      "elbow": 5996,
      "Ġneither": 5997,
      "Ġneural": 5998,
      "Ġnegative": 5999,
      "?âĢĿ,": 6000,
      "Ġking": 6001,
      "Ġkissed": 6002,
      "Ġkettle": 6003,
      "Ġsuet": 6004,
      "Ġsuff": 6005,
      "Ġsuper": 6006,
      "Ġsugg": 6007,
      "Ġsubst": 6008,
      "Ġsugar": 6009,
      "Ġupright": 6010,
      "Ġupset": 6011,
      "Ġupstairs": 6012,
      "ushing": 6013,
      "usually": 6014,
      "usoid": 6015,
      "Ġlose": 6016,
      "Ġloving": 6017,
      "Ġlosing": 6018,
      "Ġlodging": 6019,
      "rysal": 6020,
      "Ġoutline": 6021,
      "Ġmeat": 6022,
      "Ġmeal": 6023,
      "Ġmeek": 6024,
      "Ġmechanism": 6025,
      "ustom": 6026,
      "ustered": 6027,
      "itecture": 6028,
      "aveat": 6029,
      "ulates": 6030,
      "Ġconde": 6031,
      "Ġconven": 6032,
      "Ġconger": 6033,
      "Ġcondu": 6034,
      "Ġconcept": 6035,
      "Ġconcat": 6036,
      "Ġconcert": 6037,
      "Ġconsequence": 6038,
      "Ġconquest": 6039,
      "unrolled": 6040,
      "uncom": 6041,
      "unless": 6042,
      "uncommon": 6043,
      "until": 6044,
      "unusually": 6045,
      "ĠSing": 6046,
      "ĠSome": 6047,
      "ĠSpl": 6048,
      "ĠSimple": 6049,
      "ĠSend": 6050,
      "ĠSerpent": 6051,
      "ĠStory": 6052,
      "ĠSilence": 6053,
      "ĠStill": 6054,
      "ĠSyst": 6055,
      "ĠStop": 6056,
      "ĠSOU": 6057,
      "ĠStretching": 6058,
      "ĠSupp": 6059,
      "ĠSwiGLU": 6060,
      "ĠStole": 6061,
      "ĠTake": 6062,
      "ĠTho": 6063,
      "ĠTale": 6064,
      "ĠTarts": 6065,
      "ĠTHE": 6066,
      "ĠTears": 6067,
      "Ġquiver": 6068,
      "Ġqueere": 6069,
      "amation": 6070,
      "amour": 6071,
      "ampl": 6072,
      "ppery": 6073,
      "Ġjell": 6074,
      "Ġjour": 6075,
      "Ġjaw": 6076,
      "Ġjud": 6077,
      "Ġbuttered": 6078,
      "Ġbuttons": 6079,
      "Ġknown": 6080,
      "Ġknelt": 6081,
      "Ġknuck": 6082,
      "Ġknob": 6083,
      "Ġdownward": 6084,
      "Ġdownwards": 6085,
      "Ġdownstream": 6086,
      "Ġcanvas": 6087,
      "Ġlived": 6088,
      "Ġlikes": 6089,
      "Ġlips": 6090,
      "Ġlicking": 6091,
      "ĠData": 6092,
      "ĠDec": 6093,
      "ĠDigging": 6094,
      "ĠDinn": 6095,
      "ĠDerision": 6096,
      "ĠDescent": 6097,
      "ĠDetection": 6098,
      "Ġornamented": 6099,
      "Ġdeath": 6100,
      "Ġdebu": 6101,
      "Ġdepth": 6102,
      "ics": 6103,
      "icer": 6104,
      "iculous": 6105,
      "icially": 6106,
      "Ġtrack": 6107,
      "Ġtransform": 6108,
      "Ġtransformer": 6109,
      "Ġtradeoff": 6110,
      "Ġtrampl": 6111,
      "ĠCap": 6112,
      "ĠCaut": 6113,
      "ĠCross": 6114,
      "ĠCroquet": 6115,
      "ĠCaus": 6116,
      "ĠCanter": 6117,
      "ĠClipping": 6118,
      "ĠClass": 6119,
      "ĠCoil": 6120,
      "ĠCorpus": 6121,
      "ĠCanary": 6122,
      "ĠCaveat": 6123,
      "orting": 6124,
      "orted": 6125,
      "umable": 6126,
      "umph": 6127,
      "omile": 6128,
      "izers": 6129,
      "Ġable": 6130,
      "Ġabide": 6131,
      "index": 6132,
      "indeed": 6133,
      "ourn": 6134,
      "ours": 6135,
      "ource": 6136,
      "ourite": 6137,
      "Ġchoke": 6138,
      "Ġchuck": 6139,
      "Ġchanced": 6140,
      "Ġchoose": 6141,
      "Ġchasing": 6142,
      "Ġchains": 6143,
      "Ġchief": 6144,
      "Ġchatte": 6145,
      "Ġchrysal": 6146,
      "reduc": 6147,
      "estamp": 6148,
      "lode": 6149,
      "lobst": 6150,
      "logits": 6151,
      "cheered": 6152,
      "cheated": 6153,
      "Ġnodd": 6154,
      "Ġnoises": 6155,
      "Ġnovel": 6156,
      "Ġhistor": 6157,
      "xteenth": 6158,
      "inking": 6159,
      "inkled": 6160,
      "tinguish": 6161,
      "ĠHd": 6162,
      "ĠHas": 6163,
      "ĠHim": 6164,
      "ĠHush": 6165,
      "ĠHEAR": 6166,
      "ĠQUEE": 6167,
      "ĠQuick": 6168,
      "Ġsmoot": 6169,
      "Ġsmoking": 6170,
      "Ġweren": 6171,
      "Ġleap": 6172,
      "Ġleant": 6173,
      "Ġleaving": 6174,
      "Ġlefthand": 6175,
      "istmas": 6176,
      "igand": 6177,
      "iguity": 6178,
      "Ġproven": 6179,
      "Ġprovid": 6180,
      "Ġproduce": 6181,
      "Ġproced": 6182,
      "Ġprovo": 6183,
      "Ġprogress": 6184,
      "Ġproxy": 6185,
      "Ġprosecute": 6186,
      "Ġgrant": 6187,
      "Ġgrace": 6188,
      "Ġgraz": 6189,
      "Ġgravy": 6190,
      "ĠKIN": 6191,
      "ĠQueens": 6192,
      "ocking": 6193,
      "Ġoffer": 6194,
      "Ġofficer": 6195,
      "Ġtrained": 6196,
      "Ġsomeone": 6197,
      "Ġsomehow": 6198,
      "ĠGram": 6199,
      "ĠGELU": 6200,
      "ĠGrief": 6201,
      "Ġworm": 6202,
      "Ġworse": 6203,
      "Ġworry": 6204,
      "Ġworried": 6205,
      "Ġworsens": 6206,
      "Ġvalidated": 6207,
      "aped": 6208,
      "apes": 6209,
      "apers": 6210,
      "apol": 6211,
      "Ġpop": 6212,
      "Ġpope": 6213,
      "Ġposit": 6214,
      "Ġpoky": 6215,
      "Ġpoker": 6216,
      "poor": 6217,
      "position": 6218,
      "possibly": 6219,
      "pty": 6220,
      "ption": 6221,
      "Ġfeed": 6222,
      "Ġfeared": 6223,
      "Ġfeeble": 6224,
      "oregress": 6225,
      "Thinking": 6226,
      "ĠKings": 6227,
      "tea": 6228,
      "tely": 6229,
      "teles": 6230,
      "teacup": 6231,
      "acking": 6232,
      "ishing": 6233,
      "ishly": 6234,
      "Ġafore": 6235,
      "Ġaffor": 6236,
      "Ġaffair": 6237,
      "Ġgets": 6238,
      "Ġbyte": 6239,
      "plate": 6240,
      "plenty": 6241,
      "bition": 6242,
      "bitrar": 6243,
      "deal": 6244,
      "decided": 6245,
      "ĠRun": 6246,
      "ĠRight": 6247,
      "ĠRate": 6248,
      "ĠRome": 6249,
      "ĠRole": 6250,
      "ĠRAB": 6251,
      "Ġways": 6252,
      "ormous": 6253,
      "ormans": 6254,
      "raved": 6255,
      "raord": 6256,
      "ralia": 6257,
      "ĠNile": 6258,
      "ĠNever": 6259,
      "ĠNumber": 6260,
      "ĠNormalization": 6261,
      "ĠNew": 6262,
      "ĠNormans": 6263,
      "avour": 6264,
      "ĠPig": 6265,
      "ĠProject": 6266,
      "ĠPool": 6267,
      "ĠPredict": 6268,
      "ĠPipeline": 6269,
      "ĠPlease": 6270,
      "ĠPrizes": 6271,
      "ĠPepper": 6272,
      "ĠPurpose": 6273,
      "ĠPosition": 6274,
      "ĠPuss": 6275,
      "ĠPinch": 6276,
      "ĠProfile": 6277,
      "Ġtool": 6278,
      "Ġlark": 6279,
      "Ġlargest": 6280,
      "Ġhowled": 6281,
      "Ġanywhere": 6282,
      "forepaws": 6283,
      "Ġ(_": 6284,
      "Ġtwist": 6285,
      "Ġtweak": 6286,
      "Ġtwentiet": 6287,
      "Ġtwinkled": 6288,
      "Ġaltered": 6289,
      "authority": 6290,
      "ddle": 6291,
      "iouser": 6292,
      "mbling": 6293,
      "onds": 6294,
      "ondon": 6295,
      "introduce": 6296,
      "Ġoverhead": 6297,
      "Ġovercome": 6298,
      "Ġoverfit": 6299,
      "ä¸įåĲ": 6300,
      "ä¸Ķç¨³å®ļ": 6301,
      "Ġcontroll": 6302,
      "Ġcontribution": 6303,
      "Ġcontrad": 6304,
      "hopeless": 6305,
      "shelves": 6306,
      "Ġarrow": 6307,
      "Ġarbitrar": 6308,
      "Ġotherwise": 6309,
      "Ġruntime": 6310,
      "near": 6311,
      "nearer": 6312,
      "ĠBec": 6313,
      "ĠBounded": 6314,
      "ĠBlock": 6315,
      "ĠBesides": 6316,
      "ĠBasic": 6317,
      "ĠBetween": 6318,
      "Ġbacks": 6319,
      "ntropy": 6320,
      "Ġteases": 6321,
      "Ġteeth": 6322,
      "Ġusing": 6323,
      "Ġusable": 6324,
      "Ġusurpation": 6325,
      "Ġnevertheless": 6326,
      "ĠFish": 6327,
      "ĠFoot": 6328,
      "ĠFury": 6329,
      "ĠFinal": 6330,
      "ĠFrog": 6331,
      "ĠFrance": 6332,
      "Ġhandles": 6333,
      "Ġhandwr": 6334,
      "assign": 6335,
      "ively": 6336,
      "Ġcurly": 6337,
      "Ġcurve": 6338,
      "Ġcurving": 6339,
      "Ġcurls": 6340,
      "Ġcurtse": 6341,
      "Ġcurrants": 6342,
      "Ġcurtain": 6343,
      "Ġexplic": 6344,
      "Ġexpensive": 6345,
      "Ġexpression": 6346,
      "Ġexpanding": 6347,
      "Ġexplode": 6348,
      "Ġjustice": 6349,
      "agree": 6350,
      "agnose": 6351,
      "bend": 6352,
      "being": 6353,
      "been": 6354,
      "behead": 6355,
      "begged": 6356,
      "ĠLittle": 6357,
      "ĠLoop": 6358,
      "ĠLayer": 6359,
      "ĠLangu": 6360,
      "ĠLondon": 6361,
      "Ġensure": 6362,
      "Ġenjo": 6363,
      "Ġenerget": 6364,
      "Ġenormous": 6365,
      "getting": 6366,
      "getable": 6367,
      "Ġplate": 6368,
      "Ġplumb": 6369,
      "Ġplac": 6370,
      "Ġplaus": 6371,
      "Ġplainly": 6372,
      "Ġrepetitive": 6373,
      "Ġreported": 6374,
      "è¯¥è®©": 6375,
      "Ġsymp": 6376,
      "icted": 6377,
      "Ġthank": 6378,
      "Ġthanked": 6379,
      "apping": 6380,
      "apple": 6381,
      "applause": 6382,
      "appointment": 6383,
      "appishly": 6384,
      "Ġimply": 6385,
      "Ġimpert": 6386,
      "Ġimpatient": 6387,
      "Ġmanually": 6388,
      "Ġmanner": 6389,
      "Ġmanners": 6390,
      "Ġmanaging": 6391,
      "others": 6392,
      "shall": 6393,
      "shook": 6394,
      "shore": 6395,
      "shared": 6396,
      "shuff": 6397,
      "shouting": 6398,
      "sharp": 6399,
      "shower": 6400,
      "shriek": 6401,
      "shaped": 6402,
      "Ġrock": 6403,
      "Ġroast": 6404,
      "Ġroared": 6405,
      "Ġroots": 6406,
      "Ġcomplain": 6407,
      "Ġcomfortable": 6408,
      "Ġcommot": 6409,
      "Ġeyelids": 6410,
      "Ġrightly": 6411,
      "Ġrighthand": 6412,
      "Ġye": 6413,
      "Ġyards": 6414,
      "Ġyears": 6415,
      "Ġyelled": 6416,
      "Ġyield": 6417,
      "Ġyawned": 6418,
      "Ġyelp": 6419,
      "bleeds": 6420,
      "ffed": 6421,
      "ĠEven": 6422,
      "ĠEdu": 6423,
      "ĠEngl": 6424,
      "ĠEvidence": 6425,
      "ĠEND": 6426,
      "ĠEdwin": 6427,
      "ĠEdgar": 6428,
      "ĠEsq": 6429,
      "ĠEntropy": 6430,
      "hedges": 6431,
      "Ġscore": 6432,
      "Ġscolded": 6433,
      "Ġscores": 6434,
      "Ġscram": 6435,
      "Ġscaly": 6436,
      "Ġbottlen": 6437,
      "Ġbottom": 6438,
      "Ġlistened": 6439,
      "angrily": 6440,
      "texts": 6441,
      "forgot": 6442,
      "Ġsets": 6443,
      "Ġsettle": 6444,
      "Ġdoorway": 6445,
      "\"):": 6446,
      "sitting": 6447,
      "whatever": 6448,
      "whiskers": 6449,
      "Ġsplashed": 6450,
      "Ġpeering": 6451,
      "Ġpeek": 6452,
      "Ġpegs": 6453,
      "acter": 6454,
      "actly": 6455,
      "older": 6456,
      "ĠâĢĺâĢĻ_": 6457,
      "Ġspell": 6458,
      "Ġspecif": 6459,
      "Ġprevent": 6460,
      "Ġpresents": 6461,
      "Ġpretty": 6462,
      "Ġpretexts": 6463,
      "Ġunable": 6464,
      "Ġunrolled": 6465,
      "Ġuncor": 6466,
      "Ġunci": 6467,
      "Ġunless": 6468,
      "Ġunjust": 6469,
      "Ġuncertain": 6470,
      "Ġuncommon": 6471,
      "çļĦè®Ńç»ĥ": 6472,
      "çļĦäº": 6473,
      "çļĦå½": 6474,
      "çļĦåŃ": 6475,
      "çļĦå°ı": 6476,
      "çļĦæİ©çłģ": 6477,
      "çļĦéĩįè¦ģ": 6478,
      "çļĦæķ°æį®æ": 6479,
      "çļĦæĸĩæľ¬": 6480,
      "çļĦæĶ": 6481,
      "çļĦè¯įè¡¨": 6482,
      "Ġdays": 6483,
      "Ġfinds": 6484,
      "Ġreads": 6485,
      "Ġunderstood": 6486,
      "Ġnearby": 6487,
      "ultation": 6488,
      "Ġeducations": 6489,
      "Ġadds": 6490,
      "Ġaddressed": 6491,
      "Ġcattle": 6492,
      "Ġmayn": 6493,
      "Ġmaybe": 6494,
      "Ġlowering": 6495,
      "Ġsooner": 6496,
      "Ġstrings": 6497,
      "Ġgrowling": 6498,
      "Ġgrowled": 6499,
      "Ġgrowls": 6500,
      "lowing": 6501,
      "sobbing": 6502,
      "Ġwait": 6503,
      "Ġoptional": 6504,
      "Ġpaths": 6505,
      "Ġpleasing": 6506,
      "Ġpleases": 6507,
      "Ġpleasant": 6508,
      "Ġpleasanter": 6509,
      "Ġbehave": 6510,
      "Ġrepeats": 6511,
      "Ġmeanwhile": 6512,
      "putting": 6513,
      "æĺ¾å°ı": 6514,
      "æĺĵè¢«": 6515,
      "ç»ĨèĬ": 6516,
      "ç»ıè¶³å¤Ł": 6517,
      "Ġaccum": 6518,
      "Ġaccus": 6519,
      "Ġaccept": 6520,
      "Ġolder": 6521,
      "Ġoldest": 6522,
      "Ġhappy": 6523,
      "Ġparts": 6524,
      "Ġpartner": 6525,
      "Ġpartners": 6526,
      "Ġbegins": 6527,
      "ggling": 6528,
      "ggled": 6529,
      "Ġbrain": 6530,
      "Ġbrave": 6531,
      "Ġbrass": 6532,
      "Ġbrother": 6533,
      "Ġbrush": 6534,
      "Ġbranch": 6535,
      "Ġbristling": 6536,
      "Ġbridge": 6537,
      "Ġbrushing": 6538,
      "enses": 6539,
      "Ġpronoun": 6540,
      "Ġprotection": 6541,
      "Ġreserved": 6542,
      "Ġresumable": 6543,
      "Ġresource": 6544,
      "Ġexecutes": 6545,
      "Ġexecutions": 6546,
      "æĸ¹æ³ķ": 6547,
      "è®°": 6548,
      "è®¾": 6549,
      "Ġfanning": 6550,
      "Ġfanned": 6551,
      "Ġfancying": 6552,
      "Ġguilt": 6553,
      "Ġguarant": 6554,
      "Ġending": 6555,
      "Ġearnest": 6556,
      "Ġremembering": 6557,
      "tokenizers": 6558,
      "Ġkneel": 6559,
      "akespeare": 6560,
      "Ġpositional": 6561,
      "Instead": 6562,
      "ĠWould": 6563,
      "ĠWrith": 6564,
      "ĠWonderland": 6565,
      "Ġlessen": 6566,
      "Ġflown": 6567,
      "Ġflashed": 6568,
      "Ġflung": 6569,
      "Ġfluttered": 6570,
      "Ġflurry": 6571,
      "Ġflustered": 6572,
      "Ġhearth": 6573,
      "Ġglaring": 6574,
      "Ġglanced": 6575,
      "verses": 6576,
      "ddenly": 6577,
      "explain": 6578,
      "except": 6579,
      "explan": 6580,
      "expressing": 6581,
      "ending": 6582,
      "å¤ªå°ı": 6583,
      "Ġtremulous": 6584,
      "Ġspoon": 6585,
      "Ġspoken": 6586,
      "Ġcalling": 6587,
      "Ġhousemaid": 6588,
      "archbishop": 6589,
      "Ġpuffed": 6590,
      "Ġsupple": 6591,
      "Ġprojected": 6592,
      "Ġprojections": 6593,
      "Ġcuriouser": 6594,
      "Soon": 6595,
      "Soles": 6596,
      "dued": 6597,
      "dules": 6598,
      "formance": 6599,
      "raints": 6600,
      "ä»»": 6601,
      "ä¼łæĴ": 6602,
      "å®ĮæĪĲ": 6603,
      "åı·": 6604,
      "åıĸ": 6605,
      "åıįåĲĳ": 6606,
      "åıĬåħĥ": 6607,
      "Ġbitter": 6608,
      "Ġfarm": 6609,
      "Ġfarther": 6610,
      "Ġfarmer": 6611,
      "Ġhighly": 6612,
      "Ġpermitted": 6613,
      "Ġperformance": 6614,
      "Ġpassing": 6615,
      "Ġintroduc": 6616,
      "Ġintroduce": 6617,
      "Ġintuition": 6618,
      "Ġindepend": 6619,
      "Ġeats": 6620,
      "Ġworkload": 6621,
      "Ġworkflow": 6622,
      "corners": 6623,
      "many": 6624,
      "opotam": 6625,
      "æľĢåŁ": 6626,
      "Ġtested": 6627,
      "Ġtakeaway": 6628,
      "Ġairs": 6629,
      "Ġsweep": 6630,
      "Ġswallowed": 6631,
      "ressiven": 6632,
      "Ġmiss": 6633,
      "Ġmischief": 6634,
      "Ġmainly": 6635,
      "Ġhaste": 6636,
      "Ġgenuine": 6637,
      "adients": 6638,
      "Ġrude": 6639,
      "Ġrubbing": 6640,
      "Ġrubbed": 6641,
      "Ġconfused": 6642,
      "Ġconfuse": 6643,
      "Ġjob": 6644,
      "Ġjogged": 6645,
      "Ġjoys": 6646,
      "ĠHearth": 6647,
      "Ġplayed": 6648,
      "Ġprinted": 6649,
      "contempt": 6650,
      "doc": 6651,
      "doing": 6652,
      "ols": 6653,
      "validation": 6654,
      "ĠOF": 6655,
      "ĠOur": 6656,
      "ĠOne": 6657,
      "ĠOnly": 6658,
      "Ġtriumph": 6659,
      "Ġappears": 6660,
      "Ġappealed": 6661,
      "Ġsimplest": 6662,
      "Ġsimpleton": 6663,
      "Ġcloser": 6664,
      "Ġclosed": 6665,
      "Ġfootmen": 6666,
      "Ġeasiest": 6667,
      "Ġdecay": 6668,
      "Ġdecide": 6669,
      "Ġdecides": 6670,
      "plaining": 6671,
      "Nobody": 6672,
      "grin": 6673,
      "grity": 6674,
      "gradients": 6675,
      "Ġsilently": 6676,
      "Ġcrab": 6677,
      "Ġcrashed": 6678,
      "Ġcrouched": 6679,
      "engine": 6680,
      "Ġmorsel": 6681,
      "Ġmorals": 6682,
      "Ġlets": 6683,
      "Ġletting": 6684,
      "Ġfalling": 6685,
      "Ġfallback": 6686,
      "Ġreturning": 6687,
      "Ġdeepest": 6688,
      "æĸĩæ¡£": 6689,
      "ä¼ļæĺİ": 6690,
      "ä¼ļéĩį": 6691,
      "ä¼ļéĺ": 6692,
      "ä¼ļä½": 6693,
      "ä¼ļå¤§": 6694,
      "ä¼ļä¿ĿåŃĺ": 6695,
      "ä¼ļä»İ": 6696,
      "ä¼ļåıĺ": 6697,
      "cumstance": 6698,
      "eks": 6699,
      "hiss": 6700,
      "noise": 6701,
      "nobody": 6702,
      "rug": 6703,
      "ructured": 6704,
      "æķ£åįķ": 6705,
      "æķĪåľ°": 6706,
      "è§ģæ": 6707,
      "è§Ĥå¯": 6708,
      "Ġadvice": 6709,
      "Ġadvise": 6710,
      "Ġslugg": 6711,
      "Ġclever": 6712,
      "Ġcleared": 6713,
      "Ġclearer": 6714,
      "Ġclearly": 6715,
      "Ġbatching": 6716,
      "Ġmeter": 6717,
      "Ġmetric": 6718,
      "cession": 6719,
      "Ġsharing": 6720,
      "Ġsharks": 6721,
      "Whoever": 6722,
      "Ġwhereupon": 6723,
      "ĠTherefore": 6724,
      "Ġhandsome": 6725,
      "Ġclosely": 6726,
      ")))": 6727,
      ")):": 6728,
      "_,âĢĻ": 6729,
      "ä¹ī": 6730,
      "Ġsigns": 6731,
      "Ġsignify": 6732,
      "Ġsignifies": 6733,
      "Ġwants": 6734,
      "Ġoblong": 6735,
      "Ġdouble": 6736,
      "Ġglobe": 6737,
      "Ġglobal": 6738,
      "Ġrestriction": 6739,
      "Ġsubmitted": 6740,
      "Ġsubdued": 6741,
      "Ġordering": 6742,
      "Ġchoking": 6743,
      "Ġchosen": 6744,
      "raction": 6745,
      "ä¸Ģå®ļ": 6746,
      "ä¸Ģæ¬¡è¿Ĳè¡Į": 6747,
      "ä¸Ģèµ·": 6748,
      "ä¸ŃåŃ": 6749,
      "Ġcontinuous": 6750,
      "Ġlisteners": 6751,
      "Ġhurrying": 6752,
      "Ġdifferently": 6753,
      "åĪĨç¦»": 6754,
      "confusing": 6755,
      "confused": 6756,
      "Ġsneezed": 6757,
      "cost": 6758,
      "timidly": 6759,
      "timestamp": 6760,
      "work": 6761,
      "worse": 6762,
      "words": 6763,
      "®æĢ§è¦": 6764,
      "Ġ[\"": 6765,
      "Ġimitated": 6766,
      "Ġimagine": 6767,
      "Ġimmense": 6768,
      "įåĢ¼": 6769,
      "įçĤ¹": 6770,
      "įçīĩæ®µ": 6771,
      "įç§ģ": 6772,
      "Ġaction": 6773,
      "Ġactive": 6774,
      "Ġwindows": 6775,
      "Ġmarched": 6776,
      "Ġmasking": 6777,
      "Ġpredicts": 6778,
      "Ġpredictably": 6779,
      "yours": 6780,
      "yourself": 6781,
      "strange": 6782,
      "Ġwhistle": 6783,
      "Ġwhisper": 6784,
      "Ġwhispers": 6785,
      "thinking": 6786,
      "Ġshower": 6787,
      "Ġshouting": 6788,
      "Ġshrieked": 6789,
      "Ġconserv": 6790,
      "Ġconsider": 6791,
      "Ġconsume": 6792,
      "loads": 6793,
      "Ġgrins": 6794,
      "Ġgrinning": 6795,
      "Ġwordpiece": 6796,
      "Ġtrials": 6797,
      "æķ°åŃ": 6798,
      "æķ°åĢ¼": 6799,
      "Ġreasonable": 6800,
      "Ġdoubling": 6801,
      "Ġdoubled": 6802,
      "è®Ńç»ĥä¹ĭ": 6803,
      "è®Ńç»ĥæįŁå¤±": 6804,
      "è®Ńç»ĥæ£ĢæŁ¥çĤ¹": 6805,
      "è®Ńç»ĥéĽĨ": 6806,
      "è®Ńç»ĥè¯ŃæĸĻ": 6807,
      "è®Ńç»ĥç»ĵè®º": 6808,
      "knowledge": 6809,
      "æŃ¤è¶": 6810,
      "æŃ¥æķ°": 6811,
      "è¿Ļä¸į": 6812,
      "è¿ŀéĢļ": 6813,
      "Ġ11": 6814,
      "Ġ133": 6815,
      "Ġ1846": 6816,
      "Ġæ£ĢæŁ¥": 6817,
      "Ġtied": 6818,
      "Ġtipped": 6819,
      "Ġtiptoe": 6820,
      "Ġsinging": 6821,
      "âĢľâĢĶ_": 6822,
      "Ġclubs": 6823,
      "Ġclasped": 6824,
      "Ġclamour": 6825,
      "Ġclapping": 6826,
      "Ġcapering": 6827,
      "Ġcapability": 6828,
      "Ġboon": 6829,
      "Ġbooks": 6830,
      "Ġoppos": 6831,
      "Ġminding": 6832,
      "Ġminded": 6833,
      "Ġlouder": 6834,
      "Ġdiscre": 6835,
      "Ġdisappeared": 6836,
      "Ġdispute": 6837,
      "Ġdismay": 6838,
      "Ġdisobe": 6839,
      "Ġdistinguish": 6840,
      "Ġdisagree": 6841,
      "Ġdeserved": 6842,
      "Ġdespair": 6843,
      "Ġfurious": 6844,
      "Ġfuriously": 6845,
      "Ġfactors": 6846,
      "Ġnormalized": 6847,
      "Ġbelieved": 6848,
      "Ġrecording": 6849,
      "Ġaskance": 6850,
      "Ġsoldier": 6851,
      "Ġanswers": 6852,
      "Ġexplained": 6853,
      "offended": 6854,
      "officers": 6855,
      "è¯´æĺİæ¨¡åŀĭ": 6856,
      "è¯´æĺİè¯ŃæĸĻ": 6857,
      "è¯´æĺİå®ŀçİ°": 6858,
      "Ġscales": 6859,
      "Ġbehaves": 6860,
      "æĺ¯éĺ": 6861,
      "æĺ¯åĲ": 6862,
      "æĺ¯åľ¨": 6863,
      "æĺ¯å®ŀçİ°": 6864,
      "æĺ¯å¯¹": 6865,
      "æĺ¯è¿ŀéĢļ": 6866,
      "ç»ĵæŀ": 6867,
      "Ġpuzzle": 6868,
      "Anything": 6869,
      "Wouldn": 6870,
      "against": 6871,
      "couldn": 6872,
      "somebody": 6873,
      "sometimes": 6874,
      "somewhere": 6875,
      "å°ĳè§ģ": 6876,
      "Ġentrance": 6877,
      "Ġspot": 6878,
      "Ġsprawling": 6879,
      "Ġspades": 6880,
      "Ġcoast": 6881,
      "Ġcarry": 6882,
      "Ġcarrier": 6883,
      "Ġclimb": 6884,
      "Ġcroqueting": 6885,
      "Ġcroqueted": 6886,
      "Ġbug": 6887,
      "Ġbuilt": 6888,
      "Ġtops": 6889,
      "Ġdreaming": 6890,
      "Ġdreamed": 6891,
      "Ġpersons": 6892,
      "ĠInvol": 6893,
      "Ġreloading": 6894,
      "Ġreloaded": 6895,
      "Ġnoticing": 6896,
      "Ġconversations": 6897,
      "Ġdependency": 6898,
      "ĠLogging": 6899,
      "ĠLogits": 6900,
      "Ġplacement": 6901,
      "Ġhappening": 6902,
      "Ġtremble": 6903,
      "åı¯éĿ": 6904,
      "Ġopening": 6905,
      "éĩįè½½": 6906,
      "Ġexperimental": 6907,
      "Ġexperimentation": 6908,
      "éªĮè¯ģçĽ®æłĩ": 6909,
      "éªĮè¯ģå·¥": 6910,
      "éªĮè¯ģä¼ļä½": 6911,
      "éªĮè¯ģæĺ¯å¯¹": 6912,
      "earth": 6913,
      "feel": 6914,
      "feeling": 6915,
      "feebly": 6916,
      "fortably": 6917,
      "growl": 6918,
      "however": 6919,
      "hands": 6920,
      "ringlets": 6921,
      "voice": 6922,
      "æİ¥æĶ": 6923,
      "æİ§åĪ": 6924,
      "è¦ĨçĽ": 6925,
      "Ġourselves": 6926,
      "Ġsentenced": 6927,
      "Ġwooden": 6928,
      "Ġcrossly": 6929,
      "Ġloops": 6930,
      "Ġdied": 6931,
      "Ġdilig": 6932,
      "Ġdiverge": 6933,
      "Ġdiagnose": 6934,
      "Ġdenying": 6935,
      "Ġdenies": 6936,
      "Ġdenial": 6937,
      "ceptual": 6938,
      "Ġremaining": 6939,
      "theirs": 6940,
      "Ġstays": 6941,
      "Ġstayed": 6942,
      "Ġforwards": 6943,
      "Ġexpectations": 6944,
      "amingoes": 6945,
      "Ġgoldfish": 6946,
      "Ġprocessions": 6947,
      "Ġargue": 6948,
      "Ġargued": 6949,
      "Ġengaged": 6950,
      "Ġengraved": 6951,
      "Ġimproves": 6952,
      "Ġimproved": 6953,
      "Ġimproving": 6954,
      "Ġcompared": 6955,
      "Ġcompany": 6956,
      "Ġcomparing": 6957,
      "Ġcompression": 6958,
      "Ġcomponents": 6959,
      "Ġweaken": 6960,
      "Ġbecoming": 6961,
      "Ġdifficulties": 6962,
      "ä»¥æĽ": 6963,
      "ä»¥ä¾¿": 6964,
      "ä»¥åıĬåħĥ": 6965,
      "Ġremarks": 6966,
      "æľ¬èº«å°": 6967,
      "ä¿ĿçķĻ": 6968,
      "æ¨¡åŀĭåı¯ä»¥": 6969,
      "æ¨¡åŀĭè§Ħæ¨¡å": 6970,
      "æ¨¡åŀĭè´¨éĩ": 6971,
      "æ¨¡åŀĭè®Ńç»ĥä¹ĭ": 6972,
      "æ¨¡åŀĭä»¥æĽ": 6973,
      "Before": 6974,
      "Behead": 6975,
      "Begin": 6976,
      "Shy": 6977,
      "Shan": 6978,
      "Shall": 6979,
      "Stand": 6980,
      "Still": 6981,
      "Stuff": 6982,
      "Stupid": 6983,
      "Stigand": 6984,
      "Structured": 6985,
      "coming": 6986,
      "complaining": 6987,
      "sugar": 6988,
      "suppose": 6989,
      "subject": 6990,
      "udes": 6991,
      "´ç¨³å®ļ": 6992,
      "´çŃīè§Ħæ¨¡å": 6993,
      "å½¼æŃ": 6994,
      "å¸¸è§ģ": 6995,
      "å¸¸å·¥": 6996,
      "æĿĥéĩį": 6997,
      "èĥ½æŃ£": 6998,
      "Ġvelv": 6999,
      "Ġvegetable": 7000,
      "ģæ±Ĥ": 7001,
      "Ġsnout": 7002,
      "Ġschoolroom": 7003,
      "Ġcheerfully": 7004,
      "Ġcheeks": 7005,
      "Ġblown": 7006,
      "Ġblue": 7007,
      "Ġblades": 7008,
      "Ġblacking": 7009,
      "Ġdetection": 7010,
      "Ġfixing": 7011,
      "lessons": 7012,
      "Ġpictured": 7013,
      "Ġpardoned": 7014,
      "licity": 7015,
      "licates": 7016,
      "standing": 7017,
      "Ġreminding": 7018,
      "Ġattends": 7019,
      "Ġattended": 7020,
      "Ġextraord": 7021,
      "Ġexclamation": 7022,
      "Ġloveliest": 7023,
      "Ġoutputs": 7024,
      "ĠShall": 7025,
      "ĠShared": 7026,
      "ĠShape": 7027,
      "ĠShark": 7028,
      "ĠShapes": 7029,
      "ĠShakespeare": 7030,
      "ĠThough": 7031,
      "Ġquicker": 7032,
      "Ġalongside": 7033,
      "Ġartificially": 7034,
      "Ġtempor": 7035,
      "Ġplanning": 7036,
      "Ġplanned": 7037,
      "Ġscreaming": 7038,
      "Ġpressing": 7039,
      "Ġflamingoes": 7040,
      "Ġmemorandum": 7041,
      "å°ıçļĦç": 7042,
      "éĢļè¿ĩ": 7043,
      "åĪĨè¯įåĻ¨åı¯ä»¥": 7044,
      "åĪĨè¯įåĻ¨ä¼ļæĬĬåİŁå§ĭ": 7045,
      "åĪĨè¯įåĻ¨æĺ¯åľ¨": 7046,
      "Experiment": 7047,
      "Once": 7048,
      "_âĢĶâĢĻâĢĿ": 7049,
      "clever": 7050,
      "extra": 7051,
      "minal": 7052,
      "prettier": 7053,
      "wrong": 7054,
      "wrote": 7055,
      "ä½Ĩåīį": 7056,
      "ä½ľæĹ¶": 7057,
      "åº¦è§£": 7058,
      "åħ¥": 7059,
      "åĬłè½½": 7060,
      "åĮºåĪĨ": 7061,
      "åĮħæĭ": 7062,
      "åĲĳ": 7063,
      "åĲĪéĢ": 7064,
      "åĲİæģ": 7065,
      "æ³¨æĦı": 7066,
      "æ³¢åĬ": 7067,
      "æ³Ħéľ": 7068,
      "çĤ¹è¯´æĺİ": 7069,
      "Ġtreats": 7070,
      "Ġtreating": 7071,
      "oneself": 7072,
      "Ġbreathe": 7073,
      "Ġdrop": 7074,
      "Ġdropping": 7075,
      "Ġdreadful": 7076,
      "Ġinsult": 7077,
      "Ġinclined": 7078,
      "Ġincludes": 7079,
      "Ġinputs": 7080,
      "Ġgrey": 7081,
      "Ġreaching": 7082,
      "Ġreviews": 7083,
      "Ġreviewed": 7084,
      "Ġuntwist": 7085,
      "Ġassurance": 7086,
      "Ġrats": 7087,
      "Ġrattle": 7088,
      "Ġstartled": 7089,
      "Ġsticks": 7090,
      "Ġseparation": 7091,
      "Ġseparates": 7092,
      "Ġseparately": 7093,
      "Ġvanishing": 7094,
      "Ġviolent": 7095,
      "Ġviolence": 7096,
      "Ġnewsp": 7097,
      "Ġjuror": 7098,
      "ĠCheckpointing": 7099,
      "Ġgrunt": 7100,
      "Ġaffectionately": 7101,
      "ĠNobody": 7102,
      "Ġtwelfth": 7103,
      "Ġsettings": 7104,
      "Ġfinishing": 7105,
      "Ġaccount": 7106,
      "Ġaccounting": 7107,
      "Ġrespected": 7108,
      "Ġrespectable": 7109,
      "Ġrespectful": 7110,
      "ä¼ļæĤĦ": 7111,
      "ä¼ļæĶ¹åıĺ": 7112,
      "è§ĦèĮ": 7113,
      "äºİçĽ®æłĩ": 7114,
      "äºİæİ§åĪ": 7115,
      "Ġboxed": 7116,
      "åľ¨èĩ": 7117,
      "åľ¨æľª": 7118,
      "åľ¨ä¸Ģèµ·": 7119,
      "åľ¨æķ°åĢ¼": 7120,
      "Ġspreads": 7121,
      "Ġspreading": 7122,
      "è¦ģåĮºåĪĨ": 7123,
      "éĺ¶æ®µåĴĮçĽ®æłĩ": 7124,
      "Ġarguments": 7125,
      "æĽ´æĸ°": 7126,
      "æĽ´å®¹": 7127,
      "æĽ´åı¯èĥ½": 7128,
      "æĽ´å°ıçļĦç": 7129,
      "æŀľæİ©çłģ": 7130,
      "çĽ®æłĩæ··": 7131,
      "Ġtargets": 7132,
      "Ġsqueaked": 7133,
      "Ġdimensions": 7134,
      "Ġstraightened": 7135,
      "Ġstraightforward": 7136,
      "Ġstraightening": 7137,
      "æİ©çłģå±ŀäºİ": 7138,
      "!âĢĻ?âĢĿ": 7139,
      "III": 7140,
      "Mystery": 7141,
      "books": 7142,
      "cats": 7143,
      "caterpillar": 7144,
      "frame": 7145,
      "frames": 7146,
      "horse": 7147,
      "happen": 7148,
      "happened": 7149,
      "pieces": 7150,
      "scale": 7151,
      "scream": 7152,
      "scratching": 7153,
      "split": 7154,
      "splash": 7155,
      "venth": 7156,
      "whenever": 7157,
      "wheels": 7158,
      "åĩ½æķ°": 7159,
      "åīįåĲĳ": 7160,
      "åİ»è§£éĩĬ": 7161,
      "åİĭç¼©ä¸İ": 7162,
      "åĢ¼å¤±": 7163,
      "æī¹å¤§": 7164,
      "æīįåĢ¼": 7165,
      "æĹ¢èĥ½": 7166,
      "æĹłæ³ķ": 7167,
      "ĠVI": 7168,
      "ĠVisit": 7169,
      "ĠVIII": 7170,
      "Ġversioned": 7171,
      "ĴĮè¿Ĳè¡Į": 7172,
      "Ġtaste": 7173,
      "Ġtastes": 7174,
      "Ġsinusoid": 7175,
      "Ġsorrows": 7176,
      "Ġsorrowful": 7177,
      "interrupted": 7178,
      "interpre": 7179,
      "interrup": 7180,
      "Ġwander": 7181,
      "Ġwandered": 7182,
      "Ġcautious": 7183,
      "Ġcautiously": 7184,
      "Ġburnt": 7185,
      "Ġburning": 7186,
      "Ġmuttered": 7187,
      "Ġmixing": 7188,
      "Ġmixes": 7189,
      "Ġdaresay": 7190,
      "Ġdarkness": 7191,
      "Ġfireplace": 7192,
      "Ġfiles": 7193,
      "Ġfails": 7194,
      "Ġflowing": 7195,
      "Ġflowers": 7196,
      "Ġpurple": 7197,
      "Ġpurpose": 7198,
      "Ġnurse": 7199,
      "Ġbeating": 7200,
      "Ġbeauti": 7201,
      "Ġbeautify": 7202,
      "Ġemits": 7203,
      "Ġempty": 7204,
      "Ġefficient": 7205,
      "Ġrecovery": 7206,
      "Ġrecogn": 7207,
      "Ġstole": 7208,
      "Ġstopping": 7209,
      "Ġstacks": 7210,
      "Ġstacked": 7211,
      "Ġformat": 7212,
      "Ġvarious": 7213,
      "Ġvaried": 7214,
      "Ġexistence": 7215,
      "Ġsulkily": 7216,
      "Ġloads": 7217,
      "Ġloading": 7218,
      "Ġlocked": 7219,
      "ĠTradeoff": 7220,
      "Ġknocked": 7221,
      "Ġtrusts": 7222,
      "Ġleads": 7223,
      "Ġleaders": 7224,
      "Ġproperty": 7225,
      "ä¸İå¤§": 7226,
      "ä¸İæľ¬åľ°": 7227,
      "ä¸İå®ŀéªĮ": 7228,
      "Ġteacups": 7229,
      "Ġcompute": 7230,
      "Ġcomputed": 7231,
      "Ġweeks": 7232,
      "Ġscaled": 7233,
      "Ġscalar": 7234,
      "Ġsettling": 7235,
      "Ġpeeping": 7236,
      "executes": 7237,
      "executions": 7238,
      "Ġsupports": 7239,
      "å®ĥè¯´æĺİæ¨¡åŀĭ": 7240,
      "å®ĥæĺ¯éĺ": 7241,
      "å®ĥæĹ¢èĥ½": 7242,
      "å®ĥä¸İæľ¬åľ°": 7243,
      "æľīéĻ": 7244,
      "æľīä¿ĿåŃĺ": 7245,
      "æľīè¾¹çķ": 7246,
      "æľīæķ°æį®": 7247,
      "Ġconfiguration": 7248,
      "Ġbroadly": 7249,
      "begins": 7250,
      "ä¿¡ä»»": 7251,
      "Ġshrieks": 7252,
      "Ġmilestones": 7253,
      "Ġbuilds": 7254,
      "Ġhopeful": 7255,
      "Ġimprovements": 7256,
      "æĿ¥æºĲ": 7257,
      "æĿ¥çļĦäº": 7258,
      "Ġvector": 7259,
      "éĢļå¸¸å·²": 7260,
      "éĢļå¸¸ä¼ļæĺİ": 7261,
      "éĢļå¸¸ä¼ļæĶ¹åıĺ": 7262,
      "å¦Ĥæŀľæ£ĢæŁ¥çĤ¹": 7263,
      "å¦Ĥæŀľè¯ŃæĸĻ": 7264,
      "å¦ĤæŀľéªĮè¯ģéĽĨ": 7265,
      "å¦ĤæŀľæĬĬ": 7266,
      "æĦıä¹ī": 7267,
      "Ġimmediate": 7268,
      "!âĢĶ_": 7269,
      "ORAN": 7270,
      "Position": 7271,
      "Really": 7272,
      "Repeat": 7273,
      "Reeling": 7274,
      "See": 7275,
      "Seals": 7276,
      "Seaography": 7277,
      "Somebody": 7278,
      "_.âĢĶ": 7279,
      "codile": 7280,
      "country": 7281,
      "disappeared": 7282,
      "dispute": 7283,
      "disappointment": 7284,
      "flame": 7285,
      "flavour": 7286,
      "flamingoes": 7287,
      "faces": 7288,
      "flower": 7289,
      "flowers": 7290,
      "glad": 7291,
      "presents": 7292,
      "precious": 7293,
      "passed": 7294,
      "passion": 7295,
      "passage": 7296,
      "spite": 7297,
      "spirited": 7298,
      "tispiece": 7299,
      "yesterday": 7300,
      "å±Ĥ": 7301,
      "å¹ħä¸ĭ": 7302,
      "åĴĮéĩįè½½": 7303,
      "æĪĸæ£ĢæŁ¥": 7304,
      "éĻį": 7305,
      "éĻħä»·åĢ¼": 7306,
      "ĠUgh": 7307,
      "ĠUglification": 7308,
      "ĠUseful": 7309,
      "ĠXI": 7310,
      "ĠXII": 7311,
      "Ġidiotic": 7312,
      "Ġimplement": 7313,
      "ĠåĪĨè¯įåĻ¨è¯´æĺİ": 7314,
      "ĠåĪĨè¯įåĻ¨ç¬Ķ": 7315,
      "ĠåĪĨè¯įåĻ¨ä¼ļä»İ": 7316,
      "Ķ¨çļĦåŃ": 7317,
      "Ġtougher": 7318,
      "Ġterrier": 7319,
      "Ġterribly": 7320,
      "Ġterminal": 7321,
      "Ġtumbled": 7322,
      "Ġagony": 7323,
      "Ġapproved": 7324,
      "Ġaligned": 7325,
      "Ġserves": 7326,
      "Ġseries": 7327,
      "Ġseriously": 7328,
      "Ġslippery": 7329,
      "Ġsimplicity": 7330,
      "Ġwaters": 7331,
      "Ġcreep": 7332,
      "Ġcreate": 7333,
      "Ġcrept": 7334,
      "Ġcustard": 7335,
      "Ġblows": 7336,
      "Ġbanks": 7337,
      "Ġoccasionally": 7338,
      "Ġmuscular": 7339,
      "Ġmistakes": 7340,
      "Ġmagnitude": 7341,
      "Ġledge": 7342,
      "Ġlimits": 7343,
      "Ġlimbs": 7344,
      "Ġlimitations": 7345,
      "Ġlaugh": 7346,
      "Ġlaughed": 7347,
      "Ġlaughing": 7348,
      "Ġdrive": 7349,
      "Ġdriest": 7350,
      "Ġdripping": 7351,
      "Ġflying": 7352,
      "Ġfamily": 7353,
      "Ġfighting": 7354,
      "Ġfairy": 7355,
      "Ġfairly": 7356,
      "Ġhabits": 7357,
      "Ġhighest": 7358,
      "Ġhoped": 7359,
      "asional": 7360,
      "Ġpatted": 7361,
      "Ġpatience": 7362,
      "Ġpatriotic": 7363,
      "Ġpunished": 7364,
      "Ġpunching": 7365,
      "Ġnibbled": 7366,
      "Ġinvited": 7367,
      "Ġincreasing": 7368,
      "Ġindignant": 7369,
      "ĠâĢľâĢĺ_": 7370,
      "ĠâĢľâĢĺâĢĶ": 7371,
      "Ġbeheading": 7372,
      "roots": 7373,
      "children": 7374,
      "childhood": 7375,
      "Ġregular": 7376,
      "Ġrelieved": 7377,
      "Ġundo": 7378,
      "Ġundoing": 7379,
      "Ġunderexpo": 7380,
      "Ġunexpect": 7381,
      "Ġraising": 7382,
      "Ġringlets": 7383,
      "Ġridge": 7384,
      "Ġridges": 7385,
      "Ġridiculous": 7386,
      "Ġisolate": 7387,
      "Ġisolates": 7388,
      "Ġisolated": 7389,
      "Ġkills": 7390,
      "Ġkilling": 7391,
      "Ġmeasured": 7392,
      "Ġmeeting": 7393,
      "Ġconstraints": 7394,
      "Ġquarrel": 7395,
      "amentally": 7396,
      "Ġdefining": 7397,
      "Ġdefensive": 7398,
      "Ġdefenses": 7399,
      "Ġdeclared": 7400,
      "Ġtruthful": 7401,
      "ĠConceptual": 7402,
      "Ġabsence": 7403,
      "pleased": 7404,
      "Ġprompt": 7405,
      "Ġpromised": 7406,
      "Ġpromising": 7407,
      "Ġproblems": 7408,
      "railway": 7409,
      "ä¸ªæķ°åŃ": 7410,
      "ä¸ºè§ĦèĮ": 7411,
      "ä¸Ĭåĩº": 7412,
      "ä¸ĬçļĦæĶ": 7413,
      "ä¸Ĭæĺ¯è¿ŀéĢļ": 7414,
      "ä¸ĭä¸Ģä¸ªéĺ¶æ®µ": 7415,
      "ä¸ĭæĿ¥çļĦäº": 7416,
      "ä¸įè¶³": 7417,
      "ä¸įåıª": 7418,
      "Ġcontrol": 7419,
      "Ġtelescop": 7420,
      "answered": 7421,
      "ĠLatin": 7422,
      "Ġencourage": 7423,
      "Ġencouraged": 7424,
      "Ġencouraging": 7425,
      "Ġreproducibility": 7426,
      "shoulders": 7427,
      "ĠExample": 7428,
      "ĠExperiment": 7429,
      "ĠExactly": 7430,
      "Ġprefers": 7431,
      "Ġprefix": 7432,
      "Ġpreferred": 7433,
      "çļĦç¦»": 7434,
      "çļĦçĬ¶æĢģ": 7435,
      "çļĦä¸Ģå±Ĥ": 7436,
      "sooner": 7437,
      "è®©æįŁå¤±": 7438,
      "è®©æ¨¡åŀĭä»¥æĽ": 7439,
      "Ġpassionate": 7440,
      "opening": 7441,
      "Ġmismatches": 7442,
      "Ġconfirms": 7443,
      "Ġtricks": 7444,
      "Ġtricky": 7445,
      "Ġtrickling": 7446,
      "æĸĩæľ¬è½¬æį¢": 7447,
      "ä¹ĭä¸Ģ": 7448,
      "ä¹ĭåĲİæģ": 7449,
      "è¡¨ç¤º": 7450,
      "åı¯ä»¥å½¼æŃ": 7451,
      "æ£ĢæŁ¥çĤ¹æīįåĢ¼": 7452,
      "è¾ĥå¤§": 7453,
      "è¾ĥé«ĺ": 7454,
      "è¾ĥå°ĳè§ģ": 7455,
      "Ġhoarsely": 7456,
      "å½ĵåīį": 7457,
      "appearance": 7458,
      "åºĶè¯¥è®©": 7459,
      "Ġsummary": 7460,
      "Ġsummarize": 7461,
      "Ġsummaries": 7462,
      "Ġprofiles": 7463,
      "Ġaccidentally": 7464,
      "åĩºåı¯å¤įç": 7465,
      "åĩºçļĦæķ°æį®æ": 7466,
      "åīįè¿Ľè¡Į": 7467,
      "æķ°æį®æµģæ°´çº¿ä¼ļæĬĬåİŁå§ĭ": 7468,
      "æķ°æį®æµģæ°´çº¿æľ¬èº«å°": 7469,
      "puzzled": 7470,
      "èĢĮä¸įåıª": 7471,
      "èĢĮè®©æįŁå¤±": 7472,
      "éħįç½®åºĶå½ĵ": 7473,
      "éħįç½®éĢļå¸¸ä¼ļæĶ¹åıĺ": 7474,
      "å¾ªçİ¯éĢļå¸¸å·²": 7475,
      "ä¿ĿåŃĺä¸ĭæĿ¥çļĦäº": 7476,
      "Advice": 7477,
      "Adventures": 7478,
      "Checkpoint": 7479,
      "Checkpointing": 7480,
      "Hardly": 7481,
      "Hardware": 7482,
      "Loss": 7483,
      "Lobster": 7484,
      "Lastly": 7485,
      "Maybe": 7486,
      "Overfitting": 7487,
      "Overfit": 7488,
      "Others": 7489,
      "Suppose": 7490,
      "Suddenly": 7491,
      "Training": 7492,
      "build": 7493,
      "burst": 7494,
      "bursting": 7495,
      "crust": 7496,
      "crumbs": 7497,
      "curious": 7498,
      "curtse": 7499,
      "certainly": 7500,
      "dipped": 7501,
      "dataclass": 7502,
      "dreamy": 7503,
      "falling": 7504,
      "join": 7505,
      "jumping": 7506,
      "jumped": 7507,
      "master": 7508,
      "occasionally": 7509,
      "occasional": 7510,
      "proves": 7511,
      "procession": 7512,
      "person": 7513,
      "picking": 7514,
      "picked": 7515,
      "snorting": 7516,
      "snappishly": 7517,
      "surprise": 7518,
      "surprised": 7519,
      "speaker": 7520,
      "trot": 7521,
      "trouble": 7522,
      "taste": 7523,
      "tasted": 7524,
      "tales": 7525,
      "violent": 7526,
      "violently": 7527,
      "wanted": 7528,
      "¤äºĴ": 7529,
      "¤äº¤äºĴ": 7530,
      "¯Ķè¾ĥå¤§": 7531,
      "çľĭåĪ°": 7532,
      "çĶ¨äºİæİ§åĪ": 7533,
      "è·¯å¾": 7534,
      "è·µéĩ": 7535,
      "è¢«æŃ£ç¡": 7536,
      "éļ¾ä»¥": 7537,
      "éļľçļĦä¸Ģ": 7538,
      "éĥ½èĥ½æŃ£": 7539,
      "éĥ½åºĶè¯¥è®©": 7540,
      "é«ĺé¢ĳ": 7541,
      "ĠJack": 7542,
      "ĠJSONL": 7543,
      "Ġidentical": 7544,
      "Ġidentifier": 7545,
      "Ġå®ŀéĻħä»·åĢ¼": 7546,
      "Ġå®ŀè·µéĩ": 7547,
      "īĩæ®µå¤ĦçĲĨ": 7548,
      "ĮçļĦæī§è¡Į": 7549,
      "ĮçļĦå¾ªçİ¯éĢļå¸¸å·²": 7550,
      "Ġaxis": 7551,
      "Ġaxes": 7552,
      "Ġauthority": 7553,
      "Ġautoregress": 7554,
      "Ġskurried": 7555,
      "Ġskirt": 7556,
      "Ġsource": 7557,
      "Ġsixpence": 7558,
      "Ġwags": 7559,
      "reshments": 7560,
      "Ġcircle": 7561,
      "Ġcircumstance": 7562,
      "Ġcartwheels": 7563,
      "Ġcouples": 7564,
      "Ġbarking": 7565,
      "Ġbarley": 7566,
      "Ġboundary": 7567,
      "Ġoperate": 7568,
      "Ġoperations": 7569,
      "Ġmineral": 7570,
      "Ġmerrily": 7571,
      "Ġmerged": 7572,
      "Ġlazy": 7573,
      "Ġlazily": 7574,
      "Ġlanguid": 7575,
      "Ġlanguage": 7576,
      "Ġdaisy": 7577,
      "Ġdaisies": 7578,
      "ordering": 7579,
      "Ġfifth": 7580,
      "Ġfifteen": 7581,
      "Ġfavoured": 7582,
      "Ġfavourite": 7583,
      "Ġfrighten": 7584,
      "Ġfront": 7585,
      "Ġfrontispiece": 7586,
      "Ġfaintly": 7587,
      "Ġhatters": 7588,
      "arrum": 7589,
      "arranged": 7590,
      "Ġpulling": 7591,
      "Ġpulled": 7592,
      "Ġpicking": 7593,
      "Ġpicked": 7594,
      "Ġpencils": 7595,
      "Ġinkstand": 7596,
      "Ġinteger": 7597,
      "Ġintegrity": 7598,
      "Ġsafely": 7599,
      "Ġsaucepan": 7600,
      "Ġsaucepans": 7601,
      "addressed": 7602,
      "addressing": 7603,
      "Ġelegant": 7604,
      "Ġeleventh": 7605,
      "ĠAllow": 7606,
      "ĠImportant": 7607,
      "ĠImprove": 7608,
      "startled": 7609,
      "Ġrefused": 7610,
      "Ġrefreshments": 7611,
      "Ġreliable": 7612,
      "Ġreliability": 7613,
      "Ġrustling": 7614,
      "Ġrustled": 7615,
      "Ġsolid": 7616,
      "Ġsolve": 7617,
      "Ġsoftly": 7618,
      "Ġstarting": 7619,
      "Ġattempts": 7620,
      "Ġshilling": 7621,
      "Ġshillings": 7622,
      "Ġannoy": 7623,
      "Ġannoyed": 7624,
      "Ġallocate": 7625,
      "Ġallocated": 7626,
      "Ġviews": 7627,
      "ĠMultiplic": 7628,
      "Ġconverted": 7629,
      "Ġconvergence": 7630,
      "ĠTesting": 7631,
      "Ġbuttercup": 7632,
      "Ġbutterfly": 7633,
      "Ġtransient": 7634,
      "Ġtranspose": 7635,
      "Ġcharges": 7636,
      "Ġcharacter": 7637,
      "Ġleakage": 7638,
      "Ġproducing": 7639,
      "Ġproduced": 7640,
      "ĠGoal": 7641,
      "Ġpointed": 7642,
      "Ġfeathers": 7643,
      "ĠReview": 7644,
      "ĠReLU": 7645,
      "ĠRelated": 7646,
      "ĠReload": 7647,
      "Ġmodern": 7648,
      "Ġmoderate": 7649,
      "Ġarchbishop": 7650,
      "Ġarchitecture": 7651,
      "ĠFender": 7652,
      "ĠFeedforward": 7653,
      "ĠLearning": 7654,
      "ĠLearned": 7655,
      "è¯»åıĸ": 7656,
      "è¯»è®Ńç»ĥæįŁå¤±": 7657,
      "Ġsymbolic": 7658,
      "Ġsymbols": 7659,
      "Ġcompletes": 7660,
      "Ġcompletely": 7661,
      "Ġcomfortably": 7662,
      "hedgehog": 7663,
      "hedgehogs": 7664,
      "Ġscripts": 7665,
      "upsetting": 7666,
      "Ġpretending": 7667,
      "Ġpreserve": 7668,
      "Ġpreserves": 7669,
      "æĸ°åĬłè½½": 7670,
      "ĠWeight": 7671,
      "Ġdataclasses": 7672,
      "Ġflapper": 7673,
      "Ġflappers": 7674,
      "accident": 7675,
      "accustom": 7676,
      "å¤įæī§è¡Į": 7677,
      "ä»İèĢĮè®©æįŁå¤±": 7678,
      "åĪĩåĪĨçļĦè®Ńç»ĥ": 7679,
      "åĪĩåĪĨçļĦä¸Ģå±Ĥ": 7680,
      "åıªæľīä¿ĿåŃĺ": 7681,
      "Ġswallowing": 7682,
      "conversation": 7683,
      "conversations": 7684,
      "ĠOverfitting": 7685,
      "ĠOverfit": 7686,
      "Ġinteraction": 7687,
      "Ġ{})": 7688,
      "Heads": 7689,
      "Ġconsistent": 7690,
      "Ġconsistency": 7691,
      "è®Ńç»ĥå¾ªçİ¯ä¼ļéĩį": 7692,
      "è¿ĩåº¦è§£": 7693,
      "Ġæ³¨æĦıåĬĽæİ©çłģ": 7694,
      "Ġdesperate": 7695,
      "Ġdesperately": 7696,
      "Ġfurrows": 7697,
      "ç»ĵè®ºä¼ļåıĺ": 7698,
      "å¾Īå°ı": 7699,
      "å¾Īéĩįè¦ģ": 7700,
      "å¾Ĺä¿¡ä»»": 7701,
      "å¾Ĺéļ¾ä»¥": 7702,
      "åı¯èĥ½ä¼ļæĤĦ": 7703,
      "è¾ĵåħ¥": 7704,
      "è¾ĵåĩºåı¯å¤įç": 7705,
      "è¾¹çķĮçº¦æĿ": 7706,
      "Ġdatasets": 7707,
      "letters": 7708,
      "Ġcompares": 7709,
      "æľ¬åľ°éªĮè¯ģçĽ®æłĩ": 7710,
      "Ġcheaply": 7711,
      "Ġextras": 7712,
      "Ġextrapol": 7713,
      "å®ŀéªĮç»ĵè®ºä¼ļåıĺ": 7714,
      "ä½įç½®çľĭåĪ°": 7715,
      "åĬĽæİ©çłģçĶ¨äºİæİ§åĪ": 7716,
      "Ġassigns": 7717,
      "Ġassumption": 7718,
      "Ġassumptions": 7719,
      "è§Ħæ¨¡ç¡¬ä»¶": 7720,
      "è§Ħæ¨¡å¤ªå°ı": 7721,
      "Ġsqueeze": 7722,
      "Ġsqueezed": 7723,
      "å·²åĪĩåĪĨçļĦè®Ńç»ĥ": 7724,
      "æĹ¶éĹ": 7725,
      "çķĻåĩºçļĦæķ°æį®æ": 7726,
      "Ġemphasis": 7727,
      "Ġemphasize": 7728,
      "Ġvariations": 7729,
      "Ġvariants": 7730,
      "å¯¹äºİ": 7731,
      "å¹¶ä¿ĿæĮģ": 7732,
      "å¹¶å·²åĪĩåĪĨçļĦè®Ńç»ĥ": 7733,
      "åĽłæŃ¤è¶": 7734,
      "åĽłæŀľæİ©çłģ": 7735,
      "æĪĲæ¨¡åŀĭåı¯ä»¥": 7736,
      "éĿ¢åĲĳ": 7737,
      "Ġalignment": 7738,
      "Ġfamiliar": 7739,
      "Ġfamiliarly": 7740,
      "Ġuneasy": 7741,
      "Ġuneasily": 7742,
      "ä¹Łèĥ½éĢļè¿ĩ": 7743,
      "è¿Ľè¡Įè¾¹çķĮçº¦æĿ": 7744,
      "åºĶå½ĵä¿ĿçķĻ": 7745,
      "è¶³å¤ŁçļĦçĬ¶æĢģ": 7746,
      "naturedly": 7747,
      "åįķä¸ªæķ°åŃ": 7748,
      "Ġä¸ºä»Ģä¹Īéĩįè¦ģ": 7749,
      "Ġä¸ºä»Ģä¹Īè¦ģåĮºåĪĨ": 7750,
      "Ġfragile": 7751,
      "Ġfragments": 7752,
      "Ġrequirement": 7753,
      "Ġneighbouring": 7754,
      "Ġcontemptuously": 7755,
      "å¤ĦçĲĨçļĦç¦»": 7756,
      "ä¼ĺåĮĸåĻ¨çĬ¶æĢģ": 7757,
      "ä¼ĺåĮĸåĻ¨æĽ´æĸ°": 7758,
      "ä¸Ģèĩ´çļĦå½": 7759,
      "ä¸Ģä¸ªéĺ¶æ®µéĥ½åºĶè¯¥è®©": 7760,
      "ä¿ĿæĮģä¸Ģèĩ´": 7761,
      "ç¡¬ä»¶éħįç½®åºĶå½ĵ": 7762,
      "è½¬æį¢ä¸ºè§ĦèĮ": 7763,
      "éĶĻè¯¯çļĦæİ©çłģ": 7764,
      "ADE": 7765,
      "Alas": 7766,
      "Ambition": 7767,
      "Ahem": 7768,
      "BIT": 7769,
      "Brandy": 7770,
      "Better": 7771,
      "Change": 7772,
      "Caterpillar": 7773,
      "Curiouser": 7774,
      "Coming": 7775,
      "Collar": 7776,
      "Certainly": 7777,
      "Chorus": 7778,
      "Christmas": 7779,
      "Drive": 7780,
      "Distraction": 7781,
      "FUL": 7782,
      "False": 7783,
      "Fifteenth": 7784,
      "Forty": 7785,
      "Fourteenth": 7786,
      "Geography": 7787,
      "Ground": 7788,
      "Hjckrrh": 7789,
      "Hadn": 7790,
      "Herald": 7791,
      "Important": 7792,
      "Idiot": 7793,
      "Leave": 7794,
      "Larger": 7795,
      "Laughing": 7796,
      "Learned": 7797,
      "Masking": 7798,
      "Mixing": 7799,
      "MALADE": 7800,
      "Nearly": 7801,
      "OÃ¹": 7802,
      "Rule": 7803,
      "Sixteenth": 7804,
      "Swim": 7805,
      "Sentence": 7806,
      "Stolen": 7807,
      "Trims": 7808,
      "Treacle": 7809,
      "Twenty": 7810,
      "Waiting": 7811,
      "Write": 7812,
      "blame": 7813,
      "based": 7814,
      "bottle": 7815,
      "birthday": 7816,
      "bells": 7817,
      "bringing": 7818,
      "cries": 7819,
      "close": 7820,
      "carefully": 7821,
      "consultation": 7822,
      "crossed": 7823,
      "crowded": 7824,
      "cuda": 7825,
      "datetime": 7826,
      "dropped": 7827,
      "distance": 7828,
      "dreadful": 7829,
      "dumps": 7830,
      "diamonds": 7831,
      "eaten": 7832,
      "evidently": 7833,
      "eagerly": 7834,
      "further": 7835,
      "fellow": 7836,
      "figures": 7837,
      "focused": 7838,
      "gallons": 7839,
      "girls": 7840,
      "goldfish": 7841,
      "gardeners": 7842,
      "hastily": 7843,
      "ipathies": 7844,
      "knocking": 7845,
      "knew": 7846,
      "ladder": 7847,
      "linked": 7848,
      "laughed": 7849,
      "muddle": 7850,
      "moral": 7851,
      "missing": 7852,
      "murder": 7853,
      "mistake": 7854,
      "nibbled": 7855,
      "pitied": 7856,
      "pictures": 7857,
      "practice": 7858,
      "presented": 7859,
      "rabbits": 7860,
      "rumbling": 7861,
      "slipped": 7862,
      "sadly": 7863,
      "speaking": 7864,
      "somersault": 7865,
      "sized": 7866,
      "silent": 7867,
      "simply": 7868,
      "savage": 7869,
      "sighing": 7870,
      "summarize": 7871,
      "smoking": 7872,
      "sweet": 7873,
      "sorrowful": 7874,
      "skimming": 7875,
      "tittered": 7876,
      "trembling": 7877,
      "trial": 7878,
      "uglifying": 7879,
      "wandered": 7880,
      "¡éªĮå®ĮæĪĲ": 7881,
      "¢å¼ı": 7882,
      "¢å¤įæĪĸæ£ĢæŁ¥": 7883,
      "£ä¹Īä¿ĿåŃĺä¸ĭæĿ¥çļĦäº": 7884,
      "¥åº·ä¿¡": 7885,
      "¦ä¹łåı¯å¤įç": 7886,
      "¦ä¹Łèĥ½åľ¨æľª": 7887,
      "§çī©ä»·åĢ¼": 7888,
      "¨ä¼ļæ¯Ķè¾ĥå¤§": 7889,
      "ªåĽŀå½": 7890,
      "¬æ¨¡åŀĭæĿĥéĩį": 7891,
      "®éĩįæĸ°åĬłè½½": 7892,
      "±æĺ¯æ¨¡åŀĭè´¨éĩ": 7893,
      "±åĲĮçĤ¹": 7894,
      "²æŃ¢è¿ĩåº¦è§£": 7895,
      "²æľªæĿ¥ä¿¡æģ¯": 7896,
      "¶åĵªäº": 7897,
      "¹è¿Ľæĺ¯åĲ": 7898,
      "ºç¡ĢçļĦ": 7899,
      "»æŃ¢å½ĵåīį": 7900,
      "¾åĴĮçĽ®æłĩåĩ½æķ°": 7901,
      "¿åħįç§ģ": 7902,
      "¿éĢļå¸¸æ¯Ķ": 7903,
      "¿çĶ¨çķĻåĩºçļĦæķ°æį®æ": 7904,
      "åģ¥åº·ä¿¡": 7905,
      "åĨħå®¹": 7906,
      "æıĲæĺ¯": 7907,
      "æł¡éªĮå®ĮæĪĲ": 7908,
      "æłĩçŃ": 7909,
      "æµģæ°´çº¿åºĶå½ĵä¿ĿçķĻ": 7910,
      "æĤĦæ³Ħéľ": 7911,
      "æ¯ıä¸Ģä¸ªéĺ¶æ®µéĥ½åºĶè¯¥è®©": 7912,
      "çŁŃèĢĮ": 7913,
      "ç§įæ£ĢæŁ¥": 7914,
      "ç¨ĭè·¯å¾": 7915,
      "éģ¿åħįç§ģ": 7916,
      "éĤ£ä¹Īä¿ĿåŃĺä¸ĭæĿ¥çļĦäº": 7917,
      "éĥ¨åĪĨ": 7918,
      "Ġirritated": 7919,
      "Ġideas": 7920,
      "ĠçļĦéħįç½®éĢļå¸¸ä¼ļæĶ¹åıĺ": 7921,
      "Ġignorant": 7922,
      "Ġæĺ¯æľĢåŁ": 7923,
      "ĠéªĮè¯ģè¯´æĺİ": 7924,
      "Ġåħ±åĲĮçĤ¹": 7925,
      "Ġä¹Łå¾Īéĩįè¦ģ": 7926,
      "ĠæįŁå¤±éªĮè¯ģ": 7927,
      "Ġæķ°æį®æµģæ°´çº¿è¯´æĺİ": 7928,
      "Ġéħįç½®è¯´æĺİ": 7929,
      "ĠçľŁæŃ£": 7930,
      "Ġä½įç½®åı¯ä»¥å½¼æŃ": 7931,
      "Ġå±ŀäºİä¸įåĲ": 7932,
      "ĠZealand": 7933,
      "Ġzigzag": 7934,
      "ģĩè®¾": 7935,
      "ĤçļĦåĪĨè¯įåĻ¨åı¯ä»¥": 7936,
      "ĦæŃ£ç¡®æĢ§è¦": 7937,
      "ĭåĬ¿éĢļå¸¸æ¯Ķ": 7938,
      "ıä¿ĿéļľçļĦä¸Ģ": 7939,
      "Ĳè¯įçīĩæ®µ": 7940,
      "Ĵè®Ńç»ĥä¸Ń": 7941,
      "ĸéĿ¢ä¸įè¶³": 7942,
      "ĹæĽ´éĩįè¦ģ": 7943,
      "ŁçļĦä¸Ģç§įæ£ĢæŁ¥": 7944,
      "ŁåĪ°çļĦè¯įè¡¨": 7945,
      "łçļĦæķ°æį®æµģæ°´çº¿æľ¬èº«å°": 7946,
      "ł·æľ¬ä¸Ĭåĩº": 7947,
      "Ġtidy": 7948,
      "Ġturkey": 7949,
      "Ġtunnel": 7950,
      "Ġtureen": 7951,
      "Ġterror": 7952,
      "Ġtulip": 7953,
      "helpless": 7954,
      "Ġambiguity": 7955,
      "Ġaggressiven": 7956,
      "Ġadoption": 7957,
      "Ġaudibly": 7958,
      "Ġadjourn": 7959,
      "Ġsorry": 7960,
      "Ġsurface": 7961,
      "Ġsplendidly": 7962,
      "Ġschedules": 7963,
      "Ġsessions": 7964,
      "Ġslicing": 7965,
      "inquisitive": 7966,
      "Ġwalrus": 7967,
      "Ġwriggling": 7968,
      "Ġwelcome": 7969,
      "Ġwept": 7970,
      "Ġwrapping": 7971,
      "Ġwondered": 7972,
      "Ġwarmup": 7973,
      "remained": 7974,
      "record": 7975,
      "remedies": 7976,
      "Ġcoward": 7977,
      "Ġcalmly": 7978,
      "Ġcentre": 7979,
      "Ġcrocodile": 7980,
      "Ġcardboard": 7981,
      "Ġcherry": 7982,
      "Ġcamomile": 7983,
      "Ġcackled": 7984,
      "Ġcrazy": 7985,
      "Ġcushion": 7986,
      "Ġcrawled": 7987,
      "Ġcampaign": 7988,
      "Ġbanquet": 7989,
      "Ġbowing": 7990,
      "Ġbathing": 7991,
      "Ġbarely": 7992,
      "Ġbreeze": 7993,
      "Ġboldly": 7994,
      "Ġbuffers": 7995,
      "Ġbounce": 7996,
      "Ġobstacle": 7997,
      "Ġoscillate": 7998,
      "Ġoyster": 7999,
      "Ġmallets": 8000,
      "Ġmilk": 8001,
      "Ġmachines": 8002,
      "Ġmajor": 8003,
      "Ġmultiple": 8004,
      "Ġtoffee": 8005,
      "Ġlabelled": 8006,
      "Ġlifted": 8007,
      "Ġlullaby": 8008,
      "Ġlamps": 8009,
      "Ġdelay": 8010,
      "Ġdunce": 8011,
      "Ġdraggled": 8012,
      "Ġduplicates": 8013,
      "Ġdrowned": 8014,
      "Ġdainties": 8015,
      "Ġdrift": 8016,
      "Ġfishes": 8017,
      "Ġfading": 8018,
      "Ġfills": 8019,
      "Ġfumbled": 8020,
      "Ġfolding": 8021,
      "Ġfoolish": 8022,
      "Ġfountains": 8023,
      "Ġfundamentally": 8024,
      "Ġfrequent": 8025,
      "Ġfidgeted": 8026,
      "Ġhumble": 8027,
      "Ġhouses": 8028,
      "Ġhumbly": 8029,
      "Ġhollow": 8030,
      "Ġholiday": 8031,
      "Ġhippopotam": 8032,
      "Ġhundred": 8033,
      "arrived": 8034,
      "Ġthirteen": 8035,
      "ascii": 8036,
      "animals": 8037,
      "Ġhealth": 8038,
      "Ġheavily": 8039,
      "Ġpowdered": 8040,
      "Ġprivate": 8041,
      "Ġpiteous": 8042,
      "Ġpanted": 8043,
      "Ġpaused": 8044,
      "Ġprize": 8045,
      "Ġparallel": 8046,
      "Ġnetwork": 8047,
      "Ġnumerically": 8048,
      "Ġnominal": 8049,
      "Ġnasty": 8050,
      "Ġnumbers": 8051,
      "Ġinquired": 8052,
      "Ġincorrect": 8053,
      "Ġincessantly": 8054,
      "Ġinvented": 8055,
      "Ġinsolence": 8056,
      "Ġsaucer": 8057,
      "Ġgained": 8058,
      "Ġgazing": 8059,
      "Ġshedding": 8060,
      "Ġshepherd": 8061,
      "Ġbeloved": 8062,
      "Ġechoing": 8063,
      "Ġequally": 8064,
      "Ġevaluation": 8065,
      "ĠAtheling": 8066,
      "ĠAustralia": 8067,
      "ĠAntipathies": 8068,
      "ĠAdventures": 8069,
      "ĠArithmetic": 8070,
      "alternately": 8071,
      "ĠIntuition": 8072,
      "rocket": 8073,
      "chimneys": 8074,
      "Ġreusable": 8075,
      "Ġreacts": 8076,
      "Ġuglify": 8077,
      "Ġrushed": 8078,
      "Ġricher": 8079,
      "Ġrapped": 8080,
      "Ġrailway": 8081,
      "Ġrippling": 8082,
      "Ġstockings": 8083,
      "Ġstupidly": 8084,
      "Ġsteady": 8085,
      "Ġstrength": 8086,
      "Ġissues": 8087,
      "Ġattempted": 8088,
      "Ġfortunately": 8089,
      "thunderstorm": 8090,
      "Ġvulgar": 8091,
      "Ġvinegar": 8092,
      "Ġvague": 8093,
      "Ġdominating": 8094,
      "Ġexamining": 8095,
      "ĠMagpie": 8096,
      "ĠModeling": 8097,
      "ĠMystery": 8098,
      "ĠMARMALADE": 8099,
      "Ġsufficient": 8100,
      "Ġsupervision": 8101,
      "Ġsuggests": 8102,
      "Ġsubstitute": 8103,
      "Ġmeekly": 8104,
      "Ġcondemn": 8105,
      "Ġconvenience": 8106,
      "Ġconduct": 8107,
      "Ġconceptually": 8108,
      "uncomfortably": 8109,
      "ĠSplit": 8110,
      "ĠSends": 8111,
      "ĠSystem": 8112,
      "ĠSOUP": 8113,
      "ĠSuppress": 8114,
      "ĠThose": 8115,
      "Ġqueerest": 8116,
      "Ġjelly": 8117,
      "Ġjourney": 8118,
      "Ġjudging": 8119,
      "Ġknuckles": 8120,
      "ĠDecoder": 8121,
      "Ġdebug": 8122,
      "Ġtracked": 8123,
      "Ġtransforms": 8124,
      "Ġtrampled": 8125,
      "ĠCapacity": 8126,
      "ĠCaution": 8127,
      "ĠCausal": 8128,
      "ĠCanterbury": 8129,
      "ĠClassics": 8130,
      "ĠCoils": 8131,
      "Ġchuckled": 8132,
      "Ġchrysalis": 8133,
      "reduced": 8134,
      "lobsters": 8135,
      "Ġnodded": 8136,
      "Ġnovelty": 8137,
      "Ġhistories": 8138,
      "ĠHEARTS": 8139,
      "ĠQUEEN": 8140,
      "Ġsmoother": 8141,
      "Ġprovenance": 8142,
      "Ġprovides": 8143,
      "Ġprocedure": 8144,
      "Ġprovoking": 8145,
      "Ġgraceful": 8146,
      "Ġgrazed": 8147,
      "ĠKING": 8148,
      "ĠGrammar": 8149,
      "Ġpositively": 8150,
      "telescope": 8151,
      "teacups": 8152,
      "Ġafford": 8153,
      "ĠRABBIT": 8154,
      "ĠProjection": 8155,
      "ĠPrediction": 8156,
      "Ġtweaks": 8157,
      "Ġtwentieth": 8158,
      "ä¸Ķç¨³å®ļçļĦ": 8159,
      "Ġcontrolling": 8160,
      "Ġcontradicted": 8161,
      "Ġarbitrarily": 8162,
      "ĠBecause": 8163,
      "Ġhandwriting": 8164,
      "Ġcurtsey": 8165,
      "Ġexplicit": 8166,
      "beheaded": 8167,
      "ĠLanguage": 8168,
      "Ġenjoy": 8169,
      "Ġenergetic": 8170,
      "Ġplumbing": 8171,
      "Ġplaced": 8172,
      "Ġplausible": 8173,
      "Ġsymptoms": 8174,
      "Ġimpertinent": 8175,
      "shuffle": 8176,
      "Ġcomplained": 8177,
      "Ġcommotion": 8178,
      "Ġyields": 8179,
      "ĠEduCode": 8180,
      "ĠEngland": 8181,
      "Ġscrambling": 8182,
      "Ġbottleneck": 8183,
      "forgotten": 8184,
      "Ġspecifically": 8185,
      "Ġuncorked": 8186,
      "Ġuncivil": 8187,
      "Ġuncommonly": 8188,
      "çļĦå°ıåŀĭ": 8189,
      "çļĦéĩįè¦ģæĸ¹æ³ķ": 8190,
      "æĺ¾å°ıäºİçĽ®æłĩ": 8191
    },
    "merges": [
      [
        "Ġ",
        "t"
      ],
      [
        "h",
        "e"
      ],
      [
        "â",
        "Ģ"
      ],
      [
        "Ġ",
        "a"
      ],
      [
        "Ġ",
        "s"
      ],
      [
        "i",
        "n"
      ],
      [
        "Ġt",
        "he"
      ],
      [
        "Ġ",
        "w"
      ],
      [
        "o",
        "u"
      ],
      [
        "o",
        "n"
      ],
      [
        "i",
        "t"
      ],
      [
        "r",
        "e"
      ],
      [
        "a",
        "t"
      ],
      [
        "n",
        "d"
      ],
      [
        "e",
        "r"
      ],
      [
        "in",
        "g"
      ],
      [
        "âĢ",
        "ľ"
      ],
      [
        "âĢ",
        "Ŀ"
      ],
      [
        "Ġ",
        "c"
      ],
      [
        "Ġ",
        "b"
      ],
      [
        "e",
        "d"
      ],
      [
        "e",
        "n"
      ],
      [
        "Ġ",
        "o"
      ],
      [
        "Ġ",
        "m"
      ],
      [
        "Ġt",
        "o"
      ],
      [
        "Ġ",
        "l"
      ],
      [
        "Ġ",
        "Ġ"
      ],
      [
        "l",
        "l"
      ],
      [
        "i",
        "d"
      ],
      [
        "Ġ",
        "d"
      ],
      [
        "o",
        "r"
      ],
      [
        "Ġ",
        "f"
      ],
      [
        "i",
        "s"
      ],
      [
        "Ġa",
        "nd"
      ],
      [
        "Ġ",
        "h"
      ],
      [
        "c",
        "e"
      ],
      [
        "a",
        "r"
      ],
      [
        "Ġt",
        "h"
      ],
      [
        "âĢ",
        "Ļ"
      ],
      [
        "l",
        "e"
      ],
      [
        "a",
        "s"
      ],
      [
        "a",
        "n"
      ],
      [
        "Ġ",
        "he"
      ],
      [
        "Ġo",
        "f"
      ],
      [
        "Ġ",
        "p"
      ],
      [
        "o",
        "w"
      ],
      [
        "Ġ",
        "it"
      ],
      [
        "Ġ",
        "n"
      ],
      [
        "e",
        "s"
      ],
      [
        "Ġ",
        "in"
      ],
      [
        "Ġs",
        "a"
      ],
      [
        "Ġ",
        "g"
      ],
      [
        "l",
        "i"
      ],
      [
        "Ġ",
        "âĢľ"
      ],
      [
        "Ġs",
        "he"
      ],
      [
        "a",
        "d"
      ],
      [
        "o",
        "t"
      ],
      [
        "Ġb",
        "e"
      ],
      [
        "s",
        "e"
      ],
      [
        "l",
        "y"
      ],
      [
        "y",
        "ou"
      ],
      [
        "Ġ",
        "e"
      ],
      [
        "Ġsa",
        "id"
      ],
      [
        "u",
        "t"
      ],
      [
        "Ġ",
        "A"
      ],
      [
        "m",
        "e"
      ],
      [
        "v",
        "er"
      ],
      [
        "i",
        "on"
      ],
      [
        "Ġ",
        "you"
      ],
      [
        "Ġ",
        "on"
      ],
      [
        "li",
        "ce"
      ],
      [
        ",",
        "âĢĿ"
      ],
      [
        "a",
        "l"
      ],
      [
        "Ġ",
        "I"
      ],
      [
        "l",
        "d"
      ],
      [
        "Ġw",
        "as"
      ],
      [
        "s",
        "t"
      ],
      [
        "en",
        "t"
      ],
      [
        "r",
        "o"
      ],
      [
        "g",
        "h"
      ],
      [
        "Ġhe",
        "r"
      ],
      [
        "ĠA",
        "lice"
      ],
      [
        "u",
        "r"
      ],
      [
        "ou",
        "t"
      ],
      [
        "c",
        "h"
      ],
      [
        "Ġ",
        "re"
      ],
      [
        "e",
        "t"
      ],
      [
        "Ġ",
        "u"
      ],
      [
        "Ġa",
        "s"
      ],
      [
        "v",
        "e"
      ],
      [
        "!",
        "âĢĿ"
      ],
      [
        "o",
        "o"
      ],
      [
        "Ġth",
        "at"
      ],
      [
        "a",
        "in"
      ],
      [
        "âĢ",
        "Ķ"
      ],
      [
        "k",
        "e"
      ],
      [
        "Ġ",
        "r"
      ],
      [
        "Ġw",
        "h"
      ],
      [
        "i",
        "m"
      ],
      [
        "Ġs",
        "o"
      ],
      [
        "c",
        "k"
      ],
      [
        "gh",
        "t"
      ],
      [
        "c",
        "t"
      ],
      [
        "it",
        "h"
      ],
      [
        "ou",
        "ld"
      ],
      [
        "ĠĠ",
        "Ġ"
      ],
      [
        "t",
        "he"
      ],
      [
        "Ġs",
        "t"
      ],
      [
        "a",
        "y"
      ],
      [
        "s",
        "s"
      ],
      [
        "Ġ",
        "is"
      ],
      [
        "t",
        "le"
      ],
      [
        "Ġa",
        "t"
      ],
      [
        "Ġn",
        "ot"
      ],
      [
        "t",
        "er"
      ],
      [
        "Ġw",
        "ith"
      ],
      [
        "Ġf",
        "or"
      ],
      [
        "a",
        "nd"
      ],
      [
        "t",
        "h"
      ],
      [
        "a",
        "b"
      ],
      [
        "T",
        "he"
      ],
      [
        "a",
        "ll"
      ],
      [
        "i",
        "r"
      ],
      [
        "Ġs",
        "e"
      ],
      [
        "i",
        "f"
      ],
      [
        "Ġs",
        "h"
      ],
      [
        "Ġ",
        "_"
      ],
      [
        "ver",
        "y"
      ],
      [
        "Ġh",
        "ad"
      ],
      [
        "Ġa",
        "n"
      ],
      [
        "p",
        "e"
      ],
      [
        "r",
        "i"
      ],
      [
        "Ġa",
        "ll"
      ],
      [
        "Ġm",
        "o"
      ],
      [
        ".",
        "âĢĿ"
      ],
      [
        "at",
        "ion"
      ],
      [
        "q",
        "u"
      ],
      [
        "Ġ",
        "v"
      ],
      [
        "t",
        "o"
      ],
      [
        "Ġd",
        "o"
      ],
      [
        "i",
        "ll"
      ],
      [
        "oo",
        "k"
      ],
      [
        "W",
        "h"
      ],
      [
        "e",
        "re"
      ],
      [
        "g",
        "e"
      ],
      [
        "Ġe",
        "x"
      ],
      [
        "ar",
        "d"
      ],
      [
        "Ġ",
        "M"
      ],
      [
        "e",
        "l"
      ],
      [
        "Ġn",
        "e"
      ],
      [
        "?",
        "âĢĿ"
      ],
      [
        "ow",
        "n"
      ],
      [
        "Ġ",
        "k"
      ],
      [
        "Ġs",
        "u"
      ],
      [
        "Ġu",
        "p"
      ],
      [
        "u",
        "s"
      ],
      [
        "Ċ",
        "ĠĠĠ"
      ],
      [
        "Ġl",
        "o"
      ],
      [
        "r",
        "y"
      ],
      [
        "it",
        "tle"
      ],
      [
        "he",
        "r"
      ],
      [
        "Ġ",
        "out"
      ],
      [
        "se",
        "l"
      ],
      [
        "Ġm",
        "e"
      ],
      [
        "#",
        "#"
      ],
      [
        "u",
        "st"
      ],
      [
        "ou",
        "nd"
      ],
      [
        "it",
        "e"
      ],
      [
        "a",
        "ve"
      ],
      [
        "Ġ",
        "very"
      ],
      [
        "sel",
        "f"
      ],
      [
        "u",
        "l"
      ],
      [
        "Ġc",
        "on"
      ],
      [
        "u",
        "n"
      ],
      [
        "Ġ",
        "S"
      ],
      [
        "Ġ",
        "T"
      ],
      [
        "Ġ",
        "qu"
      ],
      [
        "a",
        "m"
      ],
      [
        "Ġl",
        "ittle"
      ],
      [
        "Ġth",
        "is"
      ],
      [
        "p",
        "p"
      ],
      [
        "Ġ",
        "j"
      ],
      [
        "Ġb",
        "ut"
      ],
      [
        "Ġthe",
        "y"
      ],
      [
        "Ġk",
        "n"
      ],
      [
        "on",
        "e"
      ],
      [
        "Ġd",
        "own"
      ],
      [
        "Ġc",
        "an"
      ],
      [
        "Ġl",
        "i"
      ],
      [
        "u",
        "e"
      ],
      [
        "Ġ",
        "D"
      ],
      [
        "Ġo",
        "r"
      ],
      [
        "Ġd",
        "e"
      ],
      [
        "Ġse",
        "e"
      ],
      [
        "i",
        "c"
      ],
      [
        "Ġt",
        "r"
      ],
      [
        "Ġ",
        "C"
      ],
      [
        "Ġw",
        "he"
      ],
      [
        "e",
        "p"
      ],
      [
        "e",
        "ll"
      ],
      [
        "ou",
        "ght"
      ],
      [
        "on",
        "g"
      ],
      [
        "Ġl",
        "ook"
      ],
      [
        "or",
        "t"
      ],
      [
        "i",
        "ght"
      ],
      [
        "u",
        "m"
      ],
      [
        "o",
        "m"
      ],
      [
        "i",
        "z"
      ],
      [
        "Ġa",
        "b"
      ],
      [
        "Ġon",
        "e"
      ],
      [
        "a",
        "me"
      ],
      [
        "in",
        "d"
      ],
      [
        "ou",
        "r"
      ],
      [
        "Ġc",
        "h"
      ],
      [
        "ĠĠ",
        "ĠĠĠ"
      ],
      [
        "p",
        "le"
      ],
      [
        "re",
        "d"
      ],
      [
        "es",
        "t"
      ],
      [
        "g",
        "ain"
      ],
      [
        "at",
        "e"
      ],
      [
        "i",
        "l"
      ],
      [
        "l",
        "o"
      ],
      [
        "Ġ",
        "if"
      ],
      [
        "i",
        "ce"
      ],
      [
        "c",
        "he"
      ],
      [
        "Ġthe",
        "m"
      ],
      [
        "Ġn",
        "o"
      ],
      [
        "Ġg",
        "o"
      ],
      [
        "Ġab",
        "out"
      ],
      [
        "Ġh",
        "is"
      ],
      [
        "Ġbe",
        "g"
      ],
      [
        "Ġli",
        "ke"
      ],
      [
        "x",
        "t"
      ],
      [
        "as",
        "t"
      ],
      [
        "Ġa",
        "gain"
      ],
      [
        "in",
        "k"
      ],
      [
        "a",
        "k"
      ],
      [
        "o",
        "me"
      ],
      [
        "t",
        "ing"
      ],
      [
        "Ġ",
        "H"
      ],
      [
        "Ġ",
        "Q"
      ],
      [
        "ou",
        "se"
      ],
      [
        "Ġs",
        "m"
      ],
      [
        "Ġw",
        "ould"
      ],
      [
        "Ġw",
        "ere"
      ],
      [
        "ue",
        "en"
      ],
      [
        "Ġc",
        "ould"
      ],
      [
        "Ġl",
        "e"
      ],
      [
        "is",
        "t"
      ],
      [
        "Ġkn",
        "ow"
      ],
      [
        "er",
        "s"
      ],
      [
        "Ġwh",
        "at"
      ],
      [
        "i",
        "g"
      ],
      [
        "Ġth",
        "ought"
      ],
      [
        "Ġp",
        "ro"
      ],
      [
        "Ġg",
        "r"
      ],
      [
        "Ġ",
        "K"
      ],
      [
        "Ġw",
        "ent"
      ],
      [
        "Ġin",
        "to"
      ],
      [
        "ĠQ",
        "ueen"
      ],
      [
        "e",
        "ct"
      ],
      [
        "k",
        "en"
      ],
      [
        "o",
        "ck"
      ],
      [
        "Ġwhe",
        "n"
      ],
      [
        "I",
        "t"
      ],
      [
        "u",
        "re"
      ],
      [
        "Ġof",
        "f"
      ],
      [
        "Ġher",
        "self"
      ],
      [
        "the",
        "r"
      ],
      [
        "Ġtr",
        "ain"
      ],
      [
        "i",
        "me"
      ],
      [
        "Ġso",
        "me"
      ],
      [
        "a",
        "ke"
      ],
      [
        "Ġ",
        "G"
      ],
      [
        "Ġ",
        "Wh"
      ],
      [
        "Ġw",
        "or"
      ],
      [
        "Ġv",
        "al"
      ],
      [
        "a",
        "p"
      ],
      [
        "Ġp",
        "o"
      ],
      [
        "p",
        "o"
      ],
      [
        "p",
        "t"
      ],
      [
        "at",
        "ter"
      ],
      [
        "Ġd",
        "id"
      ],
      [
        "Ġf",
        "e"
      ],
      [
        "an",
        "t"
      ],
      [
        "o",
        "re"
      ],
      [
        "Ġh",
        "ave"
      ],
      [
        "Ġhe",
        "ad"
      ],
      [
        "ur",
        "n"
      ],
      [
        "ur",
        "tle"
      ],
      [
        "Ġwh",
        "i"
      ],
      [
        "ab",
        "le"
      ],
      [
        "T",
        "h"
      ],
      [
        "o",
        "d"
      ],
      [
        "in",
        "e"
      ],
      [
        "ou",
        "s"
      ],
      [
        "Ġmo",
        "re"
      ],
      [
        "ĠK",
        "ing"
      ],
      [
        "t",
        "e"
      ],
      [
        "Ġa",
        "re"
      ],
      [
        "Ġthe",
        "re"
      ],
      [
        "re",
        "at"
      ],
      [
        "Ġc",
        "or"
      ],
      [
        "Ġth",
        "ing"
      ],
      [
        "Ġyou",
        "r"
      ],
      [
        "Ġwh",
        "o"
      ],
      [
        "Ġlo",
        "ss"
      ],
      [
        "a",
        "ck"
      ],
      [
        "p",
        "h"
      ],
      [
        "Ġthe",
        "n"
      ],
      [
        "is",
        "h"
      ],
      [
        "Ġv",
        "o"
      ],
      [
        "A",
        "lice"
      ],
      [
        "Ġa",
        "f"
      ],
      [
        "Ġg",
        "et"
      ],
      [
        "ro",
        "m"
      ],
      [
        "th",
        "ing"
      ],
      [
        "Ġ",
        "*"
      ],
      [
        "Ġb",
        "y"
      ],
      [
        "Ġm",
        "y"
      ],
      [
        "ri",
        "ed"
      ],
      [
        "ĠM",
        "ock"
      ],
      [
        "Ġsa",
        "y"
      ],
      [
        "ry",
        "ph"
      ],
      [
        "ryph",
        "on"
      ],
      [
        "p",
        "l"
      ],
      [
        "b",
        "it"
      ],
      [
        "d",
        "e"
      ],
      [
        "Ġon",
        "ly"
      ],
      [
        "u",
        "ch"
      ],
      [
        "Ġ",
        "R"
      ],
      [
        "it",
        "y"
      ],
      [
        "ir",
        "st"
      ],
      [
        "ĠT",
        "urtle"
      ],
      [
        "ĠC",
        "at"
      ],
      [
        "f",
        "ul"
      ],
      [
        "Ġw",
        "ay"
      ],
      [
        "ou",
        "gh"
      ],
      [
        "or",
        "m"
      ],
      [
        "Ġit",
        "s"
      ],
      [
        "ab",
        "bit"
      ],
      [
        "ĠG",
        "ryphon"
      ],
      [
        "r",
        "a"
      ],
      [
        "Ġ",
        "N"
      ],
      [
        "Ġt",
        "ime"
      ],
      [
        "at",
        "h"
      ],
      [
        "en",
        "ce"
      ],
      [
        "id",
        "e"
      ],
      [
        "es",
        "s"
      ],
      [
        "oo",
        "d"
      ],
      [
        "im",
        "p"
      ],
      [
        "j",
        "ect"
      ],
      [
        "Ġmo",
        "d"
      ],
      [
        "Ġqu",
        "ite"
      ],
      [
        "Ġvo",
        "ice"
      ],
      [
        "Y",
        "ou"
      ],
      [
        "a",
        "v"
      ],
      [
        "a",
        "re"
      ],
      [
        "p",
        "us"
      ],
      [
        "Ġ",
        "P"
      ],
      [
        "Ġm",
        "uch"
      ],
      [
        "Ġto",
        "o"
      ],
      [
        "Ġl",
        "ar"
      ],
      [
        "id",
        "ation"
      ],
      [
        "Ġh",
        "ow"
      ],
      [
        "Ġan",
        "y"
      ],
      [
        "Ġm",
        "ust"
      ],
      [
        "ar",
        "t"
      ],
      [
        "Ġmod",
        "el"
      ],
      [
        "a",
        "u"
      ],
      [
        "f",
        "ore"
      ],
      [
        "Ġ",
        "("
      ],
      [
        "Ġt",
        "w"
      ],
      [
        "Ġa",
        "l"
      ],
      [
        "al",
        "k"
      ],
      [
        "Ġbeg",
        "an"
      ],
      [
        "a",
        "ut"
      ],
      [
        "d",
        "d"
      ],
      [
        "i",
        "ous"
      ],
      [
        "m",
        "b"
      ],
      [
        "w",
        "ay"
      ],
      [
        "Ċ",
        "ĠĠ"
      ],
      [
        "Ġthe",
        "ir"
      ],
      [
        "on",
        "d"
      ],
      [
        "Ġth",
        "ink"
      ],
      [
        "an",
        "ce"
      ],
      [
        "Ġcor",
        "pus"
      ],
      [
        "l",
        "ing"
      ],
      [
        "m",
        "ar"
      ],
      [
        "Ġ",
        "="
      ],
      [
        "in",
        "t"
      ],
      [
        "Ġo",
        "ver"
      ],
      [
        "Ġl",
        "ong"
      ],
      [
        "Ġh",
        "im"
      ],
      [
        "ã",
        "Ģ"
      ],
      [
        "ä",
        "¸"
      ],
      [
        "Ġcon",
        "t"
      ],
      [
        "Ġtrain",
        "ing"
      ],
      [
        "h",
        "o"
      ],
      [
        "l",
        "ed"
      ],
      [
        "n",
        "ing"
      ],
      [
        "o",
        "f"
      ],
      [
        "s",
        "he"
      ],
      [
        "u",
        "che"
      ],
      [
        "Ġa",
        "r"
      ],
      [
        "Ġo",
        "ther"
      ],
      [
        "Ġm",
        "ad"
      ],
      [
        "Ġf",
        "irst"
      ],
      [
        "âĢĶ",
        "âĢĿ"
      ],
      [
        "Ġr",
        "un"
      ],
      [
        "ĠR",
        "abbit"
      ],
      [
        "uche",
        "ss"
      ],
      [
        "m",
        "ent"
      ],
      [
        "n",
        "e"
      ],
      [
        "r",
        "ow"
      ],
      [
        "Ġ",
        "B"
      ],
      [
        "Ġ",
        "The"
      ],
      [
        "Ġb",
        "ack"
      ],
      [
        "Ġd",
        "on"
      ],
      [
        "Ġg",
        "ot"
      ],
      [
        "Ġu",
        "se"
      ],
      [
        "n",
        "t"
      ],
      [
        "Ġt",
        "e"
      ],
      [
        "re",
        "e"
      ],
      [
        "er",
        "p"
      ],
      [
        "an",
        "s"
      ],
      [
        "Ġu",
        "s"
      ],
      [
        "Ġne",
        "ver"
      ],
      [
        "am",
        "ple"
      ],
      [
        "b",
        "ut"
      ],
      [
        "Ġ",
        "F"
      ],
      [
        "Ġf",
        "rom"
      ],
      [
        "Ġh",
        "and"
      ],
      [
        "as",
        "s"
      ],
      [
        "Ġr",
        "ound"
      ],
      [
        "th",
        "at"
      ],
      [
        "all",
        "y"
      ],
      [
        "ĠD",
        "uchess"
      ],
      [
        "Ġlook",
        "ed"
      ],
      [
        "Ġwhi",
        "ch"
      ],
      [
        "Th",
        "at"
      ],
      [
        "a",
        "ce"
      ],
      [
        "i",
        "ve"
      ],
      [
        "Ġ",
        "-"
      ],
      [
        "âĢ",
        "ĺ"
      ],
      [
        "at",
        "ch"
      ],
      [
        "Ġc",
        "ur"
      ],
      [
        "Ġto",
        "ken"
      ],
      [
        "Ġn",
        "ow"
      ],
      [
        "Ġex",
        "p"
      ],
      [
        "Ġj",
        "ust"
      ],
      [
        "Ġval",
        "idation"
      ],
      [
        "Ġaf",
        "ter"
      ],
      [
        "a",
        "g"
      ],
      [
        "b",
        "e"
      ],
      [
        "h",
        "ing"
      ],
      [
        "v",
        "es"
      ],
      [
        "Ġ",
        "L"
      ],
      [
        "Ġ",
        "en"
      ],
      [
        "Ġt",
        "urn"
      ],
      [
        "Ġsm",
        "all"
      ],
      [
        "g",
        "et"
      ],
      [
        "v",
        "en"
      ],
      [
        "Ġ",
        "ke"
      ],
      [
        "Ġc",
        "ame"
      ],
      [
        "Ġp",
        "l"
      ],
      [
        "Ġbe",
        "fore"
      ],
      [
        "ĠA",
        "nd"
      ],
      [
        "Ġre",
        "p"
      ],
      [
        "Ġdo",
        "es"
      ],
      [
        "Ġsu",
        "ch"
      ],
      [
        "O",
        "h"
      ],
      [
        "k",
        "ed"
      ],
      [
        "o",
        "ot"
      ],
      [
        "è",
        "¯"
      ],
      [
        "Ġs",
        "y"
      ],
      [
        "Ġc",
        "our"
      ],
      [
        "Ġsh",
        "ould"
      ],
      [
        "Wh",
        "at"
      ],
      [
        "Ġne",
        "xt"
      ],
      [
        "Ġsee",
        "m"
      ],
      [
        "iz",
        "e"
      ],
      [
        "d",
        "s"
      ],
      [
        "i",
        "ct"
      ],
      [
        "u",
        "c"
      ],
      [
        "Ġm",
        "ake"
      ],
      [
        "Ġth",
        "an"
      ],
      [
        "Ġhe",
        "re"
      ],
      [
        "Ġbe",
        "en"
      ],
      [
        "a",
        "pp"
      ],
      [
        "i",
        "re"
      ],
      [
        "Ġ",
        "imp"
      ],
      [
        "at",
        "her"
      ],
      [
        "iz",
        "er"
      ],
      [
        "Ġlar",
        "ge"
      ],
      [
        "a",
        "ge"
      ],
      [
        "i",
        "le"
      ],
      [
        "n",
        "ot"
      ],
      [
[...]
