{
  "version": "1.0",
  "truncation": null,
  "padding": null,
  "added_tokens": [
    {
      "id": 0,
      "content": "<pad>",
      "single_word": false,
      "lstrip": false,
      "rstrip": false,
      "normalized": false,
      "special": true
    },
    {
      "id": 1,
      "content": "<bos>",
      "single_word": false,
      "lstrip": false,
      "rstrip": false,
      "normalized": false,
      "special": true
    },
    {
      "id": 2,
      "content": "<eos>",
      "single_word": false,
      "lstrip": false,
      "rstrip": false,
      "normalized": false,
      "special": true
    },
    {
      "id": 3,
      "content": "<unk>",
      "single_word": false,
      "lstrip": false,
      "rstrip": false,
      "normalized": false,
      "special": true
    }
  ],
  "normalizer": null,
  "pre_tokenizer": {
    "type": "ByteLevel",
    "add_prefix_space": false,
    "trim_offsets": true,
    "use_regex": true
  },
  "post_processor": null,
  "decoder": {
    "type": "ByteLevel",
    "add_prefix_space": true,
    "trim_offsets": true,
    "use_regex": true
  },
  "model": {
    "type": "BPE",
    "dropout": null,
    "unk_token": "<unk>",
    "continuing_subword_prefix": null,
    "end_of_word_suffix": null,
    "fuse_unk": false,
    "byte_fallback": false,
    "ignore_merges": false,
    "vocab": {
      "<pad>": 0,
      "<bos>": 1,
      "<eos>": 2,
      "<unk>": 3,
      "!": 4,
      "\"": 5,
      "#": 6,
      "$": 7,
      "%": 8,
      "&": 9,
      "'": 10,
      "(": 11,
      ")": 12,
      "*": 13,
      "+": 14,
      ",": 15,
      "-": 16,
      ".": 17,
      "/": 18,
      "0": 19,
      "1": 20,
      "2": 21,
      "3": 22,
      "4": 23,
      "5": 24,
      "6": 25,
      "7": 26,
      "8": 27,
      "9": 28,
      ":": 29,
      ";": 30,
      "<": 31,
      "=": 32,
      ">": 33,
      "?": 34,
      "@": 35,
      "A": 36,
      "B": 37,
      "C": 38,
      "D": 39,
      "E": 40,
      "F": 41,
      "G": 42,
      "H": 43,
      "I": 44,
      "J": 45,
      "K": 46,
      "L": 47,
      "M": 48,
      "N": 49,
      "O": 50,
      "P": 51,
      "Q": 52,
      "R": 53,
      "S": 54,
      "T": 55,
      "U": 56,
      "V": 57,
      "W": 58,
      "X": 59,
      "Y": 60,
      "Z": 61,
      "[": 62,
      "\\": 63,
      "]": 64,
      "^": 65,
      "_": 66,
      "`": 67,
      "a": 68,
      "b": 69,
      "c": 70,
      "d": 71,
      "e": 72,
      "f": 73,
      "g": 74,
      "h": 75,
      "i": 76,
      "j": 77,
      "k": 78,
      "l": 79,
      "m": 80,
      "n": 81,
      "o": 82,
      "p": 83,
      "q": 84,
      "r": 85,
      "s": 86,
      "t": 87,
      "u": 88,
      "v": 89,
      "w": 90,
      "x": 91,
      "y": 92,
      "z": 93,
      "{": 94,
      "|": 95,
      "}": 96,
      "~": 97,
      "¡": 98,
      "¢": 99,
      "£": 100,
      "¤": 101,
      "¥": 102,
      "¦": 103,
      "§": 104,
      "¨": 105,
      "©": 106,
      "ª": 107,
      "«": 108,
      "¬": 109,
      "®": 110,
      "¯": 111,
      "°": 112,
      "±": 113,
      "²": 114,
      "³": 115,
      "´": 116,
      "µ": 117,
      "¶": 118,
      "·": 119,
      "¸": 120,
      "¹": 121,
      "º": 122,
      "»": 123,
      "¼": 124,
      "½": 125,
      "¾": 126,
      "¿": 127,
      "À": 128,
      "Á": 129,
      "Â": 130,
      "Ã": 131,
      "Ä": 132,
      "Å": 133,
      "Æ": 134,
      "Ç": 135,
      "È": 136,
      "É": 137,
      "Ê": 138,
      "Ë": 139,
      "Ì": 140,
      "Í": 141,
      "Î": 142,
      "Ï": 143,
      "Ð": 144,
      "Ñ": 145,
      "Ò": 146,
      "Ó": 147,
      "Ô": 148,
      "Õ": 149,
      "Ö": 150,
      "×": 151,
      "Ø": 152,
      "Ù": 153,
      "Ú": 154,
      "Û": 155,
      "Ü": 156,
      "Ý": 157,
      "Þ": 158,
      "ß": 159,
      "à": 160,
      "á": 161,
      "â": 162,
      "ã": 163,
      "ä": 164,
      "å": 165,
      "æ": 166,
      "ç": 167,
      "è": 168,
      "é": 169,
      "ê": 170,
      "ë": 171,
      "ì": 172,
      "í": 173,
      "î": 174,
      "ï": 175,
      "ð": 176,
      "ñ": 177,
      "ò": 178,
      "ó": 179,
      "ô": 180,
      "õ": 181,
      "ö": 182,
      "÷": 183,
      "ø": 184,
      "ù": 185,
      "ú": 186,
      "û": 187,
      "ü": 188,
      "ý": 189,
      "þ": 190,
      "ÿ": 191,
      "Ā": 192,
      "ā": 193,
      "Ă": 194,
      "ă": 195,
      "Ą": 196,
      "ą": 197,
      "Ć": 198,
      "ć": 199,
      "Ĉ": 200,
      "ĉ": 201,
      "Ċ": 202,
      "ċ": 203,
      "Č": 204,
      "č": 205,
      "Ď": 206,
      "ď": 207,
      "Đ": 208,
      "đ": 209,
      "Ē": 210,
      "ē": 211,
      "Ĕ": 212,
      "ĕ": 213,
      "Ė": 214,
      "ė": 215,
      "Ę": 216,
      "ę": 217,
      "Ě": 218,
      "ě": 219,
      "Ĝ": 220,
      "ĝ": 221,
      "Ğ": 222,
      "ğ": 223,
      "Ġ": 224,
      "ġ": 225,
      "Ģ": 226,
      "ģ": 227,
      "Ĥ": 228,
      "ĥ": 229,
      "Ħ": 230,
      "ħ": 231,
      "Ĩ": 232,
      "ĩ": 233,
      "Ī": 234,
      "ī": 235,
      "Ĭ": 236,
      "ĭ": 237,
      "Į": 238,
      "į": 239,
      "İ": 240,
      "ı": 241,
      "Ĳ": 242,
      "ĳ": 243,
      "Ĵ": 244,
      "ĵ": 245,
      "Ķ": 246,
      "ķ": 247,
      "ĸ": 248,
      "Ĺ": 249,
      "ĺ": 250,
      "Ļ": 251,
      "ļ": 252,
      "Ľ": 253,
      "ľ": 254,
      "Ŀ": 255,
      "ŀ": 256,
      "Ł": 257,
      "ł": 258,
      "Ń": 259,
      "te": 260,
      "in": 261,
      "Ġs": 262,
      "re": 263,
      "Ġt": 264,
      "en": 265,
      "Ġa": 266,
      "Ġc": 267,
      "he": 268,
      "on": 269,
      "de": 270,
      "or": 271,
      "ti": 272,
      "Ġl": 273,
      "al": 274,
      "Ġf": 275,
      "Ġp": 276,
      "it": 277,
      "ra": 278,
      "Ġm": 279,
      "er": 280,
      "ken": 281,
      "oken": 282,
      "ing": 283,
      "is": 284,
      "tion": 285,
      "ar": 286,
      "es": 287,
      "Ġn": 288,
      "Ġlo": 289,
      "ro": 290,
      "ĠĠ": 291,
      "Ġb": 292,
      "Ġe": 293,
      "Ġre": 294,
      "at": 295,
      "nd": 296,
      "an": 297,
      "le": 298,
      "Ġand": 299,
      "Ġno": 300,
      "ed": 301,
      "ut": 302,
      "Ġtoken": 303,
      "mp": 304,
      "ode": 305,
      "ss": 306,
      "Ġpro": 307,
      "ct": 308,
      "ly": 309,
      "Ġd": 310,
      "ter": 311,
      "int": 312,
      "un": 313,
      "xt": 314,
      "Ġthe": 315,
      "Ġex": 316,
      "ck": 317,
      "nt": 318,
      "ul": 319,
      "Ġw": 320,
      "Ġse": 321,
      "ay": 322,
      "ho": 323,
      "ts": 324,
      "Ġst": 325,
      "heck": 326,
      "rain": 327,
      "Ġloss": 328,
      "ge": 329,
      "his": 330,
      "iz": 331,
      "mal": 332,
      "pe": 333,
      "us": 334,
      "ynt": 335,
      "Ġg": 336,
      "Ġo": 337,
      "Ġr": 338,
      "Ġte": 339,
      "Ġis": 340,
      "Ġcon": 341,
      "heti": 342,
      "Ġbe": 343,
      "raining": 344,
      "yntheti": 345,
      "ynthetic": 346,
      "ab": 347,
      "ation": 348,
      "amp": 349,
      "ch": 350,
      "lo": 351,
      "token": 352,
      "ĊĠĠ": 353,
      "Ġ\"": 354,
      "Ġi": 355,
      "Ġv": 356,
      "Ġit": 357,
      "tep": 358,
      "Ġsynthetic": 359,
      "Ġto": 360,
      "Ġco": 361,
      "Ġcheck": 362,
      "Ġfor": 363,
      "Ġmode": 364,
      "Ġnote": 365,
      "Ġmodel": 366,
      "ad": 367,
      "di": 368,
      "du": 369,
      "po": 370,
      "qu": 371,
      "ri": 372,
      "ur": 373,
      "ure": 374,
      "Ġin": 375,
      "ten": 376,
      "Ġare": 377,
      "Ġfi": 378,
      "its": 379,
      "ration": 380,
      "Ġlog": 381,
      "Ġnot": 382,
      "izer": 383,
      "mall": 384,
      "ĊĠĠĠ": 385,
      "This": 386,
      "ara": 387,
      "ect": 388,
      "st": 389,
      "step": 390,
      "Ġde": 391,
      "Ġint": 392,
      "Ġsa": 393,
      "Ġsmall": 394,
      "res": 395,
      "Ġcan": 396,
      "Ġcle": 397,
      "Ġfut": 398,
      "Ġne": 399,
      "ata": 400,
      "atter": 401,
      "Ġwit": 402,
      "Ġrun": 403,
      "ample": 404,
      "Ġnotes": 405,
      "duc": 406,
      "point": 407,
      "Ġfuture": 408,
      "__": 409,
      "ap": 410,
      "as": 411,
      "ate": 412,
      "cal": 413,
      "eration": 414,
      "les": 415,
      "me": 416,
      "mm": 417,
      "mo": 418,
      "para": 419,
      "se": 420,
      "ver": 421,
      "Ġ`": 422,
      "Ġus": 423,
      "ine": 424,
      "Ġsho": 425,
      "rect": 426,
      "Ġtar": 427,
      "Ġtraining": 428,
      "ent": 429,
      "ents": 430,
      "eneration": 431,
      "Ġcor": 432,
      "ity": 433,
      "Ġmay": 434,
      "ary": 435,
      "uld": 436,
      "Ġsepara": 437,
      "Ġstay": 438,
      "get": 439,
      "Ġtext": 440,
      "Ġconte": 441,
      "tokens": 442,
      "rib": 443,
      "urn": 444,
      "Ġclean": 445,
      "Ġshould": 446,
      "Ġtarget": 447,
      "Ġseparate": 448,
      "For": 449,
      "`,": 450,
      "ce": 451,
      "co": 452,
      "code": 453,
      "cab": 454,
      "crib": 455,
      "ds": 456,
      "fe": 457,
      "for": 458,
      "gu": 459,
      "id": 460,
      "il": 461,
      "iv": 462,
      "ition": 463,
      "ipe": 464,
      "ical": 465,
      "irect": 466,
      "ject": 467,
      "ke": 468,
      "line": 469,
      "ma": 470,
      "mb": 471,
      "nal": 472,
      "nical": 473,
      "os": 474,
      "ocab": 475,
      "pus": 476,
      "rit": 477,
      "rst": 478,
      "scrib": 479,
      "training": 480,
      "turn": 481,
      "ual": 482,
      "vi": 483,
      "yte": 484,
      "ĠC": 485,
      "Ġh": 486,
      "Ġhe": 487,
      "Ġun": 488,
      "ini": 489,
      "Ġsh": 490,
      "red": 491,
      "redi": 492,
      "Ġthis": 493,
      "only": 494,
      "ded": 495,
      "demo": 496,
      "ort": 497,
      "ory": 498,
      "Ġle": 499,
      "Ġfro": 500,
      "Ġpos": 501,
      "radi": 502,
      "Ġme": 503,
      "Ġmatter": 504,
      "Ġbyte": 505,
      "Ġreal": 506,
      "Ġrelo": 507,
      "Ġreturn": 508,
      "ath": 509,
      "Ġtokenizer": 510,
      "Ġproduc": 511,
      "Ġproject": 512,
      "Ġdo": 513,
      "Ġdata": 514,
      "Ġdirect": 515,
      "ternal": 516,
      "Ġexp": 517,
      "Ġexternal": 518,
      "ulary": 519,
      "Ġwrit": 520,
      "Ġsequ": 521,
      "Ġgeneration": 522,
      "Ġtech": 523,
      "abil": 524,
      "Ġids": 525,
      "Ġvocab": 526,
      "Ġcomp": 527,
      "Ġchecks": 528,
      "Ġcheckpoint": 529,
      "Ġfirst": 530,
      "Ġlogits": 531,
      "Ġinto": 532,
      "Ġsafe": 533,
      "Ġnext": 534,
      "Ġwith": 535,
      "Ġcontext": 536,
      "Ġcleaning": 537,
      "ipeline": 538,
      "Ġfrom": 539,
      "Ġposition": 540,
      "radients": 541,
      "Ġwritten": 542,
      "Ġsequen": 543,
      "Ġtechnical": 544,
      "Ġvocabulary": 545,
      "))": 546,
      "->": 547,
      "={": 548,
      "BP": 549,
      "Lo": 550,
      "The": 551,
      "Wh": 552,
      "aut": 553,
      "age": 554,
      "babil": 555,
      "ces": 556,
      "ep": 557,
      "eed": 558,
      "ft": 559,
      "fter": 560,
      "ful": 561,
      "gh": 562,
      "ger": 563,
      "ha": 564,
      "ix": 565,
      "king": 566,
      "ld": 567,
      "li": 568,
      "ll": 569,
      "mizer": 570,
      "ns": 571,
      "ning": 572,
      "op": 573,
      "ore": 574,
      "oun": 575,
      "py": 576,
      "pti": 577,
      "put": 578,
      "pres": 579,
      "rint": 580,
      "ty": 581,
      "wor": 582,
      "war": 583,
      "}\"": 584,
      "ĊĊ": 585,
      "Ġ=": 586,
      "ĠS": 587,
      "ĠT": 588,
      "Ġor": 589,
      "Ġqu": 590,
      "Ġ->": 591,
      "ĠBP": 592,
      "iny": 593,
      "Ġstep": 594,
      "Ġsample": 595,
      "Ġsco": 596,
      "Ġtiny": 597,
      "Ġat": 598,
      "Ġcode": 599,
      "def": 600,
      "Ġlar": 601,
      "Ġlan": 602,
      "alid": 603,
      "Ġfini": 604,
      "Ġpatter": 605,
      "Ġpredi": 606,
      "Ġpath": 607,
      "Ġpipeline": 608,
      "Ġprint": 609,
      "Ġmas": 610,
      "Ġmix": 611,
      "ist": 612,
      "arly": 613,
      "arning": 614,
      "Ġlow": 615,
      "Ġloop": 616,
      "Ġboun": 617,
      "Ġever": 618,
      "Ġres": 619,
      "Ġrepres": 620,
      "ant": 621,
      "Ġtokens": 622,
      "Ġprovi": 623,
      "Ġprobabil": 624,
      "Ġexamp": 625,
      "Ġexample": 626,
      "Ġseed": 627,
      "hout": 628,
      "hored": 629,
      "Ġstr": 630,
      "Ġstate": 631,
      "heckpoint": 632,
      "Ġgiv": 633,
      "Ġgradients": 634,
      "Ġout": 635,
      "Ġopti": 636,
      "Ġite": 637,
      "Ġvalid": 638,
      "Ġcomm": 639,
      "ads": 640,
      "tention": 641,
      "Ġfiles": 642,
      "Ġdescrib": 643,
      "Ġneed": 644,
      "Ġwithout": 645,
      "Ġusual": 646,
      "Ġcorpus": 647,
      "coder": 648,
      "form": 649,
      "guage": 650,
      "Ġhere": 651,
      "Ġunits": 652,
      "Ġshort": 653,
      "Ġlearning": 654,
      "Ġmatters": 655,
      "Ġreload": 656,
      "Ġdoes": 657,
      "Ġdirectory": 658,
      "Ġcompa": 659,
      "Ġpositions": 660,
      "Ġsequence": 661,
      "Why": 662,
      "authored": 663,
      "ght": 664,
      "world": 665,
      "ward": 666,
      "ĠBPE": 667,
      "Ġscores": 668,
      "Ġlarger": 669,
      "Ġlanguage": 670,
      "Ġfinite": 671,
      "Ġmasking": 672,
      "Ġbounded": 673,
      "Ġevery": 674,
      "Ġprovide": 675,
      "Ġexamples": 676,
      "Ġgives": 677,
      "Ġoptimizer": 678,
      "Ġvalidation": 679,
      "Ġusually": 680,
      "\",": 681,
      "\":": 682,
      "\"]": 683,
      "(`,": 684,
      ")`,": 685,
      "23": 686,
      "45": 687,
      ":.": 688,
      ":{": 689,
      ":`,": 690,
      "=`": 691,
      ">\"": 692,
      "Cro": 693,
      "Code": 694,
      "Cur": 695,
      "Checkpoint": 696,
      "De": 697,
      "Ea": 698,
      "En": 699,
      "Ev": 700,
      "Ex": 701,
      "Edu": 702,
      "Generation": 703,
      "It": 704,
      "Imp": 705,
      "Ke": 706,
      "Pur": 707,
      "Small": 708,
      "Use": 709,
      "[\"": 710,
      "[-": 711,
      "])": 712,
      "]}\"": 713,
      "ag": 714,
      "ak": 715,
      "ain": 716,
      "ater": 717,
      "ack": 718,
      "aus": 719,
      "ame": 720,
      "ake": 721,
      "aded": 722,
      "after": 723,
      "bs": 724,
      "bu": 725,
      "cl": 726,
      "cre": 727,
      "cit": 728,
      "ction": 729,
      "cter": 730,
      "caus": 731,
      "ding": 732,
      "data": 733,
      "el": 734,
      "emp": 735,
      "ext": 736,
      "eful": 737,
      "eak": 738,
      "ften": 739,
      "fore": 740,
      "gg": 741,
      "gl": 742,
      "gm": 743,
      "gt": 744,
      "ghe": 745,
      "gra": 746,
      "ged": 747,
      "gits": 748,
      "gradients": 749,
      "hin": 750,
      "hing": 751,
      "han": 752,
      "hara": 753,
      "if": 754,
      "im": 755,
      "iti": 756,
      "ial": 757,
      "ied": 758,
      "imp": 759,
      "igu": 760,
      "ike": 761,
      "ight": 762,
      "ighe": 763,
      "lp": 764,
      "ls": 765,
      "llo": 766,
      "min": 767,
      "mar": 768,
      "mab": 769,
      "mory": 770,
      "nor": 771,
      "nes": 772,
      "nlo": 773,
      "nect": 774,
      "name": 775,
      "next": 776,
      "of": 777,
      "oal": 778,
      "oid": 779,
      "oft": 780,
      "ols": 781,
      "pen": 782,
      "por": 783,
      "pro": 784,
      "pts": 785,
      "ppe": 786,
      "predi": 787,
      "pipeline": 788,
      "pag": 789,
      "pied": 790,
      "rs": 791,
      "ror": 792,
      "sing": 793,
      "shing": 794,
      "train": 795,
      "tad": 796,
      "ture": 797,
      "tain": 798,
      "ute": 799,
      "ude": 800,
      "ution": 801,
      "ule": 802,
      "uge": 803,
      "uation": 804,
      "umm": 805,
      "umab": 806,
      "ved": 807,
      "vate": 808,
      "vabil": 809,
      "vel": 810,
      "void": 811,
      "wnlo": 812,
      "ymb": 813,
      "zer": 814,
      "Ġ1": 815,
      "Ġon": 816,
      "Ġra": 817,
      "Ġer": 818,
      "Ġ__": 819,
      "Ġent": 820,
      "Ġke": 821,
      "Ġonly": 822,
      "ĠDe": 823,
      "ĠEdu": 824,
      "Ġ[\"": 825,
      "Ġzer": 826,
      "ted": 827,
      "tend": 828,
      "Ġsti": 829,
      "Ġscal": 830,
      "Ġsimp": 831,
      "Ġsoft": 832,
      "Ġsumm": 833,
      "Ġsymb": 834,
      "ress": 835,
      "rent": 836,
      "requ": 837,
      "retraining": 838,
      "Ġtra": 839,
      "Ġtho": 840,
      "Ġturn": 841,
      "Ġthan": 842,
      "ench": 843,
      "engt": 844,
      "ented": 845,
      "Ġas": 846,
      "Ġamb": 847,
      "Ġafter": 848,
      "Ġall": 849,
      "Ġappe": 850,
      "Ġavoid": 851,
      "Ġcra": 852,
      "Ġcap": 853,
      "Ġchara": 854,
      "hello": 855,
      "deas": 856,
      "describ": 857,
      "deep": 858,
      "ders": 859,
      "ors": 860,
      "orpus": 861,
      "Ġlay": 862,
      "Ġlist": 863,
      "Ġlike": 864,
      "Ġlengt": 865,
      "ally": 866,
      "ality": 867,
      "Ġfra": 868,
      "Ġflo": 869,
      "Ġfeed": 870,
      "Ġfrequ": 871,
      "Ġpun": 872,
      "Ġpri": 873,
      "Ġpretraining": 874,
      "Ġmer": 875,
      "Ġmap": 876,
      "Ġmini": 877,
      "Ġmath": 878,
      "Ġmore": 879,
      "Ġmater": 880,
      "ers": 881,
      "ery": 882,
      "erim": 883,
      "ervabil": 884,
      "okenizer": 885,
      "ish": 886,
      "isk": 887,
      "ists": 888,
      "tions": 889,
      "arts": 890,
      "arli": 891,
      "ese": 892,
      "estions": 893,
      "Ġload": 894,
      "ropy": 895,
      "ĠĠĠ": 896,
      "ĠĠĠĠĠ": 897,
      "Ġbat": 898,
      "Ġbut": 899,
      "Ġback": 900,
      "Ġbench": 901,
      "Ġeduc": 902,
      "Ġemb": 903,
      "Ġearly": 904,
      "Ġearli": 905,
      "Ġrepe": 906,
      "Ġreduc": 907,
      "Ġreads": 908,
      "Ġremin": 909,
      "ats": 910,
      "ans": 911,
      "level": 912,
      "edding": 913,
      "Ġtokeniz": 914,
      "Ġprose": 915,
      "Ġproces": 916,
      "Ġprogra": 917,
      "ctuation": 918,
      "Ġdty": 919,
      "Ġdist": 920,
      "Ġdisk": 921,
      "Ġexists": 922,
      "ules": 923,
      "Ġwas": 924,
      "Ġweak": 925,
      "Ġsecre": 926,
      "Ġstarts": 927,
      "ized": 928,
      "malized": 929,
      "peration": 930,
      "Ġgoal": 931,
      "Ġover": 932,
      "Ġobs": 933,
      "Ġoften": 934,
      "Ġoperation": 935,
      "Ġright": 936,
      "Ġrule": 937,
      "Ġrules": 938,
      "Ġtest": 939,
      "Ġconver": 940,
      "Ġconce": 941,
      "Ġconnect": 942,
      "Ġcontain": 943,
      "Ġbeco": 944,
      "Ġbeha": 945,
      "Ġbecaus": 946,
      "Ġbefore": 947,
      "ational": 948,
      "chine": 949,
      "loss": 950,
      "ĊĠĠĠĠĠĠĠ": 951,
      "Ġ\"<": 952,
      "Ġ\"__": 953,
      "Ġif": 954,
      "Ġideas": 955,
      "Ġvect": 956,
      "Ġvery": 957,
      "Ġcopy": 958,
      "Ġcopied": 959,
      "Ġforward": 960,
      "Ġmodeling": 961,
      "pose": 962,
      "right": 963,
      "Ġinput": 964,
      "Ġintention": 965,
      "Ġinform": 966,
      "Ġincl": 967,
      "Ġfile": 968,
      "Ġlogs": 969,
      "Ġlogit": 970,
      "Ġlogged": 971,
      "str": 972,
      "Ġdemo": 973,
      "Ġdecoder": 974,
      "Ġdebu": 975,
      "Ġintake": 976,
      "Ġsame": 977,
      "Ġsaved": 978,
      "Ġclearly": 979,
      "__\":": 980,
      "apes": 981,
      "appen": 982,
      "memory": 983,
      "mming": 984,
      "Ġ`(`,": 985,
      "Ġ`)`,": 986,
      "Ġ`:`,": 987,
      "Ġ`=`": 988,
      "Ġuses": 989,
      "Ġuseful": 990,
      "rectnes": 991,
      "entation": 992,
      "Ġcorpor": 993,
      "Ġcorrectnes": 994,
      "Ġstays": 995,
      "Ġcontent": 996,
      "ribution": 997,
      "Ġcleanly": 998,
      "Ġseparately": 999,
      "forward": 1000,
      "ive": 1001,
      "max": 1002,
      "main": 1003,
      "machine": 1004,
      "vior": 1005,
      "ĠCheckpoint": 1006,
      "ĠChin": 1007,
      "ĠCorpus": 1008,
      "Ġhighe": 1009,
      "Ġhuge": 1010,
      "Ġhappen": 1011,
      "Ġhelp": 1012,
      "Ġunnor": 1013,
      "Ġshapes": 1014,
      "ortant": 1015,
      "Ġleft": 1016,
      "Ġmeant": 1017,
      "Ġmetad": 1018,
      "Ġmeans": 1019,
      "Ġreloaded": 1020,
      "Ġproduce": 1021,
      "Ġproduces": 1022,
      "Ġproduced": 1023,
      "Ġdownlo": 1024,
      "Ġdirectly": 1025,
      "Ġexpli": 1026,
      "Ġexpress": 1027,
      "Ġexperim": 1028,
      "Ġcompute": 1029,
      "Ġcheckpoints": 1030,
      "Ġcontextual": 1031,
      "Ġsequences": 1032,
      "Loss": 1033,
      "Logits": 1034,
      "eps": 1035,
      "hape": 1036,
      "nsform": 1037,
      "Ġ==": 1038,
      "ĠSynthetic": 1039,
      "ĠSeed": 1040,
      "ĠTraining": 1041,
      "ĠTokenizer": 1042,
      "Ġquality": 1043,
      "Ġquestions": 1044,
      "Ġattention": 1045,
      "Ġattend": 1046,
      "Ġpattern": 1047,
      "Ġpatterns": 1048,
      "Ġpredict": 1049,
      "Ġprediction": 1050,
      "Ġmixes": 1051,
      "Ġmixed": 1052,
      "Ġlower": 1053,
      "Ġresumab": 1054,
      "Ġreshape": 1055,
      "Ġrepresented": 1056,
      "Ġrepresentation": 1057,
      "Ġprobability": 1058,
      "Ġprobabiliti": 1059,
      "Ġoutput": 1060,
      "Ġitem": 1061,
      "Ġiteration": 1062,
      "Ġcommon": 1063,
      "Ġcommit": 1064,
      "Ġdescribe": 1065,
      "Ġdescribed": 1066,
      "Ġneeds": 1067,
      "Ġcompares": 1068,
      "Ġcompared": 1069,
      "2345": 1070,
      "Cross": 1071,
      "Current": 1072,
      "Checkpointing": 1073,
      "Each": 1074,
      "Engl": 1075,
      "Even": 1076,
      "Example": 1077,
      "Important": 1078,
      "Key": 1079,
      "Purpose": 1080,
      "Useful": 1081,
      "citly": 1082,
      "empty": 1083,
      "gging": 1084,
      "gments": 1085,
      "iguity": 1086,
      "mark": 1087,
      "propag": 1088,
      "predict": 1089,
      "Ġone": 1090,
      "Ġraw": 1091,
      "Ġerror": 1092,
      "Ġentropy": 1093,
      "Ġkeeps": 1094,
      "ĠDecoder": 1095,
      "ĠEduCode": 1096,
      "Ġzero": 1097,
      "Ġstill": 1098,
      "Ġscale": 1099,
      "Ġsimple": 1100,
      "Ġsoftmax": 1101,
      "Ġsummary": 1102,
      "Ġsymbols": 1103,
      "Ġtransform": 1104,
      "Ġthose": 1105,
      "Ġturns": 1106,
      "Ġambiguity": 1107,
      "Ġappear": 1108,
      "Ġcrashing": 1109,
      "Ġcapture": 1110,
      "Ġcharacter": 1111,
      "describe": 1112,
      "Ġlayers": 1113,
      "Ġlength": 1114,
      "Ġfragments": 1115,
      "Ġfloat": 1116,
      "Ġfrequent": 1117,
      "Ġpunctuation": 1118,
      "Ġprivate": 1119,
      "Ġmerge": 1120,
      "Ġminimal": 1121,
      "Ġmaterial": 1122,
      "ervability": 1123,
      "Ġbatch": 1124,
      "Ġbackpropag": 1125,
      "Ġbenchmark": 1126,
      "Ġeducational": 1127,
      "Ġembedding": 1128,
      "Ġearlier": 1129,
      "Ġrepeats": 1130,
      "Ġreduces": 1131,
      "Ġreminders": 1132,
      "Ġtokenization": 1133,
      "Ġprocessing": 1134,
      "Ġprogramming": 1135,
      "Ġdtype": 1136,
      "Ġdistribution": 1137,
      "Ġwaste": 1138,
      "Ġsecrets": 1139,
      "Ġgoals": 1140,
      "Ġobservability": 1141,
      "Ġoperational": 1142,
      "Ġconverts": 1143,
      "Ġconcepts": 1144,
      "Ġconnects": 1145,
      "Ġcontains": 1146,
      "Ġbecome": 1147,
      "Ġbehavior": 1148,
      "Ġbecause": 1149,
      "Ġvectors": 1150,
      "Ġcopyright": 1151,
      "Ġintentionally": 1152,
      "Ġinformation": 1153,
      "Ġinclude": 1154,
      "Ġdebugging": 1155,
      "Ġcorpora": 1156,
      "Ġcorrectness": 1157,
      "ĠChinese": 1158,
      "Ġhigher": 1159,
      "Ġhappens": 1160,
      "Ġhelps": 1161,
      "Ġunnormalized": 1162,
      "Ġmetadata": 1163,
      "Ġdownloads": 1164,
      "Ġexplicitly": 1165,
      "Ġexpressive": 1166,
      "Ġexperiment": 1167,
      "Ġresumable": 1168,
      "Ġprobabilities": 1169,
      "English": 1170,
      "Ġtransformer": 1171,
      "Ġbackpropagate": 1172,
      "Ġembeddings": 1173
    },
    "merges": [
      [
        "t",
        "e"
      ],
      [
        "i",
        "n"
      ],
      [
        "Ġ",
        "s"
      ],
      [
        "r",
        "e"
      ],
      [
        "Ġ",
        "t"
      ],
      [
        "e",
        "n"
      ],
      [
        "Ġ",
        "a"
      ],
      [
        "Ġ",
        "c"
      ],
      [
        "h",
        "e"
      ],
      [
        "o",
        "n"
      ],
      [
        "d",
        "e"
      ],
      [
        "o",
        "r"
      ],
      [
        "t",
        "i"
      ],
      [
        "Ġ",
        "l"
      ],
      [
        "a",
        "l"
      ],
      [
        "Ġ",
        "f"
      ],
      [
        "Ġ",
        "p"
      ],
      [
        "i",
        "t"
      ],
      [
        "r",
        "a"
      ],
      [
        "Ġ",
        "m"
      ],
      [
        "e",
        "r"
      ],
      [
        "k",
        "en"
      ],
      [
        "o",
        "ken"
      ],
      [
        "in",
        "g"
      ],
      [
        "i",
        "s"
      ],
      [
        "ti",
        "on"
      ],
      [
        "a",
        "r"
      ],
      [
        "e",
        "s"
      ],
      [
        "Ġ",
        "n"
      ],
      [
        "Ġl",
        "o"
      ],
      [
        "r",
        "o"
      ],
      [
        "Ġ",
        "Ġ"
      ],
      [
        "Ġ",
        "b"
      ],
      [
        "Ġ",
        "e"
      ],
      [
        "Ġ",
        "re"
      ],
      [
        "a",
        "t"
      ],
      [
        "n",
        "d"
      ],
      [
        "a",
        "n"
      ],
      [
        "l",
        "e"
      ],
      [
        "Ġa",
        "nd"
      ],
      [
        "Ġn",
        "o"
      ],
      [
        "e",
        "d"
      ],
      [
        "u",
        "t"
      ],
      [
        "Ġt",
        "oken"
      ],
      [
        "m",
        "p"
      ],
      [
        "o",
        "de"
      ],
      [
        "s",
        "s"
      ],
      [
        "Ġp",
        "ro"
      ],
      [
        "c",
        "t"
      ],
      [
        "l",
        "y"
      ],
      [
        "Ġ",
        "d"
      ],
      [
        "te",
        "r"
      ],
      [
        "in",
        "t"
      ],
      [
        "u",
        "n"
      ],
      [
        "x",
        "t"
      ],
      [
        "Ġt",
        "he"
      ],
      [
        "Ġe",
        "x"
      ],
      [
        "c",
        "k"
      ],
      [
        "n",
        "t"
      ],
      [
        "u",
        "l"
      ],
      [
        "Ġ",
        "w"
      ],
      [
        "Ġs",
        "e"
      ],
      [
        "a",
        "y"
      ],
      [
        "h",
        "o"
      ],
      [
        "t",
        "s"
      ],
      [
        "Ġs",
        "t"
      ],
      [
        "he",
        "ck"
      ],
      [
        "ra",
        "in"
      ],
      [
        "Ġlo",
        "ss"
      ],
      [
        "g",
        "e"
      ],
      [
        "h",
        "is"
      ],
      [
        "i",
        "z"
      ],
      [
        "m",
        "al"
      ],
      [
        "p",
        "e"
      ],
      [
        "u",
        "s"
      ],
      [
        "y",
        "nt"
      ],
      [
        "Ġ",
        "g"
      ],
      [
        "Ġ",
        "o"
      ],
      [
        "Ġ",
        "r"
      ],
      [
        "Ġ",
        "te"
      ],
      [
        "Ġ",
        "is"
      ],
      [
        "Ġc",
        "on"
      ],
      [
        "he",
        "ti"
      ],
      [
        "Ġb",
        "e"
      ],
      [
        "rain",
        "ing"
      ],
      [
        "ynt",
        "heti"
      ],
      [
        "yntheti",
        "c"
      ],
      [
        "a",
        "b"
      ],
      [
        "a",
        "tion"
      ],
      [
        "a",
        "mp"
      ],
      [
        "c",
        "h"
      ],
      [
        "l",
        "o"
      ],
      [
        "t",
        "oken"
      ],
      [
        "Ċ",
        "ĠĠ"
      ],
      [
        "Ġ",
        "\""
      ],
      [
        "Ġ",
        "i"
      ],
      [
        "Ġ",
        "v"
      ],
      [
        "Ġ",
        "it"
      ],
      [
        "te",
        "p"
      ],
      [
        "Ġs",
        "ynthetic"
      ],
      [
        "Ġt",
        "o"
      ],
      [
        "Ġc",
        "o"
      ],
      [
        "Ġc",
        "heck"
      ],
      [
        "Ġf",
        "or"
      ],
      [
        "Ġm",
        "ode"
      ],
      [
        "Ġno",
        "te"
      ],
      [
        "Ġmode",
        "l"
      ],
      [
        "a",
        "d"
      ],
      [
        "d",
        "i"
      ],
      [
        "d",
        "u"
      ],
      [
        "p",
        "o"
      ],
      [
        "q",
        "u"
      ],
      [
        "r",
        "i"
      ],
      [
        "u",
        "r"
      ],
      [
        "u",
        "re"
      ],
      [
        "Ġ",
        "in"
      ],
      [
        "te",
        "n"
      ],
      [
        "Ġa",
        "re"
      ],
      [
        "Ġf",
        "i"
      ],
      [
        "it",
        "s"
      ],
      [
        "ra",
        "tion"
      ],
      [
        "Ġlo",
        "g"
      ],
      [
        "Ġno",
        "t"
      ],
      [
        "iz",
        "er"
      ],
      [
        "mal",
        "l"
      ],
      [
        "ĊĠĠ",
        "Ġ"
      ],
      [
        "T",
        "his"
      ],
      [
        "a",
        "ra"
      ],
      [
        "e",
        "ct"
      ],
      [
        "s",
        "t"
      ],
      [
        "s",
        "tep"
      ],
      [
        "Ġ",
        "de"
      ],
      [
        "Ġ",
        "int"
      ],
      [
        "Ġs",
        "a"
      ],
      [
        "Ġs",
        "mall"
      ],
      [
        "re",
        "s"
      ],
      [
        "Ġc",
        "an"
      ],
      [
        "Ġc",
        "le"
      ],
      [
        "Ġf",
        "ut"
      ],
      [
        "Ġn",
        "e"
      ],
      [
        "at",
        "a"
      ],
      [
        "at",
        "ter"
      ],
      [
        "Ġw",
        "it"
      ],
      [
        "Ġr",
        "un"
      ],
      [
        "amp",
        "le"
      ],
      [
        "Ġnote",
        "s"
      ],
      [
        "du",
        "c"
      ],
      [
        "po",
        "int"
      ],
      [
        "Ġfut",
        "ure"
      ],
      [
        "_",
        "_"
      ],
      [
        "a",
        "p"
      ],
      [
        "a",
        "s"
      ],
      [
        "a",
        "te"
      ],
      [
        "c",
        "al"
      ],
      [
        "e",
        "ration"
      ],
      [
        "l",
        "es"
      ],
      [
        "m",
        "e"
      ],
      [
        "m",
        "m"
      ],
      [
        "m",
        "o"
      ],
      [
        "p",
        "ara"
      ],
      [
        "s",
        "e"
      ],
      [
        "v",
        "er"
      ],
      [
        "Ġ",
        "`"
      ],
      [
        "Ġ",
        "us"
      ],
      [
        "in",
        "e"
      ],
      [
        "Ġs",
        "ho"
      ],
      [
        "re",
        "ct"
      ],
      [
        "Ġt",
        "ar"
      ],
      [
        "Ġt",
        "raining"
      ],
      [
        "en",
        "t"
      ],
      [
        "en",
        "ts"
      ],
      [
        "en",
        "eration"
      ],
      [
        "Ġc",
        "or"
      ],
      [
        "it",
        "y"
      ],
      [
        "Ġm",
        "ay"
      ],
      [
        "ar",
        "y"
      ],
      [
        "ul",
        "d"
      ],
      [
        "Ġse",
        "para"
      ],
      [
        "Ġst",
        "ay"
      ],
      [
        "ge",
        "t"
      ],
      [
        "Ġte",
        "xt"
      ],
      [
        "Ġcon",
        "te"
      ],
      [
        "token",
        "s"
      ],
      [
        "ri",
        "b"
      ],
      [
        "ur",
        "n"
      ],
      [
        "Ġcle",
        "an"
      ],
      [
        "Ġsho",
        "uld"
      ],
      [
        "Ġtar",
        "get"
      ],
      [
        "Ġsepara",
        "te"
      ],
      [
        "F",
        "or"
      ],
      [
        "`",
        ","
      ],
      [
        "c",
        "e"
      ],
      [
        "c",
        "o"
      ],
      [
        "c",
        "ode"
      ],
      [
        "c",
        "ab"
      ],
      [
        "c",
        "rib"
      ],
      [
        "d",
        "s"
      ],
      [
        "f",
        "e"
      ],
      [
        "f",
        "or"
      ],
      [
        "g",
        "u"
      ],
      [
        "i",
        "d"
      ],
      [
        "i",
        "l"
      ],
      [
        "i",
        "v"
      ],
      [
        "i",
        "tion"
      ],
      [
        "i",
        "pe"
      ],
      [
        "i",
        "cal"
      ],
      [
        "i",
        "rect"
      ],
      [
        "j",
        "ect"
      ],
      [
        "k",
        "e"
      ],
      [
        "l",
        "ine"
      ],
      [
        "m",
        "a"
      ],
      [
        "m",
        "b"
      ],
      [
        "n",
        "al"
      ],
      [
        "n",
        "ical"
      ],
      [
        "o",
        "s"
      ],
      [
        "o",
        "cab"
      ],
      [
        "p",
        "us"
      ],
      [
        "r",
        "it"
      ],
      [
        "r",
        "st"
      ],
      [
        "s",
        "crib"
      ],
      [
        "t",
        "raining"
      ],
      [
        "t",
        "urn"
      ],
      [
        "u",
        "al"
      ],
      [
        "v",
        "i"
      ],
      [
        "y",
        "te"
      ],
      [
        "Ġ",
        "C"
      ],
      [
        "Ġ",
        "h"
      ],
      [
        "Ġ",
        "he"
      ],
      [
        "Ġ",
        "un"
      ],
      [
        "in",
        "i"
      ],
      [
        "Ġs",
        "h"
      ],
      [
        "re",
        "d"
      ],
      [
        "re",
        "di"
      ],
      [
        "Ġt",
        "his"
      ],
      [
        "on",
        "ly"
      ],
      [
        "de",
        "d"
      ],
      [
        "de",
        "mo"
      ],
      [
        "or",
        "t"
      ],
      [
        "or",
        "y"
      ],
      [
        "Ġl",
        "e"
      ],
      [
        "Ġf",
        "ro"
      ],
      [
        "Ġp",
        "os"
      ],
      [
        "ra",
        "di"
      ],
      [
        "Ġm",
        "e"
      ],
      [
        "Ġm",
        "atter"
      ],
      [
        "Ġb",
        "yte"
      ],
      [
        "Ġre",
        "al"
      ],
      [
        "Ġre",
        "lo"
      ],
      [
        "Ġre",
        "turn"
      ],
      [
        "at",
        "h"
      ],
      [
        "Ġtoken",
        "izer"
      ],
      [
        "Ġpro",
        "duc"
      ],
      [
        "Ġpro",
        "ject"
      ],
      [
        "Ġd",
        "o"
      ],
      [
        "Ġd",
        "ata"
      ],
      [
        "Ġd",
        "irect"
      ],
      [
        "ter",
        "nal"
      ],
      [
        "Ġex",
        "p"
      ],
      [
        "Ġex",
        "ternal"
      ],
      [
        "ul",
        "ary"
      ],
      [
        "Ġw",
        "rit"
      ],
      [
        "Ġse",
        "qu"
      ],
      [
        "Ġg",
        "eneration"
      ],
      [
        "Ġte",
        "ch"
      ],
      [
        "ab",
        "il"
      ],
      [
        "Ġi",
        "ds"
      ],
      [
        "Ġv",
        "ocab"
      ],
      [
        "Ġco",
        "mp"
      ],
      [
        "Ġcheck",
        "s"
      ],
      [
        "Ġcheck",
        "point"
      ],
      [
        "Ġfi",
        "rst"
      ],
      [
        "Ġlog",
        "its"
      ],
      [
        "Ġint",
        "o"
      ],
      [
        "Ġsa",
        "fe"
      ],
      [
        "Ġne",
        "xt"
      ],
      [
        "Ġwit",
        "h"
      ],
      [
        "Ġconte",
        "xt"
      ],
      [
        "Ġclean",
        "ing"
      ],
      [
        "ipe",
        "line"
      ],
      [
        "Ġfro",
        "m"
      ],
      [
        "Ġpos",
        "ition"
      ],
      [
        "radi",
        "ents"
      ],
      [
        "Ġwrit",
        "ten"
      ],
      [
        "Ġsequ",
        "en"
      ],
      [
        "Ġtech",
        "nical"
      ],
      [
        "Ġvocab",
        "ulary"
      ],
      [
        ")",
        ")"
      ],
      [
        "-",
        ">"
      ],
      [
        "=",
        "{"
      ],
      [
        "B",
        "P"
      ],
      [
        "L",
        "o"
      ],
      [
        "T",
        "he"
      ],
      [
        "W",
        "h"
      ],
      [
        "a",
        "ut"
      ],
      [
        "a",
        "ge"
      ],
      [
        "b",
        "abil"
      ],
      [
        "c",
        "es"
      ],
      [
        "e",
        "p"
      ],
      [
        "e",
        "ed"
      ],
      [
        "f",
        "t"
      ],
      [
        "f",
        "ter"
      ],
      [
        "f",
        "ul"
      ],
      [
        "g",
        "h"
      ],
      [
        "g",
        "er"
      ],
      [
        "h",
        "a"
      ],
      [
        "i",
        "x"
      ],
      [
        "k",
        "ing"
      ],
      [
        "l",
        "d"
      ],
      [
        "l",
        "i"
      ],
      [
        "l",
        "l"
      ],
      [
        "m",
        "izer"
      ],
      [
        "n",
        "s"
      ],
      [
        "n",
        "ing"
      ],
      [
        "o",
        "p"
      ],
      [
        "o",
        "re"
      ],
      [
        "o",
        "un"
      ],
      [
        "p",
        "y"
      ],
      [
        "p",
        "ti"
      ],
      [
        "p",
        "ut"
      ],
      [
        "p",
        "res"
      ],
      [
        "r",
        "int"
      ],
      [
        "t",
        "y"
      ],
      [
        "w",
        "or"
      ],
      [
        "w",
        "ar"
      ],
      [
        "}",
        "\""
      ],
      [
        "Ċ",
        "Ċ"
      ],
      [
        "Ġ",
        "="
      ],
      [
        "Ġ",
        "S"
      ],
      [
        "Ġ",
        "T"
      ],
      [
        "Ġ",
        "or"
      ],
      [
        "Ġ",
        "qu"
      ],
      [
        "Ġ",
        "->"
      ],
      [
        "Ġ",
        "BP"
      ],
      [
        "in",
        "y"
      ],
      [
        "Ġs",
        "tep"
      ],
      [
        "Ġs",
        "ample"
      ],
      [
        "Ġs",
        "co"
      ],
      [
        "Ġt",
        "iny"
      ],
      [
        "Ġa",
        "t"
      ],
      [
        "Ġc",
        "ode"
      ],
      [
        "de",
        "f"
      ],
      [
        "Ġl",
        "ar"
      ],
      [
        "Ġl",
        "an"
      ],
      [
        "al",
        "id"
      ],
      [
        "Ġf",
        "ini"
      ],
      [
        "Ġp",
        "atter"
      ],
      [
        "Ġp",
        "redi"
      ],
      [
        "Ġp",
        "ath"
      ],
      [
        "Ġp",
        "ipeline"
      ],
      [
        "Ġp",
        "rint"
      ],
      [
        "Ġm",
        "as"
      ],
      [
        "Ġm",
        "ix"
      ],
      [
        "is",
        "t"
      ],
      [
        "ar",
        "ly"
      ],
      [
        "ar",
        "ning"
      ],
      [
        "Ġlo",
        "w"
      ],
      [
        "Ġlo",
        "op"
      ],
      [
        "Ġb",
        "oun"
      ],
      [
        "Ġe",
        "ver"
      ],
      [
        "Ġre",
        "s"
      ],
      [
        "Ġre",
        "pres"
      ],
      [
        "an",
        "t"
      ],
      [
        "Ġtoken",
        "s"
      ],
      [
        "Ġpro",
        "vi"
      ],
      [
        "Ġpro",
        "babil"
      ],
      [
        "Ġex",
        "amp"
      ],
      [
        "Ġex",
        "ample"
      ],
      [
        "Ġse",
        "ed"
      ],
      [
        "ho",
        "ut"
      ],
      [
        "ho",
        "red"
      ],
      [
        "Ġst",
        "r"
      ],
      [
        "Ġst",
        "ate"
      ],
      [
        "heck",
        "point"
      ],
      [
        "Ġg",
        "iv"
      ],
      [
        "Ġg",
        "radients"
      ],
      [
        "Ġo",
        "ut"
      ],
      [
        "Ġo",
        "pti"
      ],
      [
        "Ġi",
        "te"
      ],
      [
        "Ġv",
        "alid"
      ],
      [
        "Ġco",
        "mm"
      ],
      [
        "ad",
        "s"
      ],
      [
        "ten",
        "tion"
      ],
      [
        "Ġfi",
        "les"
      ],
      [
        "Ġde",
        "scrib"
      ],
      [
        "Ġne",
        "ed"
      ],
      [
        "Ġwit",
        "hout"
      ],
      [
        "Ġus",
        "ual"
      ],
      [
        "Ġcor",
        "pus"
      ],
      [
        "code",
        "r"
      ],
      [
        "for",
        "m"
      ],
      [
        "gu",
        "age"
      ],
      [
        "Ġhe",
        "re"
      ],
      [
        "Ġun",
        "its"
      ],
      [
        "Ġsh",
        "ort"
      ],
      [
        "Ġle",
        "arning"
      ],
      [
        "Ġmatter",
        "s"
      ],
      [
        "Ġrelo",
        "ad"
      ],
      [
        "Ġdo",
        "es"
      ],
      [
        "Ġdirect",
        "ory"
      ],
      [
        "Ġcomp",
        "a"
      ],
      [
        "Ġposition",
        "s"
      ],
      [
        "Ġsequen",
        "ce"
      ],
      [
        "Wh",
        "y"
      ],
      [
        "aut",
        "hored"
      ],
      [
        "gh",
        "t"
      ],
      [
        "wor",
        "ld"
      ],
      [
        "war",
        "d"
      ],
      [
        "ĠBP",
        "E"
      ],
      [
        "Ġsco",
        "res"
      ],
      [
        "Ġlar",
        "ger"
      ],
      [
        "Ġlan",
        "guage"
      ],
      [
        "Ġfini",
        "te"
      ],
      [
        "Ġmas",
        "king"
      ],
      [
        "Ġboun",
        "ded"
      ],
      [
        "Ġever",
        "y"
      ],
      [
        "Ġprovi",
        "de"
      ],
      [
        "Ġexamp",
        "les"
      ],
      [
        "Ġgiv",
        "es"
      ],
      [
        "Ġopti",
        "mizer"
      ],
      [
        "Ġvalid",
        "ation"
      ],
      [
        "Ġusual",
        "ly"
      ],
      [
        "\"",
        ","
      ],
      [
        "\"",
        ":"
      ],
      [
        "\"",
        "]"
      ],
      [
        "(",
        "`,"
      ],
      [
        ")",
        "`,"
      ],
      [
        "2",
        "3"
      ],
      [
        "4",
        "5"
      ],
      [
        ":",
        "."
      ],
      [
        ":",
        "{"
      ],
      [
        ":",
        "`,"
      ],
      [
        "=",
        "`"
      ],
      [
        ">",
        "\""
      ],
      [
        "C",
        "ro"
      ],
      [
        "C",
        "ode"
      ],
      [
        "C",
        "ur"
      ],
      [
        "C",
        "heckpoint"
      ],
      [
        "D",
        "e"
      ],
      [
        "E",
        "a"
      ],
      [
        "E",
        "n"
      ],
      [
        "E",
        "v"
      ],
      [
        "E",
        "x"
      ],
      [
        "E",
        "du"
      ],
      [
        "G",
        "eneration"
      ],
      [
        "I",
        "t"
      ],
      [
        "I",
        "mp"
      ],
      [
        "K",
        "e"
      ],
      [
        "P",
        "ur"
      ],
      [
        "S",
        "mall"
      ],
      [
        "U",
        "se"
      ],
      [
        "[",
        "\""
      ],
      [
        "[",
        "-"
      ],
      [
        "]",
        ")"
      ],
      [
        "]",
        "}\""
      ],
      [
        "a",
        "g"
      ],
      [
        "a",
        "k"
      ],
      [
        "a",
        "in"
      ],
      [
        "a",
        "ter"
      ],
      [
        "a",
        "ck"
      ],
      [
        "a",
        "us"
      ],
      [
        "a",
        "me"
      ],
      [
        "a",
        "ke"
      ],
      [
        "a",
        "ded"
      ],
      [
        "a",
        "fter"
      ],
      [
        "b",
        "s"
      ],
      [
        "b",
        "u"
      ],
      [
        "c",
        "l"
      ],
      [
        "c",
        "re"
      ],
      [
        "c",
        "it"
      ],
      [
        "c",
        "tion"
      ],
      [
        "c",
        "ter"
      ],
      [
        "c",
        "aus"
      ],
      [
        "d",
        "ing"
      ],
      [
        "d",
        "ata"
      ],
      [
        "e",
        "l"
      ],
      [
        "e",
        "mp"
      ],
      [
        "e",
        "xt"
      ],
      [
        "e",
        "ful"
      ],
      [
        "e",
        "ak"
      ],
      [
        "f",
        "ten"
      ],
      [
        "f",
        "ore"
      ],
      [
        "g",
        "g"
      ],
      [
        "g",
        "l"
      ],
      [
        "g",
        "m"
      ],
      [
        "g",
        "t"
      ],
      [
        "g",
        "he"
      ],
      [
        "g",
        "ra"
      ],
      [
        "g",
        "ed"
      ],
      [
        "g",
        "its"
      ],
      [
        "g",
        "radients"
      ],
      [
        "h",
        "in"
      ],
      [
        "h",
        "ing"
      ],
      [
        "h",
        "an"
      ],
      [
        "h",
        "ara"
      ],
      [
        "i",
        "f"
      ],
      [
        "i",
        "m"
      ],
      [
        "i",
        "ti"
      ],
      [
        "i",
        "al"
      ],
      [
        "i",
        "ed"
      ],
      [
        "i",
        "mp"
      ],
      [
        "i",
        "gu"
      ],
      [
        "i",
        "ke"
      ],
      [
        "i",
        "ght"
      ],
      [
        "i",
        "ghe"
      ],
      [
        "l",
        "p"
      ],
      [
        "l",
        "s"
      ],
      [
        "l",
        "lo"
      ],
      [
        "m",
        "in"
      ],
      [
        "m",
        "ar"
      ],
      [
        "m",
        "ab"
      ],
      [
        "m",
        "ory"
      ],
      [
        "n",
        "or"
      ],
      [
        "n",
        "es"
      ],
      [
        "n",
        "lo"
      ],
      [
        "n",
        "ect"
      ],
      [
        "n",
        "ame"
      ],
      [
        "n",
        "ext"
      ],
      [
        "o",
        "f"
      ],
      [
        "o",
        "al"
      ],
      [
        "o",
        "id"
      ],
      [
        "o",
        "ft"
      ],
      [
        "o",
        "ls"
      ],
      [
        "p",
        "en"
      ],
      [
        "p",
        "or"
      ],
      [
        "p",
        "ro"
      ],
      [
        "p",
        "ts"
      ],
      [
        "p",
        "pe"
      ],
      [
        "p",
        "redi"
      ],
      [
        "p",
        "ipeline"
      ],
      [
        "p",
        "ag"
      ],
      [
        "p",
        "ied"
      ],
      [
        "r",
        "s"
      ],
      [
        "r",
        "or"
      ],
      [
        "s",
        "ing"
      ],
      [
        "s",
        "hing"
      ],
      [
        "t",
        "rain"
      ],
      [
        "t",
        "ad"
      ],
      [
        "t",
        "ure"
      ],
      [
        "t",
        "ain"
      ],
      [
        "u",
        "te"
      ],
      [
        "u",
        "de"
      ],
      [
        "u",
        "tion"
      ],
      [
        "u",
        "le"
      ],
      [
        "u",
        "ge"
      ],
      [
        "u",
        "ation"
      ],
      [
        "u",
        "mm"
      ],
      [
        "u",
        "mab"
      ],
      [
        "v",
        "ed"
      ],
      [
        "v",
        "ate"
      ],
      [
        "v",
        "abil"
      ],
      [
        "v",
        "el"
      ],
      [
        "v",
        "oid"
      ],
      [
        "w",
        "nlo"
      ],
      [
        "y",
        "mb"
      ],
      [
        "z",
        "er"
      ],
      [
        "Ġ",
        "1"
      ],
      [
        "Ġ",
        "on"
      ],
      [
        "Ġ",
        "ra"
      ],
      [
        "Ġ",
        "er"
      ],
      [
        "Ġ",
        "__"
      ],
      [
        "Ġ",
        "ent"
      ],
      [
        "Ġ",
        "ke"
      ],
      [
        "Ġ",
        "only"
      ],
      [
        "Ġ",
        "De"
      ],
      [
        "Ġ",
        "Edu"
      ],
      [
        "Ġ",
        "[\""
      ],
      [
        "Ġ",
        "zer"
      ],
      [
        "te",
        "d"
      ],
      [
        "te",
        "nd"
      ],
      [
        "Ġs",
        "ti"
      ],
      [
        "Ġs",
        "cal"
      ],
      [
        "Ġs",
        "imp"
      ],
      [
        "Ġs",
        "oft"
      ],
      [
        "Ġs",
        "umm"
      ],
      [
        "Ġs",
        "ymb"
      ],
      [
        "re",
        "ss"
      ],
      [
        "re",
        "nt"
      ],
      [
        "re",
        "qu"
      ],
      [
        "re",
        "training"
      ],
      [
        "Ġt",
        "ra"
      ],
      [
        "Ġt",
        "ho"
      ],
      [
        "Ġt",
        "urn"
      ],
      [
        "Ġt",
        "han"
      ],
      [
        "en",
        "ch"
      ],
      [
        "en",
        "gt"
      ],
      [
        "en",
        "ted"
      ],
      [
        "Ġa",
        "s"
      ],
      [
        "Ġa",
        "mb"
      ],
      [
        "Ġa",
        "fter"
      ],
      [
        "Ġa",
        "ll"
      ],
      [
        "Ġa",
        "ppe"
      ],
      [
        "Ġa",
        "void"
      ],
      [
        "Ġc",
        "ra"
      ],
      [
        "Ġc",
        "ap"
      ],
      [
        "Ġc",
        "hara"
      ],
      [
        "he",
        "llo"
      ],
      [
        "de",
        "as"
      ],
      [
        "de",
        "scrib"
      ],
      [
        "de",
        "ep"
      ],
      [
        "de",
        "rs"
      ],
      [
        "or",
        "s"
      ],
      [
        "or",
        "pus"
      ],
      [
        "Ġl",
        "ay"
      ],
      [
        "Ġl",
        "ist"
      ],
      [
        "Ġl",
        "ike"
      ],
      [
        "Ġl",
        "engt"
      ],
      [
        "al",
        "ly"
      ],
      [
        "al",
        "ity"
      ],
      [
        "Ġf",
        "ra"
      ],
      [
        "Ġf",
        "lo"
      ],
      [
        "Ġf",
        "eed"
      ],
      [
        "Ġf",
        "requ"
      ],
      [
        "Ġp",
        "un"
      ],
      [
        "Ġp",
        "ri"
      ],
      [
        "Ġp",
        "retraining"
      ],
      [
        "Ġm",
        "er"
      ],
      [
        "Ġm",
        "ap"
      ],
      [
        "Ġm",
        "ini"
      ],
      [
        "Ġm",
        "ath"
      ],
      [
        "Ġm",
        "ore"
      ],
      [
        "Ġm",
        "ater"
      ],
      [
        "er",
        "s"
      ],
      [
        "er",
        "y"
      ],
      [
        "er",
        "im"
      ],
      [
        "er",
        "vabil"
      ],
      [
        "oken",
        "izer"
      ],
      [
        "is",
        "h"
      ],
      [
        "is",
        "k"
      ],
      [
        "is",
        "ts"
      ],
      [
        "tion",
        "s"
      ],
      [
        "ar",
        "ts"
      ],
      [
        "ar",
        "li"
      ],
      [
        "es",
        "e"
      ],
      [
        "es",
        "tions"
      ],
      [
        "Ġlo",
        "ad"
      ],
      [
        "ro",
        "py"
      ],
      [
        "ĠĠ",
        "Ġ"
      ],
      [
        "ĠĠ",
        "ĠĠĠ"
      ],
      [
        "Ġb",
        "at"
      ],
      [
        "Ġb",
        "ut"
      ],
      [
        "Ġb",
        "ack"
      ],
      [
        "Ġb",
        "ench"
      ],
      [
        "Ġe",
        "duc"
      ],
      [
        "Ġe",
        "mb"
      ],
      [
        "Ġe",
        "arly"
      ],
      [
        "Ġe",
        "arli"
      ],
      [
        "Ġre",
        "pe"
      ],
      [
        "Ġre",
        "duc"
      ],
      [
        "Ġre",
        "ads"
      ],
      [
        "Ġre",
        "min"
      ],
      [
        "at",
        "s"
      ],
      [
        "an",
        "s"
      ],
      [
        "le",
        "vel"
      ],
      [
        "ed",
        "ding"
      ],
      [
        "Ġtoken",
        "iz"
      ],
      [
        "Ġpro",
        "se"
      ],
      [
        "Ġpro",
        "ces"
      ],
      [
        "Ġpro",
        "gra"
      ],
      [
        "ct",
        "uation"
      ],
      [
        "Ġd",
        "ty"
      ],
      [
        "Ġd",
        "ist"
      ],
      [
        "Ġd",
        "isk"
      ],
      [
        "Ġex",
        "ists"
      ],
      [
        "ul",
        "es"
      ],
      [
        "Ġw",
        "as"
      ],
      [
        "Ġw",
        "eak"
      ],
      [
        "Ġse",
        "cre"
      ],
      [
        "Ġst",
        "arts"
      ],
      [
        "iz",
        "ed"
      ],
      [
        "mal",
        "ized"
      ],
      [
        "pe",
        "ration"
      ],
      [
        "Ġg",
        "oal"
      ],
      [
        "Ġo",
        "ver"
      ],
      [
        "Ġo",
        "bs"
      ],
      [
        "Ġo",
        "ften"
      ],
      [
        "Ġo",
        "peration"
      ],
      [
        "Ġr",
        "ight"
      ],
      [
        "Ġr",
        "ule"
      ],
      [
        "Ġr",
        "ules"
      ],
      [
        "Ġte",
        "st"
      ],
      [
        "Ġcon",
        "ver"
      ],
      [
        "Ġcon",
        "ce"
      ],
      [
        "Ġcon",
        "nect"
      ],
      [
        "Ġcon",
        "tain"
      ],
      [
        "Ġbe",
        "co"
      ],
      [
        "Ġbe",
        "ha"
      ],
      [
        "Ġbe",
        "caus"
      ],
      [
        "Ġbe",
        "fore"
      ],
      [
        "ation",
        "al"
      ],
      [
        "ch",
        "ine"
      ],
      [
        "lo",
        "ss"
      ],
      [
        "ĊĠĠ",
        "ĠĠĠĠĠ"
      ],
      [
        "Ġ\"",
        "<"
      ],
      [
        "Ġ\"",
        "__"
      ],
      [
        "Ġi",
        "f"
      ],
      [
        "Ġi",
        "deas"
      ],
      [
        "Ġv",
        "ect"
      ],
      [
        "Ġv",
        "ery"
      ],
      [
        "Ġco",
        "py"
      ],
      [
        "Ġco",
        "pied"
      ],
      [
        "Ġfor",
        "ward"
      ],
      [
        "Ġmodel",
        "ing"
      ],
      [
        "po",
        "se"
      ],
      [
        "ri",
        "ght"
      ],
      [
        "Ġin",
        "put"
      ],
      [
        "Ġin",
        "tention"
      ],
      [
        "Ġin",
        "form"
      ],
      [
        "Ġin",
        "cl"
      ],
      [
        "Ġfi",
        "le"
      ],
      [
        "Ġlog",
        "s"
      ],
      [
        "Ġlog",
        "it"
      ],
      [
        "Ġlog",
        "ged"
      ],
      [
        "st",
        "r"
      ],
      [
        "Ġde",
        "mo"
      ],
      [
        "Ġde",
        "coder"
      ],
      [
        "Ġde",
        "bu"
      ],
      [
        "Ġint",
        "ake"
      ],
      [
        "Ġsa",
        "me"
      ],
      [
        "Ġsa",
        "ved"
      ],
      [
        "Ġcle",
        "arly"
      ],
      [
        "__",
        "\":"
      ],
      [
        "ap",
        "es"
      ],
      [
        "ap",
        "pen"
      ],
      [
        "me",
        "mory"
      ],
      [
        "mm",
        "ing"
      ],
      [
        "Ġ`",
        "(`,"
      ],
      [
        "Ġ`",
        ")`,"
      ],
      [
        "Ġ`",
        ":`,"
      ],
      [
        "Ġ`",
        "=`"
      ],
      [
        "Ġus",
        "es"
      ],
      [
        "Ġus",
        "eful"
      ],
      [
        "rect",
        "nes"
      ],
      [
        "ent",
        "ation"
      ],
      [
        "Ġcor",
        "por"
      ],
      [
        "Ġcor",
        "rectnes"
      ],
      [
        "Ġstay",
        "s"
      ],
      [
        "Ġconte",
        "nt"
      ],
      [
        "rib",
        "ution"
      ],
      [
        "Ġclean",
        "ly"
      ],
      [
        "Ġseparate",
        "ly"
      ],
      [
        "for",
        "ward"
      ],
      [
        "iv",
        "e"
      ],
      [
        "ma",
        "x"
      ],
      [
        "ma",
        "in"
      ],
      [
        "ma",
        "chine"
      ],
      [
        "vi",
        "or"
      ],
      [
        "ĠC",
        "heckpoint"
      ],
      [
        "ĠC",
        "hin"
      ],
      [
        "ĠC",
        "orpus"
      ],
      [
        "Ġh",
        "ighe"
      ],
      [
        "Ġh",
        "uge"
      ],
      [
        "Ġh",
        "appen"
      ],
      [
        "Ġhe",
        "lp"
      ],
      [
        "Ġun",
        "nor"
      ],
      [
        "Ġsh",
        "apes"
      ],
      [
        "ort",
        "ant"
      ],
      [
        "Ġle",
        "ft"
      ],
      [
        "Ġme",
        "ant"
      ],
      [
        "Ġme",
        "tad"
      ],
      [
        "Ġme",
        "ans"
      ],
      [
        "Ġrelo",
        "aded"
      ],
      [
        "Ġproduc",
        "e"
      ],
      [
        "Ġproduc",
        "es"
      ],
      [
        "Ġproduc",
        "ed"
      ],
      [
        "Ġdo",
        "wnlo"
      ],
      [
        "Ġdirect",
        "ly"
      ],
      [
        "Ġexp",
        "li"
      ],
      [
        "Ġexp",
        "ress"
      ],
      [
        "Ġexp",
        "erim"
      ],
      [
        "Ġcomp",
        "ute"
      ],
      [
        "Ġcheckpoint",
        "s"
      ],
      [
        "Ġcontext",
        "ual"
      ],
      [
        "Ġsequen",
        "ces"
      ],
      [
        "Lo",
        "ss"
      ],
      [
        "Lo",
        "gits"
      ],
      [
        "ep",
        "s"
      ],
      [
        "ha",
        "pe"
      ],
      [
        "ns",
        "form"
      ],
      [
        "Ġ=",
        "="
      ],
      [
        "ĠS",
        "ynthetic"
      ],
      [
        "ĠS",
        "eed"
      ],
      [
        "ĠT",
        "raining"
      ],
      [
        "ĠT",
        "okenizer"
      ],
      [
        "Ġqu",
        "ality"
      ],
      [
        "Ġqu",
        "estions"
      ],
      [
        "Ġat",
        "tention"
      ],
      [
        "Ġat",
        "tend"
      ],
      [
        "Ġpatter",
        "n"
      ],
      [
        "Ġpatter",
        "ns"
      ],
      [
        "Ġpredi",
        "ct"
      ],
      [
        "Ġpredi",
        "ction"
      ],
      [
        "Ġmix",
        "es"
      ],
      [
        "Ġmix",
        "ed"
      ],
      [
        "Ġlow",
        "er"
      ],
      [
        "Ġres",
        "umab"
      ],
      [
        "Ġres",
        "hape"
      ],
      [
        "Ġrepres",
        "ented"
      ],
      [
        "Ġrepres",
        "entation"
      ],
      [
        "Ġprobabil",
        "ity"
      ],
      [
        "Ġprobabil",
        "iti"
      ],
      [
        "Ġout",
        "put"
      ],
      [
        "Ġite",
        "m"
      ],
      [
        "Ġite",
        "ration"
      ],
      [
        "Ġcomm",
        "on"
      ],
      [
        "Ġcomm",
        "it"
      ],
      [
        "Ġdescrib",
        "e"
      ],
      [
        "Ġdescrib",
        "ed"
      ],
      [
        "Ġneed",
        "s"
      ],
      [
        "Ġcompa",
        "res"
      ],
      [
        "Ġcompa",
        "red"
      ],
      [
        "23",
        "45"
      ],
      [
        "Cro",
        "ss"
      ],
      [
        "Cur",
        "rent"
      ],
      [
        "Checkpoint",
        "ing"
      ],
      [
        "Ea",
        "ch"
      ],
      [
        "En",
        "gl"
      ],
      [
        "Ev",
        "en"
      ],
      [
        "Ex",
        "ample"
      ],
      [
        "Imp",
        "ortant"
      ],
      [
        "Ke",
        "y"
      ],
      [
        "Pur",
        "pose"
      ],
      [
        "Use",
        "ful"
      ],
      [
        "cit",
        "ly"
      ],
      [
        "emp",
        "ty"
      ],
      [
        "gg",
        "ing"
      ],
      [
        "gm",
        "ents"
      ],
      [
        "igu",
        "ity"
      ],
      [
        "mar",
        "k"
      ],
      [
        "pro",
        "pag"
      ],
      [
        "predi",
        "ct"
      ],
      [
        "Ġon",
        "e"
      ],
      [
        "Ġra",
        "w"
      ],
      [
        "Ġer",
        "ror"
      ],
      [
        "Ġent",
        "ropy"
      ],
      [
        "Ġke",
        "eps"
      ],
      [
        "ĠDe",
        "coder"
      ],
      [
        "ĠEdu",
        "Code"
      ],
      [
        "Ġzer",
        "o"
      ],
      [
        "Ġsti",
        "ll"
      ],
      [
        "Ġscal",
        "e"
      ],
      [
        "Ġsimp",
        "le"
      ],
      [
        "Ġsoft",
        "max"
      ],
      [
        "Ġsumm",
        "ary"
      ],
      [
        "Ġsymb",
        "ols"
      ],
      [
        "Ġtra",
        "nsform"
      ],
      [
        "Ġtho",
        "se"
      ],
      [
        "Ġturn",
        "s"
      ],
      [
        "Ġamb",
        "iguity"
      ],
      [
        "Ġappe",
        "ar"
      ],
      [
        "Ġcra",
        "shing"
      ],
      [
        "Ġcap",
        "ture"
      ],
      [
        "Ġchara",
        "cter"
      ],
      [
        "describ",
        "e"
      ],
      [
        "Ġlay",
        "ers"
      ],
      [
        "Ġlengt",
        "h"
      ],
      [
        "Ġfra",
        "gments"
      ],
      [
        "Ġflo",
        "at"
      ],
      [
        "Ġfrequ",
        "ent"
      ],
      [
        "Ġpun",
        "ctuation"
      ],
      [
        "Ġpri",
        "vate"
      ],
      [
        "Ġmer",
        "ge"
      ],
      [
        "Ġmini",
        "mal"
      ],
      [
        "Ġmater",
        "ial"
      ],
      [
        "ervabil",
        "ity"
      ],
      [
        "Ġbat",
        "ch"
      ],
      [
        "Ġback",
        "propag"
      ],
      [
        "Ġbench",
        "mark"
      ],
      [
        "Ġeduc",
        "ational"
      ],
      [
        "Ġemb",
        "edding"
      ],
      [
        "Ġearli",
        "er"
      ],
      [
        "Ġrepe",
        "ats"
      ],
      [
        "Ġreduc",
        "es"
      ],
      [
        "Ġremin",
        "ders"
      ],
      [
        "Ġtokeniz",
        "ation"
      ],
      [
        "Ġproces",
        "sing"
      ],
      [
        "Ġprogra",
        "mming"
      ],
      [
        "Ġdty",
        "pe"
      ],
      [
        "Ġdist",
        "ribution"
      ],
      [
        "Ġwas",
        "te"
      ],
      [
        "Ġsecre",
        "ts"
      ],
      [
        "Ġgoal",
        "s"
      ],
      [
        "Ġobs",
        "ervability"
      ],
      [
        "Ġoperation",
        "al"
      ],
      [
        "Ġconver",
        "ts"
      ],
      [
        "Ġconce",
        "pts"
      ],
      [
        "Ġconnect",
        "s"
      ],
      [
        "Ġcontain",
        "s"
      ],
      [
        "Ġbeco",
        "me"
      ],
      [
        "Ġbeha",
        "vior"
      ],
      [
        "Ġbecaus",
        "e"
      ],
      [
        "Ġvect",
        "ors"
      ],
      [
        "Ġcopy",
        "right"
      ],
      [
        "Ġintention",
        "ally"
      ],
      [
        "Ġinform",
        "ation"
      ],
      [
        "Ġincl",
        "ude"
      ],
      [
        "Ġdebu",
        "gging"
      ],
      [
        "Ġcorpor",
        "a"
      ],
      [
        "Ġcorrectnes",
        "s"
      ],
      [
        "ĠChin",
        "ese"
      ],
      [
        "Ġhighe",
        "r"
      ],
      [
        "Ġhappen",
        "s"
      ],
      [
        "Ġhelp",
        "s"
      ],
      [
        "Ġunnor",
        "malized"
      ],
      [
        "Ġmetad",
        "ata"
      ],
      [
        "Ġdownlo",
        "ads"
      ],
      [
        "Ġexpli",
        "citly"
      ],
      [
        "Ġexpress",
        "ive"
      ],
      [
        "Ġexperim",
        "ent"
      ],
      [
        "Ġresumab",
        "le"
      ],
      [
        "Ġprobabiliti",
        "es"
      ],
      [
        "Engl",
        "ish"
      ],
      [
        "Ġtransform",
        "er"
      ],
      [
        "Ġbackpropag",
        "ate"
      ],
      [
        "Ġembedding",
        "s"
      ]
    ]
  }
}