{"<pad>":0,"<bos>":1,"<eos>":2,"<unk>":3,"!":4,"\"":5,"#":6,"$":7,"%":8,"&":9,"'":10,"(":11,")":12,"*":13,"+":14,",":15,"-":16,".":17,"/":18,"0":19,"1":20,"2":21,"3":22,"4":23,"5":24,"6":25,"7":26,"8":27,"9":28,":":29,";":30,"<":31,"=":32,">":33,"?":34,"@":35,"A":36,"B":37,"C":38,"D":39,"E":40,"F":41,"G":42,"H":43,"I":44,"J":45,"K":46,"L":47,"M":48,"N":49,"O":50,"P":51,"Q":52,"R":53,"S":54,"T":55,"U":56,"V":57,"W":58,"X":59,"Y":60,"Z":61,"[":62,"\\":63,"]":64,"^":65,"_":66,"`":67,"a":68,"b":69,"c":70,"d":71,"e":72,"f":73,"g":74,"h":75,"i":76,"j":77,"k":78,"l":79,"m":80,"n":81,"o":82,"p":83,"q":84,"r":85,"s":86,"t":87,"u":88,"v":89,"w":90,"x":91,"y":92,"z":93,"{":94,"|":95,"}":96,"~":97,"¡":98,"¢":99,"£":100,"¤":101,"¥":102,"¦":103,"§":104,"¨":105,"©":106,"ª":107,"«":108,"¬":109,"®":110,"¯":111,"°":112,"±":113,"²":114,"³":115,"´":116,"µ":117,"¶":118,"·":119,"¸":120,"¹":121,"º":122,"»":123,"¼":124,"½":125,"¾":126,"¿":127,"À":128,"Á":129,"Â":130,"Ã":131,"Ä":132,"Å":133,"Æ":134,"Ç":135,"È":136,"É":137,"Ê":138,"Ë":139,"Ì":140,"Í":141,"Î":142,"Ï":143,"Ð":144,"Ñ":145,"Ò":146,"Ó":147,"Ô":148,"Õ":149,"Ö":150,"×":151,"Ø":152,"Ù":153,"Ú":154,"Û":155,"Ü":156,"Ý":157,"Þ":158,"ß":159,"à":160,"á":161,"â":162,"ã":163,"ä":164,"å":165,"æ":166,"ç":167,"è":168,"é":169,"ê":170,"ë":171,"ì":172,"í":173,"î":174,"ï":175,"ð":176,"ñ":177,"ò":178,"ó":179,"ô":180,"õ":181,"ö":182,"÷":183,"ø":184,"ù":185,"ú":186,"û":187,"ü":188,"ý":189,"þ":190,"ÿ":191,"Ā":192,"ā":193,"Ă":194,"ă":195,"Ą":196,"ą":197,"Ć":198,"ć":199,"Ĉ":200,"ĉ":201,"Ċ":202,"ċ":203,"Č":204,"č":205,"Ď":206,"ď":207,"Đ":208,"đ":209,"Ē":210,"ē":211,"Ĕ":212,"ĕ":213,"Ė":214,"ė":215,"Ę":216,"ę":217,"Ě":218,"ě":219,"Ĝ":220,"ĝ":221,"Ğ":222,"ğ":223,"Ġ":224,"ġ":225,"Ģ":226,"ģ":227,"Ĥ":228,"ĥ":229,"Ħ":230,"ħ":231,"Ĩ":232,"ĩ":233,"Ī":234,"ī":235,"Ĭ":236,"ĭ":237,"Į":238,"į":239,"İ":240,"ı":241,"Ĳ":242,"ĳ":243,"Ĵ":244,"ĵ":245,"Ķ":246,"ķ":247,"ĸ":248,"Ĺ":249,"ĺ":250,"Ļ":251,"ļ":252,"Ľ":253,"ľ":254,"Ŀ":255,"ŀ":256,"Ł":257,"ł":258,"Ń":259,"in":260,"at":261,"on":262,"Ġt":263,"Ġs":264,"ĠĠ":265,"or":266,"en":267,"er":268,"al":269,"Ġc":270,"es":271,"Ġa":272,"he":273,"ion":274,"ed":275,"Ġl":276,"Ġm":277,"Ġi":278,"ing":279,"Ġp":280,"re":281,"ro":282,"ar":283,"an":284,"Ġb":285,"it":286,"ct":287,"Ġd":288,"le":289,"Ġf":290,"ex":291,"ation":292,"Ġthe":293,"ra":294,"os":295,"Ġst":296,"##":297,"Ġis":298,"ĊĠĠ":299,"us":300,"ut":301,"ent":302,"mp":303,"Ġn":304,"Ġw":305,"id":306,"Ġto":307,"de":308,"ot":309,"Ġv":310,"Ġo":311,"Ġr":312,"Ġin":313,"ic":314,"st":315,"oss":316,"rain":317,"iz":318,"un":319,"Ġex":320,"et":321,"Ġre":322,"ly":323,"ĊĠĠĠ":324,"ect":325,"ab":326,"ep":327,"Ġtrain":328,"Ġcon":329,"Ġval":330,"im":331,"ul":332,"ken":333,"Ġan":334,"ad":335,"Ġloss":336,"Ġfor":337,"ode":338,"ke":339,"Ġcor":340,"Ġlo":341,"il":342,"ĠĠĠĠ":343,"Ġma":344,"odel":345,"ck":346,"Ġsm":347,"ch":348,"Ġe":349,"Ġpro":350,"um":351,"Ġcan":352,"Ġand":353,"pus":354,"Ġbe":355,"mple":356,"idation":357,"Ġmodel":358,"ath":359,"Ġnot":360,"is":361,"Ġcorpus":362,"__":363,"hat":364,"ter":365,"Ġ=":366,"ext":367,"as":368,"ce":369,"ject":370,"ãĢ":371,"ä¸":372,"Ġon":373,"ate":374,"Ġtraining":375,"Ġcont":376,"ve":377,"int":378,"lo":379,"ur":380,"Ġof":381,"pe":382,"Ġg":383,"Ġexp":384,"ig":385,"Ġ-":386,"ĠS":387,"ort":388,"Ġtoken":389,"Ġvalidation":390,"Ġdo":391,"ample":392,"ĊĠĠĠĠĠĠ":393,"for":394,"qu":395,"è¯":396,"ĠN":397,"Ġsy":398,"all":399,"est":400,"het":401,"Ġit":402,"ity":403,"uc":404,"Ġh":405,"izer":406,"ful":407,"to":408,"Ġrun":409,"able":410,"nt":411,"ary":412,"ãĢĤ":413,"Ġ->":414,"Ġhe":415,"ata":416,"ge":417,"hy":418,"ist":419,"pl":420,"Ġus":421,"ine":422,"Ġsh":423,"heck":424,"ans":425,"Ġstep":426,"hetic":427,"nthetic":428,"oke":429,"Ġpr":430,"ard":431,"ĊĠĠĠĠĠĠĠ":432,"``":433,"po":434,"ver":435,"ĠT":436,"atch":437,"Ġsynthetic":438,"aut":439,"cal":440,"Ġse":441,"Ġexample":442,"Ġsmoke":443,"plit":444,"\")":445,"am":446,"led":447,"oun":448,"tim":449,"Ġ\"":450,"ĠW":451,"educ":452,"It":453,"om":454,"çļ":455,"Ġor":456,"Ġth":457,"Ġme":458,"rol":459,"umm":460,"Ġcontrol":461,"çļĦ":462,"if":463,"ict":464,"ĊĊ":465,"Ġle":466,"Ġimp":467,"otes":468,"Ġop":469,"ize":470,"ĠNotes":471,"(\"":472,"Pro":473,"hor":474,"Ġeduc":475,"atter":476,"Ġsplit":477,"ess":478,"Ġas":479,"rom":480,"ational":481,"Ġsmall":482,"heckpo":483,"author":484,"Ġeducational":485,"heckpoint":486,"authored":487,"\":":488,"Ġ/":489,"ong":490,"end":491,"Ġpath":492,"ition":493,"ummary":494,"Project":495,"ow":496,"ure":497,"æĺ":498,"ç»":499,"ore":500,"arn":501,"ith":502,"ization":503,"Ġexpans":504,"ĠSummary":505,"Ġuse":506,"Ġcontrolled":507,"Ġoptim":508,"Ġexpansion":509,"()":510,"The":511,"loss":512,"pp":513,"ï¼":514,"ĠC":515,"ĠP":516,"Ġqu":517,"osition":518,"Ġwh":519,"Ġlog":520,"th":521,"tent":522,"ward":523,"æĸ":524,"è®":525,"iny":526,"Ġare":527,"Ġde":528,"ents":529,"token":530,"tention":531,"der":532,"oc":533,"Ġ`":534,"Ġthat":535,"Ġdata":536,"Ġres":537,"Ġdoes":538,"form":539,"Ġuseful":540,"That":541,"ding":542,"line":543,"out":544,"text":545,"vi":546,"å¤":547,"Ġat":548,"orm":549,"ence":550,"Ġmatter":551,"Ġmore":552,"Ġposition":553,"Ġboun":554,"its":555,"rad":556,"def":557,"Ġproject":558,"Ġhel":559,"ĠWhy":560,"Ġlearn":561,"ded":562,"ive":563,"ä»":564,"ä¼":565,"å®":566,"åĪ":567,"åı":568,"Ġal":569,"Ġtiny":570,"eng":571,"ens":572,"Ġif":573,"rect":574,"Ġbatch":575,"Ġstr":576,"Ġwith":577,"ical":578,"Ġonly":579,"Ġimport":580,"ain":581,"age":582,"eed":583,"ff":584,"ha":585,"mor":586,"æľ":587,"Ġtest":588,"Ġco":589,"str":590,"Ġmain":591,"urn":592,"Ġgo":593,"ign":594,"ï¼Į":595,"Ġbounded":596,"radi":597,"In":598,"ay":599,"cor":600,"ds":601,"ib":602,"mb":603,"put":604,"ue":605,"val":606,"ves":607,"Ġ__":608,"one":609,"Ġsu":610,"Ġpar":611,"Ġlocal":612,"ility":613,"Ġprint":614,"```":615,"Ġthan":616,"ach":617,"ile":618,"path":619,"ting":620,"ers":621,"Ġcheckpoint":622,"Ġlist":623,"Ġlong":624,"ations":625,"ability":626,"ame":627,"Ġoptimizer":628,"æĸĩ":629,"Ġattention":630,"Ġhelp":631,"ä¼ļ":632,"from":633,"get":634,"ol":635,"op":636,"ss":637,"up":638,"æķ":639,"è§":640,"éĩ":641,"ĠE":642,"Ġke":643,"ind":644,"ates":645,"Ġscal":646,"Ġsize":647,"ors":648,"erim":649,"ally":650,"Ġch":651,"Ġlar":652,"Ġpi":653,"ross":654,"ite":655,"Ġstate":656,"Ġint":657,"ill":658,"Ġmay":659,"Ġruns":660,"Ġhead":661,"ormal":662,"Ġmatters":663,"))":664,"10":665,"con":666,"fig":667,"her":668,"ir":669,"li":670,"main":671,"ng":672,"not":673,"ten":674,"ved":675,"¨¡":676,"ªĮ":677,"ä¹":678,"ä¿":679,"æį":680,"æ¨¡":681,"éªĮ":682,"Ġ{":683,"Ġtr":684,"ality":685,"edict":686,"edding":687,"and":688,"Ġbut":689,"Ġfrom":690,"Ġstable":691,"ust":692,"Ġwor":693,"Ġinto":694,"Ġrep":695,"ime":696,"ult":697,"Ġcorrect":698,"Ġbec":699,"ãĢģ":700,"ä¸Ģ":701,"ä¸Ń":702,"load":703,"Ġoften":704,"peline":705,"Ġtokenizer":706,"quence":707,"Ġsha":708,"Ġmemor":709,"ocab":710,"åĪĨ":711,"ength":712,"radient":713,"mbedding":714,"ak":715,"ack":716,"min":717,"run":718,"train":719,"turn":720,"ug":721,"wn":722,"®æ":723,"ĠA":724,"ĠG":725,"Ġ[":726,"Ġup":727,"įå":728,"įç":729,"Ńç»":730,"Ġset":731,"Ġac":732,"Ġstill":733,"uture":734,"Ġwe":735,"Ġwr":736,"etad":737,"Ġreturn":738,"Ġmake":739,"Ġeas":740,"Ġbeha":741,"ish":742,"ass":743,"Ġone":744,"Ġcontext":745,"Ġexperim":746,"forward":747,"Ġpredict":748,"Ġsequence":749,"amet":750,"æĺİ":751,"Ġquality":752,"è®Ńç»":753,"Ġcomp":754,"æķ°":755,"Ġkeep":756,"indow":757,"Ġpipeline":758,"100":759,"etadata":760,"è®Ńç»ĥ":761,"Val":762,"act":763,"cl":764,"co":765,"ew":766,"js":767,"les":768,"lish":769,"pect":770,"´æĺİ":771,"äº":772,"æŃ":773,"è¡":774,"è¿":775,"Ġ1":776,"ĠL":777,"Ġæ":778,"Ġun":779,"ated":780,"Ġsi":781,"Ġcur":782,"Ġmis":783,"ingful":784,"row":785,"aned":786,"ance":787,"aningful":788,"ctical":789,"Ġdi":790,"Ġdict":791,"leaned":792,"Ġfin":793,"ractical":794,"ose":795,"Ġnext":796,"Ġnormal":797,"Ġvocab":798,"Ġinform":799,"step":800,"Ġrecor":801,"uld":802,"Ġeach":803,"Ġ==":804,"lock":805,"igh":806,"ĠSm":807,"Ġdown":808,"è¯´æĺİ":809,"ĠNone":810,"Ġthis":811,"æĺ¯":812,"ç»ĵ":813,"Ġwhen":814,"Ġlearning":815,"nglish":816,"æ¨¡å":817,"Ġwork":818,"ä¸Ńæĸĩ":819,"Validation":820,"json":821,"\",":822,"aus":823,"ail":824,"app":825,"cum":826,"fit":827,"ger":828,"ix":829,"ms":830,"mon":831,"name":832,"od":833,"ould":834,"res":835,"ts":836,"ven":837,"£Ģ":838,"å°":839,"å¾":840,"åľ":841,"æŁ":842,"ĥ½":843,"Ļ¨":844,"ŀĭ":845,"ater":846,"Ġsa":847,"Ġar":848,"Ġact":849,"Ġlater":850,"Ġpre":851,"Ġblock":852,"Ġdep":853,"Ġfeed":854,"Ġstage":855,"ution":856,"Ġno":857,"Ġnum":858,"ids":859,"idate":860,"Ġout":861,"Ġinter":862,"Ġreload":863,"Ġembedding":864,"Ġprob":865,"Ġprove":866,"__\":":867,"loat":868,"Ġtokens":869,"è¯ģ":870,"Ġhand":871,"verfit":872,"ount":873,"Ġ\"__":874,"ĠWhat":875,"ommon":876,"Ġoptimization":877,"ĠPath":878,"ĠPractical":879,"Ġlogits":880,"tokenizer":881,"vior":882,"Ġprojection":883,"åı¯":884,"Ġparamet":885,"Ġlonger":886,"éĩį":887,"éªĮè¯ģ":888,"Ġbecom":889,"Ġupd":890,"Ġacross":891,"Ġbehavior":892,"£ĢæŁ":893,"£ĢæŁ¥":894,"For":895,"If":896,"PU":897,"]:":898,"amp":899,"ec":900,"el":901,"fter":902,"ip":903,"ment":904,"se":905,"sk":906,"uce":907,"uff":908,"®µ":909,"¶æ":910,"æİ":911,"æ£ĢæŁ¥":912,"è¦":913,"è¾":914,"éĢ":915,"éĺ":916,"ĠB":917,"ĠD":918,"Ġen":919,"ery":920,"Ġcheck":921,"Ġcli":922,"Ġline":923,"ant":924,"any":925,"Ġby":926,"Ġdat":927,"Ġob":928,"ste":929,"ulary":930,"Ġlow":931,"Ġloop":932,"ĠĠĠĠĠ":933,"Ġmask":934,"Ġbefor":935,"low":936,"Ġdocum":937,"Ġmeaningful":938,"Ġimpro":939,"losses":940,"pping":941,"Ġresult":942,"ä»¥":943,"æľ¬":944,"Ġgoal":945,"Ġgood":946,"Ġhelps":947,"Ġscale":948,"config":949,"ä¿Ŀ":950,"Ġshape":951,"Ġeasi":952,"Ġsimple":953,"Ġvocabulary":954,"ĠSmall":955,"æ¨¡åŀĭ":956,"Ġdepend":957,"Ġfeedforward":958,"Ġnumb":959,"Ġbefore":960,"):":961,"=\"":962,"Th":963,"ap":964,"are":965,"fer":966,"future":967,"ging":968,"iv":969,"length":970,"pre":971,"ric":972,"tif":973,"uil":974,"ually":975,"window":976,"´ç":977,"¸¸":978,"»ç»ĵ":979,"å½":980,"åŃ":981,"å¸¸":982,"æĽ":983,"æĿ":984,"æŀ":985,"çİ":986,"çĽ":987,"èĥ½":988,"Ġ0":989,"ĠR":990,"Ġj":991,"Ġä¸Ńæĸĩ":992,"Ģ»ç»ĵ":993,"ģæ":994,"Ĥ¹":995,"łĩ":996,"ative":997,"Ġtext":998,"Ġtable":999,"Ġsign":1000,"ering":1001,"Ġcleaned":1002,"Ġcount":1003,"educe":1004,"Ġmo":1005,"Ġide":1006,"Ġpatter":1007,"Ġbot":1008,"Ġdet":1009,"Ġstability":1010,"Ġwhy":1011,"Ġtoo":1012,"Ġrate":1013,"Ġreduce":1014,"etime":1015,"etric":1016,"Ġvalue":1017,"Ġvalidate":1018,"Ġannot":1019,"Ġlosses":1020,"Ġforward":1021,"è¯įå":1022,"Ġshort":1023,"Ġshould":1024,"very":1025,"Ġwhile":1026,"view":1027,"å®ŀ":1028,"ayer":1029,"value":1030,"ĠEnglish":1031,"Ġlarge":1032,"Ġlarger":1033,"irst":1034,"Ġrepres":1035,"Ġmemory":1036,"åĪĨè¯įå":1037,"ugh":1038,"Ġexperiment":1039,"æķ°æį":1040,"coder":1041,"è¡Į":1042,"ĠæĢ»ç»ĵ":1043,"Ġnormalization":1044,"Ġinformation":1045,"Ġrecord":1046,"append":1047,"å°ı":1048,"Ġartif":1049,"Ġoutput":1050,"Ġbecomes":1051,"éĢļ":1052,"Ġnumber":1053,"Ġpattern":1054,"Ġannotations":1055,"Ġrepresent":1056,"åĪĨè¯įåĻ¨":1057,")`":1058,"PE":1059,"With":1060,"cess":1061,"den":1062,"model":1063,"metric":1064,"ness":1065,"ough":1066,"pes":1067,"ppe":1068,"rent":1069,"rib":1070,"rors":1071,"sh":1072,"so":1073,"sing":1074,"ttention":1075,"uct":1076,"ule":1077,"ump":1078,"©ç":1079,"½®":1080,"ä½":1081,"åº":1082,"åħ":1083,"åĬ":1084,"åĮ":1085,"åĲ":1086,"æ³":1087,"ç¡":1088,"çĤ¹":1089,"ĠM":1090,"Ġer":1091,"Ġro":1092,"Ġeng":1093,"Ģ¼":1094,"łģ":1095,"inst":1096,"only":1097,"Ġtar":1098,"Ġturn":1099,"Ġsep":1100,"Ġsuc":1101,"Ġsame":1102,"Ġafter":1103,"Ġappe":1104,"Ġlength":1105,"Ġmust":1106,"Ġmetadata":1107,"Ġmany":1108,"Ġpass":1109,"ared":1110,"arly":1111,"arrow":1112,"ang":1113,"ange":1114,"Ġbro":1115,"Ġbet":1116,"Ġback":1117,"Ġbuil":1118,"Ġdes":1119,"Ġdim":1120,"Ġdist":1121,"raw":1122,"Ġisinst":1123,"mport":1124,"Ġneed":1125,"Ġnarrow":1126,"Ġwhet":1127,"idden":1128,"Ġvery":1129,"Ġrule":1130,"Ġinput":1131,"Ġexamp":1132,"Ġexec":1133,"Ġremin":1134,"Ġreview":1135,"ection":1136,"Ġconf":1137,"Ġcons":1138,"Ġvalu":1139,"Ġevery":1140,"Ġprof":1141,"Ġcannot":1142,"pec":1143,"Ġgen":1144,"Ġgradient":1145,"ĊĠĠĠĠĠĠĠĠĠĠĠ":1146,"Ġhard":1147,"ineering":1148,"ansform":1149,"Ġsteps":1150,"ĠTo":1151,"Ġsees":1152,"\"),":1153,"iffer":1154,"Ġass":1155,"ï¼ļ":1156,"ĠCheckpoint":1157,"ĠCommon":1158,"Ġdecoder":1159,"Ġ`(":1160,"Ġlearned":1161,"Ġalso":1162,"ension":1163,"Ġtests":1164,"ible":1165,"Ġsub":1166,"Ġpart":1167,"ä¼ļæ":1168,"è§Ħ":1169,"Ġcho":1170,"Ġheads":1171,"Ġcorrectness":1172,"training":1173,"®æłĩ":1174,"ĠGPU":1175,"Ġ[]":1176,"įç½®":1177,"Ġwrong":1178,"Ġwrite":1179,"äºİ":1180,"Ġcurrent":1181,"Ġfinite":1182,"åľ¨":1183,"Ġactiv":1184,"Ġprobability":1185,"Ġhandle":1186,"verfitting":1187,"Ġparameters":1188,"uffled":1189,"¶æ®µ":1190,"æİ©ç":1191,"è¦ģ":1192,"éĺ¶æ®µ":1193,"Ġenough":1194,"Ġclipping":1195,"Ġdatetime":1196,"Ġeasier":1197,"æĽ´":1198,"æŀľ":1199,"çĽ®æłĩ":1200,"Ġsignal":1201,"Ġidea":1202,"Ġboth":1203,"Ġartifact":1204,"ribution":1205,"Ġerrors":1206,"Ġengineering":1207,"Ġtarget":1208,"Ġturns":1209,"Ġsepar":1210,"Ġappear":1211,"Ġdimension":1212,"Ġisinstance":1213,"Ġwhether":1214,"Ġexamples":1215,"Ġreminder":1216,"ifferent":1217,"æİ©çłģ":1218,"Gradient":1219,"On":1220,"Why":1221,"],":1222,"ac":1223,"ax":1224,"ake":1225,"ace":1226,"cre":1227,"cent":1228,"doc":1229,"emor":1230,"float":1231,"gr":1232,"hared":1233,"mo":1234,"max":1235,"ok":1236,"ous":1237,"py":1238,"pical":1239,"size":1240,"spect":1241,"ty":1242,"ude":1243,"uch":1244,"ving":1245,"vid":1246,"ware":1247,"ypical":1248,"¦Ĥ":1249,"°´ç":1250,"µģæ":1251,"º¿":1252,"å·":1253,"åĩ":1254,"åī":1255,"åİ":1256,"åĢ¼":1257,"å¦Ĥ":1258,"æĦ":1259,"æī":1260,"æĹ":1261,"çķ":1262,"è¶":1263,"è½":1264,"ĊĠ":1265,"Ġ+":1266,"Ġ|":1267,"ĠValidation":1268,"ĴĮ":1269,"Ġtens":1270,"Ġsc":1271,"Ġso":1272,"Ġcap":1273,"espec":1274,"Ġav":1275,"Ġaff":1276,"Ġlab":1277,"Ġless":1278,"Ġmil":1279,"Ġmatch":1280,"Ġid":1281,"Ġids":1282,"Ġpl":1283,"ropy":1284,"ari":1285,"Ġfuture":1286,"Ġfix":1287,"Ġfloat":1288,"Ġfirst":1289,"example":1290,"ost":1291,"Ġstor":1292,"Ġstar":1293,"Ġstack":1294,"Ġne":1295,"Ġwindow":1296,"Ġvect":1297,"Ġrange":1298,"Ġincl":1299,"Ġinspect":1300,"ick":1301,"ices":1302,"Ġrepe":1303,"Ġrepo":1304,"ected":1305,"Ġconfig":1306,"ads":1307,"Ġlook":1308,"Ġmax":1309,"Ġearly":1310,"Ġmodels":1311,"isy":1312,"asic":1313,"ä¸İ":1314,"Ġgu":1315,"Ġsyste":1316,"estion":1317,"Ġits":1318,"Ġhidden":1319,"ists":1320,"Ġuses":1321,"Ġshow":1322,"(\"\\":1323,"Ġsmaller":1324,"pport":1325,"Ġquestion":1326,"Ġlogging":1327,"tokens":1328,"å¤§":1329,"å¤±":1330,"Ġpositions":1331,"Ġheld":1332,"å®ĥ":1333,"Ġbatches":1334,"Ġimportant":1335,"hape":1336,"æľī":1337,"strip":1338,"radients":1339,"Ġsupport":1340,"ä¿¡":1341,"Ġshapes":1342,"Ġsetting":1343,"Ġweak":1344,"Ġweigh":1345,"Ġexperiments":1346,"Ġprediction":1347,"Ġcomput":1348,"Ġkeeps":1349,"class":1350,"æŃ£":1351,"Ġmissing":1352,"Ġdiver":1353,"Ġdirect":1354,"Ġfinal":1355,"steps":1356,"ight":1357,"Ġworks":1358,"jsonl":1359,"ausal":1360,"Ġnoisy":1361,"Ġinterpre":1362,"éĩįè¦ģ":1363,"Ġupdate":1364,"Ġupdates":1365,"ĠBPE":1366,"Ġlower":1367,"Ġdocument":1368,"Ġimprove":1369,"Ġdepends":1370,"æĿ¥":1371,"æķ°æį®æ":1372,"éĢļå¸¸":1373,"Ġpatterns":1374,"Ġbroad":1375,"Ġbetter":1376,"Ġdistribution":1377,"Ġgener":1378,"ansformer":1379,"Ġchoices":1380,"acity":1381,"emory":1382,"°´çº¿":1383,"µģæ°´çº¿":1384,"å¦Ĥæŀľ":1385,"æĦı":1386,"Ġaffect":1387,"Ġlabel":1388,"Ġmilest":1389,"Ġsystems":1390,"Ġweights":1391,"Ġinterpret":1392,"An":1393,"Ex":1394,"English":1395,"LU":1396,"Shared":1397,"Wh":1398,"ast":1399,"aim":1400,"bout":1401,"cy":1402,"cid":1403,"checkpoint":1404,"cleaned":1405,"duc":1406,"earn":1407,"ie":1408,"ient":1409,"ives":1410,"ially":1411,"import":1412,"lin":1413,"len":1414,"ling":1415,"lic":1416,"lib":1417,"laim":1418,"me":1419,"match":1420,"metadata":1421,"now":1422,"norm":1423,"ole":1424,"oid":1425,"pose":1426,"ransformer":1427,"sity":1428,"split":1429,"tion":1430,"ual":1431,"vic":1432,"vents":1433,"we":1434,"wor":1435,"wort":1436,"},":1437,"¨æĦı":1438,"ªçİ":1439,"å¯":1440,"å±":1441,"å¹":1442,"åĽ":1443,"åĴĮ":1444,"æģ":1445,"æĪ":1446,"èĢ":1447,"èĩ":1448,"éħ":1449,"éĻ":1450,"éĽ":1451,"éĿ":1452,"Ġ2":1453,"ĠH":1454,"Ġ}":1455,"Ġent":1456,"ĠIn":1457,"Ġjson":1458,"ĠåĪĨè¯įåĻ¨":1459,"Ġraw":1460,"ĬĬ":1461,"Ķ¨":1462,"Łå¤±":1463,"Ńæĸ":1464,"inal":1465,"Ġte":1466,"Ġtre":1467,"Ġtime":1468,"Ġsection":1469,"ere":1470,"erved":1471,"ermin":1472,"Ġcre":1473,"Ġcode":1474,"Ġcaut":1475,"Ġcausal":1476,"Ġclaim":1477,"Ġad":1478,"Ġag":1479,"Ġabout":1480,"Ġmet":1481,"Ġmuch":1482,"Ġimple":1483,"Ġper":1484,"roduc":1485,"Ġbug":1486,"Ġbasic":1487,"Ġdur":1488,"Ġdifferent":1489,"Ġfile":1490,"Ġfail":1491,"Ġflow":1492,"Ġstates":1493,"Ġisol":1494,"Ġwid":1495,"Ġway":1496,"Ġover":1497,"Ġoverfitting":1498,"Ġreduc":1499,"Ġincre":1500,"ich":1501,"raining":1502,"ets":1503,"Ġremain":1504,"ading":1505,"Ġform":1506,"Ġeven":1507,"Ġevid":1508,"ume":1509,"ument":1510,"Ġnotes":1511,"ask":1512,"jective":1513,"ä¸ª":1514,"ä¸º":1515,"ä¸Ĭ":1516,"ä¸ĭ":1517,"ä¸į":1518,"Ġcontin":1519,"vel":1520,"ural":1521,"Ġgradients":1522,"Ġgives":1523,"è¯į":1524,"è¯Ńæĸ":1525,"Ġhab":1526,"Ġhow":1527,"Ġusually":1528,"verage":1529,"ĠTiny":1530,"ĠTransformer":1531,"Ġ\"\\":1532,"Ġorder":1533,"çļĦç":1534,"çļĦä¸Ģ":1535,"Ġpathlib":1536,"Ġquick":1537,"Ġwhich":1538,"Ġlogs":1539,"Ġlogic":1540,"è®©":1541,"Ġdef":1542,"Ġdevic":1543,"ocus":1544,"Ġlearns":1545,"å®ļ":1546,"Ġalign":1547,"Ġwithout":1548,"æľª":1549,"Ġcoverage":1550,"æĸĩæľ¬":1551,"olved":1552,"è§£":1553,"Ġchang":1554,"ormalization":1555,"ä¹Ī":1556,"ä¹ĭ":1557,"ä¹Ł":1558,"æįŁå¤±":1559,"Ġ{\"":1560,"Ġtrust":1561,"andom":1562,"Ġreproduc":1563,"ulti":1564,"Ġcorrectly":1565,"Ġbecaus":1566,"Ġmemorize":1567,"ĠAttention":1568,"įåĲ":1569,"Ġeasy":1570,"è¡¨":1571,"è¿Ľ":1572,"ĠLo":1573,"Ġunits":1574,"Ġcurves":1575,"Ġmismatch":1576,"Ġinformative":1577,"å¾ªçİ":1578,"åľ°":1579,"Ġsave":1580,"Ġsaved":1581,"Ġprevents":1582,"Ġproble":1583,"åı¯ä»¥":1584,"Ġparameter":1585,"mentation":1586,"æ£ĢæŁ¥çĤ¹":1587,"è¾ĥ":1588,"Ġchecks":1589,"Ġlinear":1590,"Ġobjective":1591,"Ġdocuments":1592,"ä¿ĿåŃ":1593,"This":1594,"Those":1595,"windows":1596,"å½ĵ":1597,"çİ°":1598,"ĠRe":1599,"Ġjust":1600,"Ġmove":1601,"Ġdetail":1602,"Ġrepresentation":1603,"Without":1604,"cessful":1605,"shuffled":1606,"åºĶ":1607,"åĮĸ":1608,"Ġsuccessful":1609,"Ġbackward":1610,"Ġbuild":1611,"Ġdescent":1612,"Ġexecution":1613,"Ġconfir":1614,"Ġvaluable":1615,"Ġprofil":1616,"Ġhardware":1617,"ĠToken":1618,"Ġactivation":1619,"Ġartifacts":1620,"Ġseparate":1621,"document":1622,"gress":1623,"åĩº":1624,"åīį":1625,"è¶³":1626,"Ġcapacity":1627,"Ġvectors":1628,"Ġinclude":1629,"Ġrepeat":1630,"Ġshows":1631,"Ġdiversity":1632,"Ġdirectly":1633,"æķ°æį®æµģæ°´çº¿":1634,"Ġmilestone":1635,"Ġinterpretation":1636,"When":1637,"lines":1638,"worthy":1639,"èĢĮ":1640,"éħįç½®":1641,"éĽĨ":1642,"Ġentropy":1643,"Ġclaims":1644,"Ġduring":1645,"Ġreduces":1646,"Ġincreas":1647,"Ġevidence":1648,"è¯ŃæĸĻ":1649,"Ġquickly":1650,"Ġdevice":1651,"Ġchanges":1652,"Ġtrustworthy":1653,"Ġbecause":1654,"å¾ªçİ¯":1655,"ä¿ĿåŃĺ":1656,"\"]":1657,"),":1658,".\")":1659,"42":1660,"After":1661,"Attention":1662,"Checkpoint":1663,"Cross":1664,"Common":1665,"Different":1666,"Each":1667,"Even":1668,"GPU":1669,"Import":1670,"Lar":1671,"Metadata":1672,"Many":1673,"Memory":1674,"Multi":1675,"Normalization":1676,"Oth":1677,"Overfit":1678,"Overfitting":1679,"Sy":1680,"Typical":1681,"])":1682,"bo":1683,"batch":1684,"ced":1685,"cep":1686,"count":1687,"dex":1688,"data":1689,"dict":1690,"ee":1691,"eat":1692,"ft":1693,"fra":1694,"first":1695,"gn":1696,"gits":1697,"grad":1698,"gime":1699,"ho":1700,"hra":1701,"ire":1702,"iew":1703,"lat":1704,"list":1705,"lse":1706,"layer":1707,"ments":1708,"ning":1709,"nected":1710,"ob":1711,"oform":1712,"off":1713,"ool":1714,"ps":1715,"per":1716,"perim":1717,"rite":1718,"rip":1719,"sw":1720,"ses":1721,"sid":1722,"shape":1723,"served":1724,"te":1725,"ted":1726,"ud":1727,"uition":1728,"uage":1729,"vocab":1730,"wo":1731,"way":1732,"write":1733,"yle":1734,"}\")":1735,"¡ç":1736,"¢«":1737,"¤äº":1738,"¦»":1739,"§ĭ":1740,"§è¡Į":1741,"¨³":1742,"«ĺ":1743,"¬ä»":1744,"¬æį":1745,"®Ĺ":1746,"¯Ķ":1747,"³¨æĦı":1748,"·åĢ¼":1749,"¹çķ":1750,"åį":1751,"åĻ¨":1752,"å§ĭ":1753,"æĮ":1754,"æĶ":1755,"æ®µ":1756,"çĲ":1757,"çľ":1758,"çĶ¨":1759,"è·":1760,"è¢«":1761,"éĶ":1762,"éļ":1763,"éĥ½":1764,"é«ĺ":1765,"ĊĊĠĠĠ":1766,"Ġ*":1767,"Ġ3":1768,"ĠF":1769,"Ġk":1770,"Ġend":1771,"Ġå®ŀ":1772,"Ġespec":1773,"Ġä¸º":1774,"Ģģ":1775,"Ģä¹Ī":1776,"ĤĦ":1777,"ĦçĲ":1778,"ĩåĪĨ":1779,"ĩæ®µ":1780,"īĩæ®µ":1781,"Ĭ¶æ":1782,"ĮçļĦ":1783,"Ĳè¡Į":1784,"ĺåĮĸ":1785,"Ļè¯":1786,"Ľæİ©çłģ":1787,"ŀäºİ":1788,"Łå§ĭ":1789,"ating":1790,"onest":1791,"Ġtra":1792,"Ġtab":1793,"Ġtake":1794,"Ġtie":1795,"Ġsing":1796,"Ġsim":1797,"Ġsom":1798,"Ġsumm":1799,"oring":1800,"ency":1801,"erif":1802,"erves":1803,"erbo":1804,"alization":1805,"Ġcatch":1806,"Ġcom":1807,"head":1808,"eds":1809,"Ġlen":1810,"Ġlim":1811,"Ġlad":1812,"Ġlayer":1813,"Ġmath":1814,"Ġmix":1815,"Ġmost":1816,"Ġpo":1817,"Ġposs":1818,"Ġpers":1819,"Ġphra":1820,"read":1821,"repl":1822,"reak":1823,"root":1824,"arize":1825,"aramet":1826,"Ġbad":1827,"Ġbest":1828,"Ġbool":1829,"Ġboring":1830,"Ġbreak":1831,"Ġdty":1832,"leading":1833,"level":1834,"Ġfre":1835,"Ġfra":1836,"Ġfall":1837,"Ġfast":1838,"Ġfocus":1839,"Ġfeat":1840,"Ġflat":1841,"exists":1842,"Ġthem":1843,"Ġtheir":1844,"rail":1845,"Ġstay":1846,"ute":1847,"utf":1848,"ently":1849,"Ġnorm":1850,"Ġwort":1851,"Ġwould":1852,"Ġwere":1853,"ides":1854,"idual":1855,"demo":1856,"deoff":1857,"other":1858,"Ġvari":1859,"Ġview":1860,"Ġverif":1861,"Ġris":1862,"Ġrng":1863,"Ġrandom":1864,"Ġindex":1865,"Ġinfra":1866,"icient":1867,"stable":1868,"ized":1869,"und":1870,"unning":1871,"Ġext":1872,"Ġexists":1873,"Ġread":1874,"Ġreas":1875,"Ġrequ":1876,"Ġreli":1877,"Ġregime":1878,"ably":1879,"eper":1880,"Ġconver":1881,"Ġconnected":1882,"imes":1883,"Ġansw":1884,"aderbo":1885,"Ġload":1886,"ilar":1887,"ĠĠĠĠĠĠĠĠĠ":1888,"Ġmaps":1889,"Ġelse":1890,"Ġproves":1891,"Ġprocess":1892,"Ġnote":1893,"isoform":1894,"ceeds":1895,"Ġcontent":1896,"Ġcontents":1897,"loc":1898,"loop":1899,"ures":1900,"ured":1901,"urpose":1902,"Ġexpl":1903,"Ġexpected":1904,"igher":1905,"ĊĠĠĠĠĠĠĠĠĠĠĠĠĠĠĠ":1906,"è¯»":1907,"Ġsymb":1908,"esting":1909,"Ġhapp":1910,"Ġhonest":1911,"Ġhigher":1912,"istic":1913,"Ġshuffled":1914,"Ġpres":1915,"Ġpress":1916,"ardrail":1917,"veral":1918,"ĠTypical":1919,"ĠTraining":1920,"Ġseq":1921,"Ġseen":1922,"Ġseed":1923,"Ġsecon":1924,"Ġseveral":1925,"\").":1926,"time":1927,"timespec":1928,"Ġmean":1929,"Ġmeas":1930,"Ġmeans":1931,"Ġcontrols":1932,"Ġleak":1933,"Ġleft":1934,"Ġleaderbo":1935,"Ġoper":1936,"ession":1937,"Ġasdict":1938,"ongly":1939,"ends":1940,"ended":1941,"())":1942,"().":1943,"():":1944,"They":1945,"ĠCore":1946,"Ġquery":1947,"Ġwhole":1948,"thing":1949,"æĸ°":1950,"è®º":1951,"è®¡ç":1952,"Ġdemo":1953,"Ġdecid":1954,"Ġdeeper":1955,"Ġdataclass":1956,"Ġrespect":1957,"Ġresume":1958,"Ġresolved":1959,"Ġresidual":1960,"outline":1961,"output":1962,"vious":1963,"å¤į":1964,"å¤Ł":1965,"å¤įç":1966,"å¤ĦçĲ":1967,"ä»İ":1968,"ä»·åĢ¼":1969,"ä»Ģä¹Ī":1970,"ä¼ĺåĮĸ":1971,"å®¹":1972,"åĪ°":1973,"åĪĩåĪĨ":1974,"åıª":1975,"åıĺ":1976,"Ġallow":1977,"Ġalloc":1978,"ensive":1979,"Ġstruct":1980,"Ġstrongly":1981,"ically":1982,"ainst":1983,"fficient":1984,"Ġtesting":1985,"struct":1986,"corpus":1987,"validate":1988,"Ġsuch":1989,"Ġcheckpointing":1990,"Ġhelpful":1991,"open":1992,"è§ģ":1993,"éĩĬ":1994,"ĠEx":1995,"ĠEmbedding":1996,"Ġkey":1997,"Ġscaling":1998,"Ġpiec":1999,"Ġinte":2000,"Ġintended":2001,"conds":2002,"lipping":2003,"Ġ{}":2004,"Ġtrans":2005,"Ġtrends":2006,"ä¸Ģèĩ":2007,"ä¸Ģä¸ª":2008,"Ġmemorization":2009,"ĠGo":2010,"ĠGradient":2011,"Ġpredicted":2012,"Ġpredictable":2013,"Ġcompar":2014,"è®Ńç»ĥå¾ªçİ¯":2015,"coding":2016,"pective":2017,"æŃ¢":2018,"è¿ĩ":2019,"è¿Ĳè¡Į":2020,"ĠLoss":2021,"ĠLearn":2022,"Ġæ³¨æĦı":2023,"Ġunder":2024,"Ġunstable":2025,"Ġsimp":2026,"Ġmisleading":2027,"Ġnormalize":2028,"Ġrecords":2029,"ĠSmoke":2030,"ç»ĵè®º":2031,"ailable":2032,"å¾Ī":2033,"å¾Ĺ":2034,"Ġpref":2035,"Ġpretraining":2036,"Ġblocks":2037,"Ġinteract":2038,"Ġembeddings":2039,"Ġhandling":2040,"åı¯èĥ½":2041,"åı¯å¤įç":2042,"éªĮè¯ģéĽĨ":2043,"Ġbecome":2044,"seconds":2045,"è¾ĵ":2046,"è¾¹çķ":2047,"Ġencoding":2048,"Ġclip":2049,"Ġdatas":2050,"Ġobserved":2051,"Ġobvious":2052,"stead":2053,"Ġresults":2054,"æľ¬åľ°":2055,"Ġgoals":2056,"ä¿ĿæĮ":2057,"Ġdepending":2058,"Ġjump":2059,"Ġmoving":2060,"Ġdetermin":2061,"å®ŀéªĮ":2062,"å®ŀçİ°":2063,"æķ°æį®":2064,"Ġrepresentations":2065,"metrics":2066,"umption":2067,"ä½įç½®":2068,"åħĥ":2069,"åĬĽæİ©çłģ":2070,"æ³ķ":2071,"ç¡¬ä»":2072,"ĠMask":2073,"Ġrole":2074,"Ġsucceeds":2075,"anguage":2076,"Ġdesign":2077,"Ġneeds":2078,"Ġneeded":2079,"Ġreviewable":2080,"Ġconfus":2081,"Ġconsist":2082,"Ġvalues":2083,"Ġprofile":2084,"ĠToo":2085,"Ġassign":2086,"Ġassumption":2087,"ĠCheckpointMetadata":2088,"Ġsubwor":2089,"Ġsublayer":2090,"ä¼ļæĬĬ":2091,"è§Ħæ¨¡":2092,"è§Ħæ¨¡å":2093,"Ġactivations":2094,"å·¥":2095,"å·²":2096,"åİŁå§ĭ":2097,"æī§è¡Į":2098,"æĹ¶":2099,"çķĻ":2100,"è½½":2101,"è½¬æį":2102,"Ġtensor":2103,"Ġtensors":2104,"Ġscrip":2105,"Ġavoid":2106,"Ġavailable":2107,"Ġmatches":2108,"Ġident":2109,"Ġfixed":2110,"Ġstores":2111,"Ġstart":2112,"Ġguardrail":2113,"ä¿¡æģ":2114,"Ġcomputation":2115,"æŃ£ç¡":2116,"Ġgeneration":2117,"Ġgeneralization":2118,"Ġaffects":2119,"Ġlabels":2120,"Example":2121,"meaningful":2122,"splits":2123,"å¯¹":2124,"å±ŀäºİ":2125,"å¹¶":2126,"åĽł":2127,"åĴĮçĽ®æłĩ":2128,"æĪĲ":2129,"éĿ¢":2130,"Ġteach":2131,"Ġcreated":2132,"Ġcaution":2133,"Ġadding":2134,"Ġagainst":2135,"Ġmetho":2136,"Ġimplementation":2137,"Ġbugs":2138,"Ġwidth":2139,"Ġremains":2140,"Ġcontinue":2141,"è¯įè¡¨":2142,"Ġhabit":2143,"æľªæĿ¥":2144,"è§£éĩĬ":2145,"ä¹Łèĥ½":2146,"Ġreproducible":2147,"įåĲĳ":2148,"è¿Ľè¡Į":2149,"Ġproblem":2150,"åºĶå½ĵ":2151,"Ġconfirm":2152,"Ġprofiling":2153,"ĠTokenizer":2154,"è¶³å¤Ł":2155,"Ġincreases":2156,"Important":2157,"Synthetic":2158,"cept":2159,"periment":2160,"side":2161,"¨³å®ļ":2162,"åįķ":2163,"éĶĻè¯":2164,"Ġespecially":2165,"Ġä¸ºä»Ģä¹Ī":2166,"Ĭ¶æĢģ":2167,"Ġtables":2168,"Ġsingle":2169,"Ġsimilar":2170,"Ġsomet":2171,"Ġladder":2172,"Ġpossible":2173,"Ġperspective":2174,"Ġphrases":2175,"replace":2176,"arameter":2177,"Ġdtype":2178,"Ġfrag":2179,"Ġfeatures":2180,"Ġworth":2181,"Ġverify":2182,"Ġrises":2183,"Ġinfrastruct":2184,"Ġreason":2185,"Ġrequire":2186,"isoformat":2187,"Ġsymbol":2188,"Ġpressure":2189,"Ġsecond":2190,"Ġleaderboard":2191,"è®¡ç®Ĺ":2192,"å¤ĦçĲĨ":2193,"ä¼ĺåĮĸåĻ¨":2194,"Ġallowed":2195,"Ġstructural":2196,"Ġpieces":2197,"ä¸Ģèĩ´":2198,"ä¸Ģä¸ªéĺ¶æ®µ":2199,"ä¿ĿæĮģ":2200,"Ġdeterministic":2201,"ç¡¬ä»¶":2202,"Ġsubword":2203,"ä¼ļæĬĬåİŁå§ĭ":2204,"è½¬æį¢":2205,"ä¿¡æģ¯":2206,"Ġmethods":2207,"éĶĻè¯¯":2208,"Ġinfrastructure":2209,"\".":2210,"\"{":2211,"\"},":2212,"'s":2213,").":2214,")]":2215,")}\")":2216,"03":2217,"32":2218,"33":2219,"46":2220,"70":2221,"846":2222,"But":2223,"Bet":2224,"BPE":2225,"Code":2226,"Clipping":2227,"Embedding":2228,"ELU":2229,"Fal":2230,"GLU":2231,"Hd":2232,"He":2233,"Hard":2234,"Int":2235,"JS":2236,"Loss":2237,"Layer":2238,"Learn":2239,"Mix":2240,"Mask":2241,"NL":2242,"Next":2243,"None":2244,"ONL":2245,"Position":2246,"Parameter":2247,"Random":2248,"Running":2249,"Sa":2250,"St":2251,"Som":2252,"Sel":2253,"Train":2254,"Training":2255,"Use":2256,"[-":2257,"[:":2258,"]]":2259,"]]:":2260,"]}\")":2261,"_{":2262,"`.":2263,"`:":2264,"aken":2265,"ave":2266,"avi":2267,"aign":2268,"agn":2269,"away":2270,"by":2271,"bal":2272,"bing":2273,"bit":2274,"bas":2275,"back":2276,"bug":2277,"buil":2278,"cc":2279,"ci":2280,"cat":2281,"cer":2282,"can":2283,"cay":2284,"cill":2285,"cost":2286,"cud":2287,"dp":2288,"du":2289,"dat":2290,"dul":2291,"dary":2292,"duce":2293,"dump":2294,"eing":2295,"ely":2296,"eck":2297,"ems":2298,"ecoder":2299,"eight":2300,"file":2301,"flow":2302,"fake":2303,"face":2304,"final":2305,"focus":2306,"fely":2307,"gg":2308,"ged":2309,"gic":2310,"gence":2311,"gging":2312,"gative":2313,"gradients":2314,"gmentation":2315,"hing":2316,"his":2317,"has":2318,"hind":2319,"hidden":2320,"ier":2321,"iar":2322,"iet":2323,"ike":2324,"imple":2325,"ience":2326,"ipeline":2327,"iven":2328,"iel":2329,"ious":2330,"iGLU":2331,"jo":2332,"jor":2333,"kv":2334,"kes":2335,"ll":2336,"late":2337,"lest":2338,"long":2339,"lative":2340,"mis":2341,"mall":2342,"mits":2343,"mup":2344,"memory":2345,"ned":2346,"nline":2347,"nob":2348,"oing":2349,"oother":2350,"pro":2351,"pos":2352,"ply":2353,"pend":2354,"position":2355,"parameter":2356,"qkv":2357,"red":2358,"rid":2359,"rate":2360,"rif":2361,"rict":2362,"rup":2363,"redict":2364,"ruct":2365,"range":2366,"rari":2367,"rstrip":2368,"right":2369,"ression":2370,"su":2371,"sample":2372,"scal":2373,"summ":2374,"seed":2375,"sized":2376,"small":2377,"tes":2378,"tle":2379,"tary":2380,"tend":2381,"tain":2382,"till":2383,"tlen":2384,"uation":2385,"uity":2386,"uge":2387,"upl":2388,"uine":2389,"uish":2390,"uous":2391,"vis":2392,"vative":2393,"wiGLU":2394,"xy":2395,"ying":2396,"yles":2397,"yste":2398,"ything":2399,"yiel":2400,"}\"":2401,"}\"]":2402,"¡£":2403,"¡éªĮ":2404,"¡è¿Ĳè¡Į":2405,"¢å":2406,"¢ĳ":2407,"¢èĥ½":2408,"¢åĬ":2409,"¢å¤į":2410,"£ä¹Ī":2411,"£åįķ":2412,"¤º":2413,"¤è¶":2414,"¥æķ°":2415,"¥æ£ĢæŁ¥":2416,"¥åº":2417,"¥è®©":2418,"¥æĶ":2419,"¦ä¹":2420,"¦æĿ":2421,"¦è§£":2422,"¦ä¹Łèĥ½":2423,"§ç":2424,"§ģ":2425,"§į":2426,"§åĪ":2427,"§è¦":2428,"¨ĭ":2429,"¨éĩ":2430,"¨åĪĨ":2431,"¨ä¼ļæ":2432,"©ä¸İ":2433,"©ä»·åĢ¼":2434,"ªäº":2435,"ªå°ı":2436,"ªåĽ":2437,"«å°":2438,"¬Ķ":2439,"¬æ¨¡åŀĭ":2440,"¬¡è¿Ĳè¡Į":2441,"®éĩį":2442,"¯ı":2443,"¯å¾":2444,"±Ĥ":2445,"±æĺ¯":2446,"±åĲ":2447,"²æŃ¢":2448,"²æľªæĿ¥":2449,"´¨éĩ":2450,"µ·":2451,"µéĩ":2452,"¶å":2453,"¶æĸĩæľ¬":2454,"··":2455,"·æľ¬":2456,"·ä¿¡":2457,"¹å¤§":2458,"¹è¿Ľ":2459,"¹åıĺ":2460,"¹æ³ķ":2461,"ºĲ":2462,"ºåĪĨ":2463,"ºç¡":2464,"º¦æĿ":2465,"º«å°":2466,"»æŃ¢":2467,"»è§£éĩĬ":2468,"¼ı":2469,"¼æŃ":2470,"¼©ä¸İ":2471,"½æķ°":2472,"¾¿":2473,"¾ä»¥":2474,"¾å°ı":2475,"¾åĴĮçĽ®æłĩ":2476,"¿åħ":2477,"¿éĢļå¸¸":2478,"¿çĶ¨":2479,"ä¾¿":2480,"åģ":2481,"åĨ":2482,"åŁ":2483,"åŀĭ":2484,"æĭ":2485,"æı":2486,"æĴ":2487,"æł":2488,"æłĩ":2489,"æµģæ°´çº¿":2490,"æĬĬ":2491,"æ¯Ķ":2492,"æĤĦ":2493,"æ¡£":2494,"æ¬¡è¿Ĳè¡Į":2495,"æ¯ı":2496,"æ··":2497,"æºĲ":2498,"çŁ":2499,"çŃ":2500,"ç¦»":2501,"ç¨³å®ļ":2502,"çĬ¶æĢģ":2503,"ç¤º":2504,"ç§į":2505,"ç¨ĭ":2506,"ç¬Ķ":2507,"çº¦æĿ":2508,"ç¼©ä¸İ":2509,"èĬ":2510,"èĮ":2511,"è´¨éĩ":2512,"èµ·":2513,"èº«å°":2514,"éģ":2515,"éĤ":2516,"éĥ":2517,"éĹ":2518,"éľ":2519,"é¢ĳ":2520,"Ġ(":2521,"Ġ)":2522,"Ġ:":2523,"Ġ\\":2524,"Ġos":2525,"Ġall":2526,"ĠIt":2527,"ĠçļĦ":2528,"ĠPro":2529,"ĠProject":2530,"Ġens":2531,"Ġ100":2532,"Ġrow":2533,"Ġæĺ¯":2534,"ĠéªĮè¯ģ":2535,"Ġåħ":2536,"Ġä¹Ł":2537,"ĠæįŁå¤±":2538,"Ġæķ°æį®æµģæ°´çº¿":2539,"Ġéħįç½®":2540,"ĠOverfit":2541,"ĠOverfitting":2542,"Ġçľ":2543,"Ġè®Ńç»ĥå¾ªçİ¯":2544,"Ġä½įç½®":2545,"Ġå±ŀäºİ":2546,"ĠImportant":2547,"Ġè®¡ç®Ĺ":2548,"ĠInt":2549,"ĠJS":2550,"ĠUse":2551,"Ġqkv":2552,"Ġyiel":2553,"ĢçļĦ":2554,"Ģ§è¦":2555,"ĢåŁ":2556,"ģĩ":2557,"ĤçļĦ":2558,"Ĥå¯":2559,"ĥéĩį":2560,"ĥåĮĸ":2561,"ĦæŃ£ç¡":2562,"Ħéľ":2563,"ħä¸ĭ":2564,"ħä»·åĢ¼":2565,"ħå®¹":2566,"ħæĭ":2567,"ĨçĽ":2568,"Ĩåīį":2569,"ĨèĬ":2570,"ĪéĢ":2571,"Īåľ°":2572,"īè§Ħæ¨¡å":2573,"ī©ä»·åĢ¼":2574,"Ĭåħĥ":2575,"ĭåĬ":2576,"ĭåĪ°":2577,"ĭç¼©ä¸İ":2578,"ĮçĤ¹":2579,"ĮæĪĲ":2580,"Įçº¦æĿ":2581,"İ°":2582,"İæģ":2583,"ıä¿Ŀ":2584,"ıè¶³å¤Ł":2585,"Ĳè¯":2586,"ĲçļĦ":2587,"Ĳæĺ¯":2588,"ĳè§ģ":2589,"Ĵè®Ńç»ĥ":2590,"ĵè¢«":2591,"ĵªäº":2592,"Ķ¹åıĺ":2593,"Ķç¨³å®ļ":2594,"ĸæ£ĢæŁ¥":2595,"ĸéĿ¢":2596,"ĹæĽ´":2597,"Ļä¸į":2598,"ľçļĦä¸Ģ":2599,"ľæĹ¶":2600,"Ŀ¥æ£ĢæŁ¥":2601,"ŀå½":2602,"ŀéĢļ":2603,"ŁæŃ£":2604,"ŁçļĦä¸Ģ":2605,"ŁåĪ°":2606,"łçļĦ":2607,"łåı¯å¤įç":2608,"łæ³ķ":2609,"łè½½":2610,"ł·æľ¬":2611,"łæĴ":2612,"ŃèĢĮ":2613,"Ńīè§Ħæ¨¡å":2614,"ining":2615,"inus":2616,"inter":2617,"input":2618,"ats":2619,"attention":2620,"ones":2621,"onents":2622,"oncept":2623,"Ġtwe":2624,"Ġtermin":2625,"Ġtwo":2626,"Ġtimes":2627,"Ġtying":2628,"Ġsent":2629,"Ġsiz":2630,"Ġsil":2631,"Ġsur":2632,"Ġspe":2633,"Ġsample":2634,"Ġsummary":2635,"Ġscor":2636,"Ġsol":2637,"Ġslow":2638,"Ġspre":2639,"Ġspec":2640,"Ġslic":2641,"Ġswe":2642,"Ġserves":2643,"Ġsession":2644,"Ġsinus":2645,"orpus":2646,"orary":2647,"ened":2648,"ered":2649,"erve":2650,"erunning":2651,"erically":2652,"erged":2653,"ervative":2654,"alf":2655,"alan":2656,"alle":2657,"alth":2658,"Ġche":2659,"Ġcas":2660,"Ġcure":2661,"Ġcross":2662,"Ġcommon":2663,"Ġcamp":2664,"Ġcost":2665,"escent":2666,"esides":2667,"Ġaut":2668,"Ġapp":2669,"Ġamb":2670,"hedul":2671,"ioned":2672,"ionally":2673,"edly":2674,"Ġlit":2675,"Ġlet":2676,"Ġlast":2677,"Ġlets":2678,"Ġlanguage":2679,"Ġlike":2680,"Ġmin":2681,"Ġman":2682,"Ġmist":2683,"Ġmult":2684,"Ġmetric":2685,"Ġmerged":2686,"inguish":2687,"Ġpict":2688,"Ġpractical":2689,"Ġpee":2690,"Ġpurpose":2691,"ream":2692,"recor":2693,"reme":2694,"roved":2695,"rough":2696,"art":2697,"arer":2698,"arant":2699,"arby":2700,"armup":2701,"arply":2702,"anis":2703,"anding":2704,"ants":2705,"anging":2706,"ancy":2707,"anned":2708,"Ġbuff":2709,"Ġbare":2710,"Ġbrid":2711,"Ġbalan":2712,"Ġbesides":2713,"itect":2714,"itive":2715,"itting":2716,"itations":2717,"itude":2718,"itute":2719,"Ġdis":2720,"Ġdens":2721,"Ġdrif":2722,"Ġdupl":2723,"Ġful":2724,"Ġfil":2725,"Ġfam":2726,"Ġfits":2727,"Ġfact":2728,"Ġfew":2729,"Ġfres":2730,"Ġfake":2731,"Ġfund":2732,"Ġfancy":2733,"Ġfitting":2734,"expect":2735,"expos":2736,"Ġthey":2737,"rapo":2738,"raight":2739,"radeoff":2740,"osen":2741,"Ġstall":2742,"Ġstyle":2743,"Ġstably":2744,"Ġstyles":2745,"Ġstraight":2746,"Ġissu":2747,"usion":2748,"usable":2749,"uth":2750,"utes":2751,"uting":2752,"entally":2753,"mpt":2754,"mpto":2755,"mphas":2756,"mporary":2757,"Ġnet":2758,"Ġnom":2759,"Ġnow":2760,"Ġwhat":2761,"Ġwatch":2762,"Ġwarn":2763,"Ġwors":2764,"Ġwarmup":2765,"idated":2766,"idered":2767,"Ġtoy":2768,"Ġtoget":2769,"Ġtool":2770,"Ġtouch":2771,"deep":2772,"depend":2773,"Ġvers":2774,"Ġown":2775,"Ġoverfit":2776,"Ġocc":2777,"Ġric":2778,"Ġrath":2779,"Ġrest":2780,"Ġright":2781,"Ġrerunning":2782,"Ġrarer":2783,"Ġincor":2784,"Ġinvalidate":2785,"Ġinstead":2786,"Ġindepend":2787,"icates":2788,"icially":2789,"strain":2790,"states":2791,"style":2792,"stream":2793,"start":2794,"stitute":2795,"Ġexist":2796,"etection":2797,"etitive":2798,"Ġreality":2799,"Ġreact":2800,"Ġreco":2801,"Ġreads":2802,"Ġrelative":2803,"Ġreusable":2804,"ectations":2805,"eping":2806,"Ġtrained":2807,"Ġconcl":2808,"Ġconven":2809,"Ġconse":2810,"Ġconcept":2811,"Ġconcat":2812,"Ġconstrain":2813,"Ġvalidated":2814,"ulates":2815,"Ġanother":2816,"Ġanything":2817,"key":2818,"Ġcore":2819,"Ġloads":2820,"Ġloading":2821,"iliar":2822,"Ġmagn":2823,"Ġmagic":2824,"Ġmajor":2825,"Ġmakes":2826,"odeling":2827,"cked":2828,"Ġsmoother":2829,"choing":2830,"chanis":2831,"chitect":2832,"Ġequ":2833,"Ġeval":2834,"Ġefficient":2835,"Ġemits":2836,"Ġemphas":2837,"Ġechoing":2838,"Ġproven":2839,"Ġprovid":2840,"Ġprogress":2841,"Ġproced":2842,"Ġproper":2843,"Ġproduce":2844,"Ġproxy":2845,"Ġprompt":2846,"umable":2847,"umbing":2848,"Ġbehind":2849,"Ġbelong":2850,"mpletes":2851,"asing":2852,"asci":2853,"asionally":2854,"ä¸įåĲ":2855,"ä¸Ķç¨³å®ļ":2856,"Ġonce":2857,"Ġcontribution":2858,"logits":2859,"lobal":2860,"uration":2861,"urce":2862,"urance":2863,"Ġgate":2864,"Ġgated":2865,"Ġgets":2866,"Ġglobal":2867,"Ġexplic":2868,"Ġexpensive":2869,"Ġexpanding":2870,"Ġexpectations":2871,"iguity":2872,"ĠSplit":2873,"ĠSha":2874,"ĠShared":2875,"ĠShape":2876,"ĠSimple":2877,"ĠStill":2878,"ĠSwiGLU":2879,"ĠSyste":2880,"orted":2881,"Ġdoing":2882,"Ġdomin":2883,"quent":2884,"è¯¥è®©":2885,"ĠNext":2886,"ĠNormalization":2887,"Ġsympto":2888,"ests":2889,"estamp":2890,"Ġitems":2891,"Ġhigh":2892,"Ġhere":2893,"Ġhides":2894,"Ġhuge":2895,"Ġhalf":2896,"Ġruntime":2897,"ntropy":2898,"Ġheavi":2899,"Ġhealth":2900,"Ġused":2901,"Ġusable":2902,"Ġsharply":2903,"Ġpriv":2904,"ĠTrain":2905,"ĠTest":2906,"ĠTable":2907,"ĠTwo":2908,"ĠTesting":2909,"ĠThis":2910,"ĠTradeoff":2911,"aution":2912,"Ġseeing":2913,"Ġsegmentation":2914,"\"):":2915,"amentally":2916,"ounded":2917,"timestamp":2918,"ĠWeight":2919,"Ġthose":2920,"Ġthrough":2921,"Ġmechanis":2922,"Ġcontrolling":2923,"çļĦè®Ńç»ĥ":2924,"çļĦäº":2925,"çļĦå½":2926,"çļĦåŃ":2927,"çļĦå°ı":2928,"çļĦæİ©çłģ":2929,"çļĦéĩįè¦ģ":2930,"çļĦæķ°æį®æ":2931,"çļĦæĸĩæľ¬":2932,"çļĦæĶ":2933,"çļĦè¯įè¡¨":2934,"ifically":2935,"ifier":2936,"Ġleads":2937,"Ġimply":2938,"Ġoption":2939,"ongside":2940,"Ġpaths":2941,"æĺ¾å°ı":2942,"æĺĵè¢«":2943,"ç»ĨèĬ":2944,"ç»ıè¶³å¤Ł":2945,"oregress":2946,"ĠCross":2947,"ĠCap":2948,"ĠCausal":2949,"ĠClipping":2950,"ĠCave":2951,"ĠConcept":2952,"ĠCorpus":2953,"ĠCaution":2954,"ĠPosition":2955,"ĠPurpose":2956,"ĠPipeline":2957,"ĠPredict":2958,"Ġquiet":2959,"æĸ¹æ³ķ":2960,"è®°":2961,"è®¾":2962,"Ġdebug":2963,"Ġdecay":2964,"Ġreshape":2965,"Ġreserved":2966,"Ġresumable":2967,"formance":2968,"å¤ªå°ı":2969,"Ġattend":2970,"Ġpositional":2971,"Ġbounce":2972,"Ġboundary":2973,"Ġprojected":2974,"ä»»":2975,"ä¼łæĴ":2976,"å®ĮæĪĲ":2977,"åı·":2978,"åıĸ":2979,"åıįåĲĳ":2980,"åıĬåħĥ":2981,"Ġalone":2982,"Ġalway":2983,"Ġalread":2984,"Ġalongside":2985,"enses":2986,"Ġbatching":2987,"eedforward":2988,"æľĢåŁ":2989,"Ġtested":2990,"Ġcould":2991,"Ġcompletes":2992,"Ġmainly":2993,"Ġgoing":2994,"Instead":2995,"ibility":2996,"validation":2997,"Ġsuper":2998,"Ġsufficient":2999,"Ġsugg":3000,"Ġparalle":3001,"æĸĩæ¡£":3002,"ä¼ļæĺİ":3003,"ä¼ļéĩį":3004,"ä¼ļéĺ":3005,"ä¼ļä½":3006,"ä¼ļå¤§":3007,"ä¼ļä¿ĿåŃĺ":3008,"ä¼ļä»İ":3009,"ä¼ļåıĺ":3010,"æķ£åįķ":3011,"æķĪåľ°":3012,"è§ģæ":3013,"è§Ĥå¯":3014,"ĠEdu":3015,"ĠEntropy":3016,"index":3017,"Ġscales":3018,"Ġscaled":3019,"Ġscalar":3020,"Ġchance":3021,"Ġchanging":3022,"Ġchosen":3023,"Ġchasing":3024,"Ġintuition":3025,")))":3026,")):":3027,"ä¹ī":3028,"Ġtransform":3029,"Ġtrick":3030,"Ġtransformer":3031,"Ġtruth":3032,"Ġwords":3033,"Ġwordp":3034,"Ġrepetitive":3035,"Ġreported":3036,"ä¸Ģå®ļ":3037,"ä¸Ģæ¬¡è¿Ĳè¡Į":3038,"ä¸Ģèµ·":3039,"ä¸ŃåŃ":3040,"loads":3041,"åĪĨç¦»":3042,"aks":3043,"akes":3044,"®æĢ§è¦":3045,"ĠGELU":3046,"Ġ[\"":3047,"įåĢ¼":3048,"įçĤ¹":3049,"įçīĩæ®µ":3050,"įç§ģ":3051,"Ġsets":3052,"Ġaccum":3053,"Ġaccid":3054,"Ġweaken":3055,"Ġwell":3056,"Ġbehave":3057,"Ġbehaves":3058,"assign":3059,"Ġpredicts":3060,"Ġpredictably":3061,"Ġcompare":3062,"Ġcompared":3063,"Ġcompression":3064,"Ġcomponents":3065,"æķ°åŃ":3066,"æķ°åĢ¼":3067,"è®Ńç»ĥä¹ĭ":3068,"è®Ńç»ĥæįŁå¤±":3069,"è®Ńç»ĥæ£ĢæŁ¥çĤ¹":3070,"è®Ńç»ĥéĽĨ":3071,"è®Ńç»ĥè¯ŃæĸĻ":3072,"è®Ńç»ĥç»ĵè®º":3073,"æŃ¤è¶":3074,"æŃ¥æķ°":3075,"è¿Ļä¸į":3076,"è¿ŀéĢļ":3077,"Ġ11":3078,"Ġ133":3079,"Ġ1846":3080,"ĠLayer":3081,"ĠLanguage":3082,"Ġæ£ĢæŁ¥":3083,"Ġuncer":3084,"Ġunexpect":3085,"Ġcurve":3086,"Ġdiagn":3087,"Ġnormalized":3088,"Ġrecording":3089,"Ġdownstream":3090,"è¯´æĺİæ¨¡åŀĭ":3091,"è¯´æĺİè¯ŃæĸĻ":3092,"è¯´æĺİå®ŀçİ°":3093,"æĺ¯éĺ":3094,"æĺ¯åĲ":3095,"æĺ¯åľ¨":3096,"æĺ¯å®ŀçİ°":3097,"æĺ¯å¯¹":3098,"æĺ¯è¿ŀéĢļ":3099,"ç»ĵæŀ":3100,"Ġworkload":3101,"Ġworkflow":3102,"ausible":3103,"resolved":3104,"å°ĳè§ģ":3105,"Ġsaves":3106,"Ġsafely":3107,"Ġarbit":3108,"Ġarchitect":3109,"Ġaction":3110,"Ġactive":3111,"Ġactually":3112,"Ġprefer":3113,"Ġdepth":3114,"Ġnovel":3115,"Ġnumerically":3116,"Ġoutline":3117,"Ġoutside":3118,"Ġinteresting":3119,"Ġinterrup":3120,"Ġreloaded":3121,"Ġreloading":3122,"Ġhandles":3123,"tokenizers":3124,"Ġprojections":3125,"åı¯éĿ":3126,"éĩįè½½":3127,"éªĮè¯ģçĽ®æłĩ":3128,"éªĮè¯ģå·¥":3129,"éªĮè¯ģä¼ļä½":3130,"éªĮè¯ģæĺ¯å¯¹":3131,"elated":3132,"iple":3133,"uffle":3134,"æİ¥æĶ":3135,"æİ§åĪ":3136,"è¦ĨçĽ":3137,"ĠBlock":3138,"ĠBasic":3139,"ĠBounded":3140,"ĠData":3141,"ĠDecoder":3142,"ĠDescent":3143,"ĠDetection":3144,"Ġbyte":3145,"Ġlowering":3146,"Ġloops":3147,"Ġmasking":3148,"Ġimproves":3149,"Ġimproved":3150,"Ġimproving":3151,"ä»¥æĽ":3152,"ä»¥ä¾¿":3153,"ä»¥åıĬåħĥ":3154,"æľ¬èº«å°":3155,"ä¿ĿçķĻ":3156,"Ġeasily":3157,"Ġeasiest":3158,"æ¨¡åŀĭåı¯ä»¥":3159,"æ¨¡åŀĭè§Ħæ¨¡å":3160,"æ¨¡åŀĭè´¨éĩ":3161,"æ¨¡åŀĭè®Ńç»ĥä¹ĭ":3162,"æ¨¡åŀĭä»¥æĽ":3163,"Ġdependency":3164,"Ġnumbers":3165,"aply":3166,"preting":3167,"´ç¨³å®ļ":3168,"´çŃīè§Ħæ¨¡å":3169,"å½¼æŃ":3170,"å¸¸è§ģ":3171,"å¸¸å·¥":3172,"æĿĥéĩį":3173,"èĥ½æŃ£":3174,"ĠRate":3175,"ĠRole":3176,"ĠRelated":3177,"Ġjob":3178,"ģæ±Ĥ":3179,"Ġsigns":3180,"Ġmoves":3181,"Ġideas":3182,"Ġbottlen":3183,"Ġdetection":3184,"Ġexperimental":3185,"Ġexperimentation":3186,"å°ıçļĦç":3187,"Ġartificially":3188,"Ġoutputs":3189,"éĢļè¿ĩ":3190,"åĪĨè¯įåĻ¨åı¯ä»¥":3191,"åĪĨè¯įåĻ¨ä¼ļæĬĬåİŁå§ĭ":3192,"åĪĨè¯įåĻ¨æĺ¯åľ¨":3193,"short":3194,"shuffle":3195,"ä½Ĩåīį":3196,"ä½ľæĹ¶":3197,"åº¦è§£":3198,"åħ¥":3199,"åĬłè½½":3200,"åĮºåĪĨ":3201,"åĮħæĭ":3202,"åĲĳ":3203,"åĲĪéĢ":3204,"åĲİæģ":3205,"æ³¨æĦı":3206,"æ³¢åĬ":3207,"æ³Ħéľ":3208,"çĤ¹è¯´æĺİ":3209,"ĠMemory":3210,"ĠMulti":3211,"ĠModeling":3212,"Ġround":3213,"Ġrotary":3214,"Ġrouting":3215,"Ġbroken":3216,"Ġbetwe":3217,"Ġbuilt":3218,"Ġbuilds":3219,"Ġdistinguish":3220,"Ġinputs":3221,"Ġexecute":3222,"Ġexecutes":3223,"Ġreviews":3224,"Ġreviewed":3225,"Ġconsume":3226,"Ġconservative":3227,"Ġconsidered":3228,"Ġeverything":3229,"Ġgenuine":3230,"Ġassurance":3231,"ĠCheckpointing":3232,"Ġsubstitute":3233,"ä¼ļæĤĦ":3234,"ä¼ļæĶ¹åıĺ":3235,"è§ĦèĮ":3236,"Ġchoose":3237,"äºİçĽ®æłĩ":3238,"äºİæİ§åĪ":3239,"åľ¨èĩ":3240,"åľ¨æľª":3241,"åľ¨ä¸Ģèµ·":3242,"åľ¨æķ°åĢ¼":3243,"è¦ģåĮºåĪĨ":3244,"éĺ¶æ®µåĴĮçĽ®æłĩ":3245,"æĽ´æĸ°":3246,"æĽ´å®¹":3247,"æĽ´åı¯èĥ½":3248,"æĽ´å°ıçļĦç":3249,"æŀľæİ©çłģ":3250,"çĽ®æłĩæ··":3251,"Ġtargets":3252,"Ġseparation":3253,"Ġseparates":3254,"Ġappears":3255,"Ġappearing":3256,"Ġdimensions":3257,"æİ©çłģå±ŀäºİ":3258,"One":3259,"Only":3260,"acement":3261,"crete":3262,"grity":3263,"åĩ½æķ°":3264,"åīįåĲĳ":3265,"åİ»è§£éĩĬ":3266,"åİĭç¼©ä¸İ":3267,"åĢ¼å¤±":3268,"æī¹å¤§":3269,"æīįåĢ¼":3270,"æĹ¢èĥ½":3271,"æĹłæ³ķ":3272,"ĴĮè¿Ĳè¡Į":3273,"Ġscore":3274,"Ġschedul":3275,"Ġsource":3276,"Ġcapability":3277,"Ġlesson":3278,"Ġplanned":3279,"Ġplumbing":3280,"Ġplausible":3281,"Ġplacement":3282,"aries":3283,"Ġfixing":3284,"Ġstory":3285,"Ġstorage":3286,"Ġstarting":3287,"Ġstarts":3288,"Ġstacks":3289,"Ġstacked":3290,"Ġnearly":3291,"Ġneural":3292,"Ġnegative":3293,"Ġnearby":3294,"Ġwindows":3295,"Ġvector":3296,"Ġinclud":3297,"Ġrepeated":3298,"Ġconfiguration":3299,"ä¸İå¤§":3300,"ä¸İæľ¬åľ°":3301,"ä¸İå®ŀéªĮ":3302,"Ġguess":3303,"Ġguarant":3304,"å®ĥè¯´æĺİæ¨¡åŀĭ":3305,"å®ĥæĺ¯éĺ":3306,"å®ĥæĹ¢èĥ½":3307,"å®ĥä¸İæľ¬åľ°":3308,"æľīéĻ":3309,"æľīä¿ĿåŃĺ":3310,"æľīè¾¹çķ":3311,"æľīæķ°æį®":3312,"Ġsupports":3313,"ä¿¡ä»»":3314,"Ġsettings":3315,"Ġcompute":3316,"Ġcomputed":3317,"Ġdiverge":3318,"Ġdirection":3319,"Ġimprovements":3320,"æĿ¥æºĲ":3321,"æĿ¥çļĦäº":3322,"éĢļå¸¸å·²":3323,"éĢļå¸¸ä¼ļæĺİ":3324,"éĢļå¸¸ä¼ļæĶ¹åıĺ":3325,"Ġbroadly":3326,"å¦Ĥæŀľæ£ĢæŁ¥çĤ¹":3327,"å¦Ĥæŀľè¯ŃæĸĻ":3328,"å¦ĤæŀľéªĮè¯ģéĽĨ":3329,"å¦ĤæŀľæĬĬ":3330,"æĦıä¹ī":3331,"Ġmilestones":3332,"Experiment":3333,"iece":3334,"licity":3335,"oidal":3336,"work":3337,"å±Ĥ":3338,"å¹ħä¸ĭ":3339,"åĴĮéĩįè½½":3340,"æĪĸæ£ĢæŁ¥":3341,"éĻį":3342,"éĻħä»·åĢ¼":3343,"ĠHd":3344,"ĠåĪĨè¯įåĻ¨è¯´æĺİ":3345,"ĠåĪĨè¯įåĻ¨ç¬Ķ":3346,"ĠåĪĨè¯įåĻ¨ä¼ļä»İ":3347,"Ķ¨çļĦåŃ":3348,"Ġtemporary":3349,"Ġtreated":3350,"Ġtreating":3351,"Ġtreats":3352,"Ġcreate":3353,"Ġcautious":3354,"Ġadds":3355,"Ġaggress":3356,"Ġmeter":3357,"Ġimplement":3358,"Ġperformance":3359,"Ġdifferently":3360,"Ġfails":3361,"Ġfailure":3362,"Ġflowing":3363,"Ġisolate":3364,"Ġisolates":3365,"Ġisolated":3366,"Ġwider":3367,"Ġways":3368,"Ġformat":3369,"ä¸ªæķ°åŃ":3370,"ä¸ºè§ĦèĮ":3371,"ä¸Ĭåĩº":3372,"ä¸ĬçļĦæĶ":3373,"ä¸Ĭæĺ¯è¿ŀéĢļ":3374,"ä¸ĭä¸Ģä¸ªéĺ¶æ®µ":3375,"ä¸ĭæĿ¥çļĦäº":3376,"ä¸įè¶³":3377,"ä¸įåıª":3378,"Ġcontinuous":3379,"Ġhabits":3380,"çļĦç¦»":3381,"çļĦçĬ¶æĢģ":3382,"çļĦä¸Ģå±Ĥ":3383,"è®©æįŁå¤±":3384,"è®©æ¨¡åŀĭä»¥æĽ":3385,"Ġdefensive":3386,"Ġdefining":3387,"Ġdefenses":3388,"Ġaligned":3389,"Ġalignment":3390,"æĸĩæľ¬è½¬æį¢":3391,"ä¹ĭä¸Ģ":3392,"ä¹ĭåĲİæģ":3393,"Ġreproducibility":3394,"è¡¨ç¤º":3395,"ĠLoop":3396,"ĠLogits":3397,"ĠLogging":3398,"Ġmismatches":3399,"Ġproblems":3400,"åı¯ä»¥å½¼æŃ":3401,"æ£ĢæŁ¥çĤ¹æīįåĢ¼":3402,"è¾ĥå¤§":3403,"è¾ĥé«ĺ":3404,"è¾ĥå°ĳè§ģ":3405,"å½ĵåīį":3406,"ĠReload":3407,"ĠReview":3408,"ĠReLU":3409,"åºĶè¯¥è®©":3410,"Ġconfirms":3411,"Ġprofiles":3412,"Ġseparately":3413,"åĩºåı¯å¤įç":3414,"åĩºçļĦæķ°æį®æ":3415,"åīįè¿Ľè¡Į":3416,"Ġrepeats":3417,"æķ°æį®æµģæ°´çº¿ä¼ļæĬĬåİŁå§ĭ":3418,"æķ°æį®æµģæ°´çº¿æľ¬èº«å°":3419,"èĢĮä¸įåıª":3420,"èĢĮè®©æįŁå¤±":3421,"éħįç½®åºĶå½ĵ":3422,"éħįç½®éĢļå¸¸ä¼ļæĶ¹åıĺ":3423,"Ġincreasing":3424,"å¾ªçİ¯éĢļå¸¸å·²":3425,"ä¿ĿåŃĺä¸ĭæĿ¥çļĦäº":3426,"Checkpointing":3427,"Large":3428,"Larger":3429,"Other":3430,"Others":3431,"dataclass":3432,"¤äºĴ":3433,"¤äº¤äºĴ":3434,"¯Ķè¾ĥå¤§":3435,"çľĭåĪ°":3436,"çĶ¨äºİæİ§åĪ":3437,"è·¯å¾":3438,"è·µéĩ":3439,"è¢«æŃ£ç¡":3440,"éļ¾ä»¥":3441,"éļľçļĦä¸Ģ":3442,"éĥ½èĥ½æŃ£":3443,"éĥ½åºĶè¯¥è®©":3444,"é«ĺé¢ĳ":3445,"ĠFinal":3446,"ĠFeedforward":3447,"Ġknow":3448,"Ġknob":3449,"Ġå®ŀéĻħä»·åĢ¼":3450,"Ġå®ŀè·µéĩ":3451,"īĩæ®µå¤ĦçĲĨ":3452,"ĮçļĦæī§è¡Į":3453,"ĮçļĦå¾ªçİ¯éĢļå¸¸å·²":3454,"Ġtradeoff":3455,"Ġtracked":3456,"Ġtakeaway":3457,"Ġsummarize":3458,"Ġsummaries":3459,"Ġcome":3460,"Ġcomes":3461,"Ġlimits":3462,"Ġlimitations":3463,"Ġmixes":3464,"Ġmixing":3465,"Ġmostly":3466,"Ġpoor":3467,"Ġpoint":3468,"Ġfree":3469,"Ġfrequent":3470,"Ġfallback":3471,"Ġfaster":3472,"Ġstays":3473,"Ġstayed":3474,"Ġvaried":3475,"Ġvariants":3476,"Ġviews":3477,"Ġextreme":3478,"Ġextrapo":3479,"Ġreliable":3480,"Ġreliability":3481,"Ġconverted":3482,"Ġconvergence":3483,"Ġanswer":3484,"Ġanswers":3485,"Ġexplode":3486,"Ġexplain":3487,"è¯»åıĸ":3488,"è¯»è®Ńç»ĥæįŁå¤±":3489,"Ġhappens":3490,"Ġhappened":3491,"Ġpreserves":3492,"Ġpreserve":3493,"Ġmeasure":3494,"Ġmeasured":3495,"Ġleakage":3496,"Ġoperate":3497,"Ġoperations":3498,"æĸ°åĬłè½½":3499,"Ġdecide":3500,"Ġdecides":3501,"Ġdataclasses":3502,"Ġrespected":3503,"å¤įæī§è¡Į":3504,"ä»İèĢĮè®©æįŁå¤±":3505,"åĪĩåĪĨçļĦè®Ńç»ĥ":3506,"åĪĩåĪĨçļĦä¸Ģå±Ĥ":3507,"åıªæľīä¿ĿåŃĺ":3508,"Ġallocate":3509,"Ġallocated":3510,"ĠExample":3511,"ĠExperiment":3512,"Ġinteger":3513,"Ġintegrity":3514,"Ġ{})":3515,"Ġtransient":3516,"Ġtranspose":3517,"ĠGoal":3518,"ĠGood":3519,"Ġcompares":3520,"Ġcomparing":3521,"è®Ńç»ĥå¾ªçİ¯ä¼ļéĩį":3522,"è¿ĩåº¦è§£":3523,"ĠLearned":3524,"ĠLearning":3525,"Ġæ³¨æĦıåĬĽæİ©çłģ":3526,"Ġunderexpos":3527,"Ġsimplest":3528,"Ġsimplicity":3529,"ç»ĵè®ºä¼ļåıĺ":3530,"å¾Īå°ı":3531,"å¾Īéĩįè¦ģ":3532,"å¾Ĺä¿¡ä»»":3533,"å¾Ĺéļ¾ä»¥":3534,"Ġprefers":3535,"Ġprefix":3536,"Ġinteraction":3537,"åı¯èĥ½ä¼ļæĤĦ":3538,"è¾ĵåħ¥":3539,"è¾ĵåĩºåı¯å¤įç":3540,"è¾¹çķĮçº¦æĿ":3541,"Ġdataset":3542,"Ġdatasets":3543,"æľ¬åľ°éªĮè¯ģçĽ®æłĩ":3544,"å®ŀéªĮç»ĵè®ºä¼ļåıĺ":3545,"ä½įç½®çľĭåĪ°":3546,"åĬĽæİ©çłģçĶ¨äºİæİ§åĪ":3547,"Ġconfuse":3548,"Ġconfusing":3549,"Ġconsistent":3550,"Ġconsistency":3551,"Ġassigns":3552,"Ġassumptions":3553,"è§Ħæ¨¡ç¡¬ä»¶":3554,"è§Ħæ¨¡å¤ªå°ı":3555,"å·²åĪĩåĪĨçļĦè®Ńç»ĥ":3556,"æĹ¶éĹ":3557,"çķĻåĩºçļĦæķ°æį®æ":3558,"Ġscript":3559,"Ġscripts":3560,"Ġidentical":3561,"Ġidentifier":3562,"å¯¹äºİ":3563,"å¹¶ä¿ĿæĮģ":3564,"å¹¶å·²åĪĩåĪĨçļĦè®Ńç»ĥ":3565,"åĽłæŃ¤è¶":3566,"åĽłæŀľæİ©çłģ":3567,"æĪĲæ¨¡åŀĭåı¯ä»¥":3568,"éĿ¢åĲĳ":3569,"Ġteaching":3570,"ä¹Łèĥ½éĢļè¿ĩ":3571,"è¿Ľè¡Įè¾¹çķĮçº¦æĿ":3572,"åºĶå½ĵä¿ĿçķĻ":3573,"è¶³å¤ŁçļĦçĬ¶æĢģ":3574,"åįķä¸ªæķ°åŃ":3575,"Ġä¸ºä»Ģä¹Īéĩįè¦ģ":3576,"Ġä¸ºä»Ģä¹Īè¦ģåĮºåĪĨ":3577,"Ġsometimes":3578,"Ġsomething":3579,"Ġfragile":3580,"Ġfragments":3581,"Ġreasons":3582,"Ġrequirement":3583,"Ġsymbols":3584,"Ġsymbolic":3585,"å¤ĦçĲĨçļĦç¦»":3586,"ä¼ĺåĮĸåĻ¨çĬ¶æĢģ":3587,"ä¼ĺåĮĸåĻ¨æĽ´æĸ°":3588,"ä¸Ģèĩ´çļĦå½":3589,"ä¸Ģä¸ªéĺ¶æ®µéĥ½åºĶè¯¥è®©":3590,"ä¿ĿæĮģä¸Ģèĩ´":3591,"ç¡¬ä»¶éħįç½®åºĶå½ĵ":3592,"è½¬æį¢ä¸ºè§ĦèĮ":3593,"éĶĻè¯¯çļĦæİ©çłģ":3594,"Better":3595,"False":3596,"Head":3597,"Hardware":3598,"Learned":3599,"Mixing":3600,"Masking":3601,"Saving":3602,"Struct":3603,"Some":3604,"Self":3605,"based":3606,"build":3607,"cillate":3608,"cuda":3609,"datetime":3610,"dumps":3611,"focused":3612,"iveness":3613,"join":3614,"missing":3615,"project":3616,"riction":3617,"rarily":3618,"scale":3619,"summarize":3620,"vision":3621,"¡éªĮå®ĮæĪĲ":3622,"¢å¼ı":3623,"¢å¤įæĪĸæ£ĢæŁ¥":3624,"£ä¹Īä¿ĿåŃĺä¸ĭæĿ¥çļĦäº":3625,"¥åº·ä¿¡":3626,"¦ä¹łåı¯å¤įç":3627,"¦ä¹Łèĥ½åľ¨æľª":3628,"§çī©ä»·åĢ¼":3629,"¨ä¼ļæ¯Ķè¾ĥå¤§":3630,"ªåĽŀå½":3631,"¬æ¨¡åŀĭæĿĥéĩį":3632,"®éĩįæĸ°åĬłè½½":3633,"±æĺ¯æ¨¡åŀĭè´¨éĩ":3634,"±åĲĮçĤ¹":3635,"²æŃ¢è¿ĩåº¦è§£":3636,"²æľªæĿ¥ä¿¡æģ¯":3637,"¶åĵªäº":3638,"¹è¿Ľæĺ¯åĲ":3639,"ºç¡ĢçļĦ":3640,"»æŃ¢å½ĵåīį":3641,"¾åĴĮçĽ®æłĩåĩ½æķ°":3642,"¿åħįç§ģ":3643,"¿éĢļå¸¸æ¯Ķ":3644,"¿çĶ¨çķĻåĩºçļĦæķ°æį®æ":3645,"åģ¥åº·ä¿¡":3646,"åĨħå®¹":3647,"æıĲæĺ¯":3648,"æł¡éªĮå®ĮæĪĲ":3649,"æłĩçŃ":3650,"æµģæ°´çº¿åºĶå½ĵä¿ĿçķĻ":3651,"æĤĦæ³Ħéľ":3652,"æ¯ıä¸Ģä¸ªéĺ¶æ®µéĥ½åºĶè¯¥è®©":3653,"çŁŃèĢĮ":3654,"ç§įæ£ĢæŁ¥":3655,"ç¨ĭè·¯å¾":3656,"éģ¿åħįç§ģ":3657,"éĤ£ä¹Īä¿ĿåŃĺä¸ĭæĿ¥çļĦäº":3658,"éĥ¨åĪĨ":3659,"Ġoscillate":3660,"ĠçļĦéħįç½®éĢļå¸¸ä¼ļæĶ¹åıĺ":3661,"ĠProfile":3662,"ĠProjection":3663,"Ġensure":3664,"Ġæĺ¯æľĢåŁ":3665,"ĠéªĮè¯ģè¯´æĺİ":3666,"Ġåħ±åĲĮçĤ¹":3667,"Ġä¹Łå¾Īéĩįè¦ģ":3668,"ĠæįŁå¤±éªĮè¯ģ":3669,"Ġæķ°æį®æµģæ°´çº¿è¯´æĺİ":3670,"Ġéħįç½®è¯´æĺİ":3671,"ĠçľŁæŃ£":3672,"Ġä½įç½®åı¯ä»¥å½¼æŃ":3673,"Ġå±ŀäºİä¸įåĲ":3674,"ĠIntuition":3675,"ĠJSONL":3676,"ĠUseful":3677,"Ġyields":3678,"ģĩè®¾":3679,"ĤçļĦåĪĨè¯įåĻ¨åı¯ä»¥":3680,"ĦæŃ£ç¡®æĢ§è¦":3681,"ĭåĬ¿éĢļå¸¸æ¯Ķ":3682,"ıä¿ĿéļľçļĦä¸Ģ":3683,"Ĳè¯įçīĩæ®µ":3684,"Ĵè®Ńç»ĥä¸Ń":3685,"ĸéĿ¢ä¸įè¶³":3686,"ĹæĽ´éĩįè¦ģ":3687,"ŁçļĦä¸Ģç§įæ£ĢæŁ¥":3688,"ŁåĪ°çļĦè¯įè¡¨":3689,"łçļĦæķ°æį®æµģæ°´çº¿æľ¬èº«å°":3690,"ł·æľ¬ä¸Ĭåĩº":3691,"interpreting":3692,"Ġtweaks":3693,"Ġterminal":3694,"Ġsentence":3695,"Ġsizes":3696,"Ġsilently":3697,"Ġsurface":3698,"Ġspeed":3699,"Ġscores":3700,"Ġsolve":3701,"Ġspreads":3702,"Ġspecifically":3703,"Ġslicing":3704,"Ġsweeping":3705,"Ġsessions":3706,"Ġsinusoidal":3707,"Ġcheaply":3708,"Ġcase":3709,"Ġcampaign":3710,"Ġautoregress":3711,"Ġapproved":3712,"Ġambiguity":3713,"Ġlittle":3714,"Ġletting":3715,"Ġlikely":3716,"Ġmanually":3717,"Ġmistakes":3718,"Ġmultiple":3719,"Ġmetrics":3720,"Ġpicture":3721,"Ġpeek":3722,"record":3723,"Ġbuffers":3724,"Ġbarely":3725,"Ġbridge":3726,"Ġbalanced":3727,"Ġdiscrete":3728,"Ġdense":3729,"Ġdrift":3730,"Ġduplicates":3731,"Ġfull":3732,"Ġfiles":3733,"Ġfamiliar":3734,"Ġfactors":3735,"Ġfresh":3736,"Ġfundamentally":3737,"Ġstalls":3738,"Ġstraightforward":3739,"Ġissues":3740,"Ġnetwork":3741,"Ġnominal":3742,"Ġwatching":3743,"Ġwarning":3744,"Ġworsens":3745,"Ġtogether":3746,"Ġversioned":3747,"Ġoccasionally":3748,"Ġricher":3749,"Ġrather":3750,"Ġrestriction":3751,"Ġincorrect":3752,"Ġindependently":3753,"Ġreacts":3754,"Ġrecovery":3755,"Ġconclusion":3756,"Ġconvenience":3757,"Ġconsequence":3758,"Ġconceptually":3759,"Ġconstraints":3760,"Ġmagnitude":3761,"Ġequally":3762,"Ġevaluation":3763,"Ġefficiently":3764,"Ġemphasize":3765,"Ġprovenance":3766,"Ġprovides":3767,"Ġprocedure":3768,"Ġproperty":3769,"Ġbelongs":3770,"ascii":3771,"ä¸Ķç¨³å®ļçļĦ":3772,"Ġexplicit":3773,"ĠShapes":3774,"ĠSystem":3775,"Ġdominating":3776,"Ġsymptoms":3777,"Ġhighly":3778,"Ġheavily":3779,"Ġprivate":3780,"Ġmechanism":3781,"çļĦå°ıåŀĭ":3782,"çļĦéĩįè¦ģæĸ¹æ³ķ":3783,"Ġoptional":3784,"æĺ¾å°ıäºİçĽ®æłĩ":3785,"æĺĵè¢«æ£ĢæŁ¥":3786,"ç»ĨèĬĤ":3787,"ç»ıè¶³å¤ŁéªĮè¯ģå·¥":3788,"ĠCapacity":3789,"ĠCaveat":3790,"ĠConceptual":3791,"ĠPrediction":3792,"Ġattending":3793,"ä¼łæĴŃ":3794,"åıįåĲĳä¼łæĴŃ":3795,"Ġalways":3796,"Ġalready":3797,"Ġsupervision":3798,"Ġsuggests":3799,"Ġparallel":3800,"æĸĩæ¡£è½¬æį¢ä¸ºè§ĦèĮ":3801,"ä¼ļéĺ»æŃ¢å½ĵåīį":3802,"ä¼ļå¤§å¹ħä¸ĭ":3803,"ä¼ļä¿ĿåŃĺè¶³å¤ŁçļĦçĬ¶æĢģ":3804,"æķ£åįķåħĥ":3805,"æķĪåľ°è¡¨ç¤º":3806,"è§ģæł·æľ¬ä¸Ĭåĩº":3807,"è§Ĥå¯ŁåĪ°çļĦè¯įè¡¨":3808,"ĠEduCode":3809,"Ġtransforms":3810,"Ġtricky":3811,"Ġwordpiece":3812,"ä¸Ģå®ļè¯´æĺİå®ŀçİ°":3813,"ä¸ŃåŃ¦ä¹łåı¯å¤įç":3814,"Ġaccumulates":3815,"Ġaccident":3816,"è®Ńç»ĥæ£ĢæŁ¥çĤ¹ä¼ļä¿ĿåŃĺè¶³å¤ŁçļĦçĬ¶æĢģ":3817,"è®Ńç»ĥéĽĨä¸ĬçļĦæĶ":3818,"è®Ńç»ĥè¯ŃæĸĻä¸ŃåŃ¦ä¹łåı¯å¤įç":3819,"è®Ńç»ĥç»ĵè®ºè¿Ľè¡Įè¾¹çķĮçº¦æĿ":3820,"æŃ¥æķ°ä»¥åıĬåħĥ":3821,"è¿Ļä¸įä¸Ģå®ļè¯´æĺİå®ŀçİ°":3822,"Ġ1337":3823,"Ġæ£ĢæŁ¥çĤ¹è¯´æĺİ":3824,"Ġuncertain":3825,"Ġunexpectedly":3826,"Ġdiagnose":3827,"è¯´æĺİè¯ŃæĸĻè¦ĨçĽ":3828,"æĺ¯å®ŀçİ°ç»ĨèĬĤ":3829,"ç»ĵæŀĦæŃ£ç¡®æĢ§è¦":3830,"Ġarbitrarily":3831,"Ġarchitecture":3832,"Ġpreferred":3833,"Ġnovelty":3834,"Ġinterrupted":3835,"åı¯éĿłçļĦæķ°æį®æµģæ°´çº¿æľ¬èº«å°":3836,"éªĮè¯ģä¼ļä½¿çĶ¨çķĻåĩºçļĦæķ°æį®æ":3837,"éªĮè¯ģæĺ¯å¯¹è®Ńç»ĥç»ĵè®ºè¿Ľè¡Įè¾¹çķĮçº¦æĿ":3838,"æİ¥æĶ¶æĸĩæľ¬":3839,"ä»¥ä¾¿ä¹ĭåĲİæģ":3840,"æ¨¡åŀĭè§Ħæ¨¡åĴĮè¿Ĳè¡Į":3841,"æ¨¡åŀĭè®Ńç»ĥä¹ĭåīįè¿Ľè¡Į":3842,"´çŃīè§Ħæ¨¡åģĩè®¾":3843,"å¸¸è§ģåĨħå®¹":3844,"å¸¸å·¥ä½ľæĹ¶":3845,"Ġbottleneck":3846,"åĪĨè¯įåĻ¨ä¼ļæĬĬåİŁå§ĭæĸĩæľ¬è½¬æį¢":3847,"åĪĨè¯įåĻ¨æĺ¯åľ¨æ¨¡åŀĭè®Ńç»ĥä¹ĭåīįè¿Ľè¡Į":3848,"ä½ĨåīįæıĲæĺ¯":3849,"åĮħæĭ¬æ¨¡åŀĭæĿĥéĩį":3850,"åĲĪéĢĤçļĦåĪĨè¯įåĻ¨åı¯ä»¥":3851,"æ³¨æĦıåĬĽæİ©çłģçĶ¨äºİæİ§åĪ":3852,"æ³¢åĬ¨ä¼ļæ¯Ķè¾ĥå¤§":3853,"Ġbetween":3854,"Ġgenuinely":3855,"åľ¨èĩªåĽŀå½":3856,"åľ¨æķ°åĢ¼ä¸Ĭæĺ¯è¿ŀéĢļ":3857,"éĺ¶æ®µåĴĮçĽ®æłĩä¿ĿæĮģä¸Ģèĩ´":3858,"æĽ´å®¹æĺĵè¢«æ£ĢæŁ¥":3859,"æĽ´åı¯èĥ½è¯´æĺİè¯ŃæĸĻè¦ĨçĽ":3860,"æĽ´å°ıçļĦçīĩæ®µå¤ĦçĲĨ":3861,"çĽ®æłĩæ··åľ¨ä¸Ģèµ·":3862,"æİ©çłģå±ŀäºİç»ĵæŀĦæŃ£ç¡®æĢ§è¦":3863,"åīįåĲĳè®¡ç®Ĺ":3864,"åİ»è§£éĩĬæĦıä¹ī":3865,"åİĭç¼©ä¸İåĪĩåĪĨçļĦä¸Ģå±Ĥ":3866,"åĢ¼å¤±åİ»è§£éĩĬæĦıä¹ī":3867,"æī¹å¤§å°ı":3868,"æĹłæ³ķè¢«æŃ£ç¡":3869,"Ġschedules":3870,"Ġincludes":3871,"ä¸İå¤§è§Ħæ¨¡ç¡¬ä»¶":3872,"ä¸İå®ŀéªĮéĺ¶æ®µåĴĮçĽ®æłĩä¿ĿæĮģä¸Ģèĩ´":3873,"Ġguarantee":3874,"å®ĥæĺ¯éĺ²æŃ¢è¿ĩåº¦è§£":3875,"å®ĥæĹ¢èĥ½è¾ĥé«ĺ":3876,"å®ĥä¸İæľ¬åľ°çļĦå°ıåŀĭ":3877,"æľīéĻĲçļĦ":3878,"æľīè¾¹çķĮçļĦå¾ªçİ¯éĢļå¸¸å·²":3879,"æĿ¥æºĲä¿¡æģ¯":3880,"éĢļå¸¸ä¼ļæĺİæĺ¾å°ıäºİçĽ®æłĩ":3881,"å¦Ĥæŀľæ£ĢæŁ¥çĤ¹æĹłæ³ķè¢«æŃ£ç¡":3882,"å¦Ĥæŀľè¯ŃæĸĻè§Ħæ¨¡å¤ªå°ı":3883,"å¦ĤæŀľéªĮè¯ģéĽĨå¾Īå°ı":3884,"å¦ĤæŀľæĬĬæľ¬åľ°éªĮè¯ģçĽ®æłĩ":3885,"åĴĮéĩįè½½éĥ½èĥ½æŃ£":3886,"ĠåĪĨè¯įåĻ¨ç¬Ķè®°":3887,"ĠåĪĨè¯įåĻ¨ä¼ļä»İè®Ńç»ĥè¯ŃæĸĻä¸ŃåŃ¦ä¹łåı¯å¤įç":3888,"Ķ¨çļĦåŃĲè¯įçīĩæ®µ":3889,"Ġaggressiveness":3890,"ä¸ĭä¸Ģä¸ªéĺ¶æ®µæĽ´å®¹æĺĵè¢«æ£ĢæŁ¥":3891,"è®©æ¨¡åŀĭä»¥æĽ´ç¨³å®ļ":3892,"æ£ĢæŁ¥çĤ¹æīįåĢ¼å¾Ĺä¿¡ä»»":3893,"è¾ĥå°ĳè§ģçļĦæĸĩæľ¬":3894,"æķ°æį®æµģæ°´çº¿ä¼ļæĬĬåİŁå§ĭæĸĩæ¡£è½¬æį¢ä¸ºè§ĦèĮ":3895,"èĢĮä¸įåıªæĺ¯å®ŀçİ°ç»ĨèĬĤ":3896,"é«ĺé¢ĳè¯į":3897,"Ġå®ŀè·µéĩįçĤ¹":3898,"ĮçļĦæī§è¡Įéĺ¶æ®µ":3899,"Ġextrapolate":3900,"è¯»è®Ńç»ĥæįŁå¤±çļĦéĩįè¦ģæĸ¹æ³ķ":3901,"ä»İèĢĮè®©æįŁå¤±åĢ¼å¤±åİ»è§£éĩĬæĦıä¹ī":3902,"åıªæľīä¿ĿåŃĺåĴĮéĩįè½½éĥ½èĥ½æŃ£":3903,"è®Ńç»ĥå¾ªçİ¯ä¼ļéĩįå¤įæī§è¡Į":3904,"Ġæ³¨æĦıåĬĽæİ©çłģè¯´æĺİ":3905,"Ġunderexposed":3906,"å¾Ĺéļ¾ä»¥è§£éĩĬ":3907,"åı¯èĥ½ä¼ļæĤĦæĤĦæ³Ħéľ":3908,"è¾ĵåĩºåı¯å¤įçİ°":3909,"å®ŀéªĮç»ĵè®ºä¼ļåıĺå¾Ĺéļ¾ä»¥è§£éĩĬ":3910,"ä½įç½®çľĭåĪ°æľªæĿ¥":3911,"æĹ¶éĹ´çŃīè§Ħæ¨¡åģĩè®¾":3912,"å¹¶ä¿ĿæĮģè¾ĵåĩºåı¯å¤įçİ°":3913,"å¹¶å·²åĪĩåĪĨçļĦè®Ńç»ĥè¾ĵåħ¥":3914,"åĽłæŃ¤è¶ĭåĬ¿éĢļå¸¸æ¯Ķ":3915,"åĽłæŀľæİ©çłģä¼ļéĺ»æŃ¢å½ĵåīį":3916,"æĪĲæ¨¡åŀĭåı¯ä»¥å¤ĦçĲĨçļĦç¦»":3917,"ä¹Łèĥ½éĢļè¿ĩæĽ´å°ıçļĦçīĩæ®µå¤ĦçĲĨ":3918,"åįķä¸ªæķ°åŃĹæĽ´éĩįè¦ģ":3919,"Ġä¸ºä»Ģä¹Īè¦ģåĮºåĪĨéĺ¶æ®µ":3920,"ä¸Ģèĩ´çļĦå½¢å¼ı":3921,"ç¡¬ä»¶éħįç½®åºĶå½ĵä¸İå®ŀéªĮéĺ¶æ®µåĴĮçĽ®æłĩä¿ĿæĮģä¸Ģèĩ´":3922,"éĶĻè¯¯çļĦæİ©çłģåı¯èĥ½ä¼ļæĤĦæĤĦæ³Ħéľ":3923,"Structured":3924,"¢å¤įæĪĸæ£ĢæŁ¥ä¸Ģæ¬¡è¿Ĳè¡Į":3925,"¦ä¹Łèĥ½åľ¨æľªè§ģæł·æľ¬ä¸Ĭåĩº":3926,"§çī©ä»·åĢ¼ä¼ļå¤§å¹ħä¸ĭ":3927,"±æĺ¯æ¨¡åŀĭè´¨éĩıä¿ĿéļľçļĦä¸Ģ":3928,"¶åĵªäºĽ":3929,"¹è¿Ľæĺ¯åĲ¦ä¹Łèĥ½åľ¨æľªè§ģæł·æľ¬ä¸Ĭåĩº":3930,"ºç¡ĢçļĦåģ¥åº·ä¿¡":3931,"¾åĴĮçĽ®æłĩåĩ½æķ°åľ¨æķ°åĢ¼ä¸Ĭæĺ¯è¿ŀéĢļ":3932,"æł¡éªĮå®ĮæĪĲå¹¶å·²åĪĩåĪĨçļĦè®Ńç»ĥè¾ĵåħ¥":3933,"æłĩçŃ¾åĴĮçĽ®æłĩåĩ½æķ°åľ¨æķ°åĢ¼ä¸Ĭæĺ¯è¿ŀéĢļ":3934,"æµģæ°´çº¿åºĶå½ĵä¿ĿçķĻæĿ¥æºĲä¿¡æģ¯":3935,"æ¯ıä¸Ģä¸ªéĺ¶æ®µéĥ½åºĶè¯¥è®©ä¸ĭä¸Ģä¸ªéĺ¶æ®µæĽ´å®¹æĺĵè¢«æ£ĢæŁ¥":3936,"çŁŃèĢĮæľīè¾¹çķĮçļĦå¾ªçİ¯éĢļå¸¸å·²":3937,"ç¨ĭè·¯å¾Ħ":3938,"éģ¿åħįç§ģæľīæķ°æį®":3939,"éĤ£ä¹Īä¿ĿåŃĺä¸ĭæĿ¥çļĦäº§çī©ä»·åĢ¼ä¼ļå¤§å¹ħä¸ĭ":3940,"ĠçļĦéħįç½®éĢļå¸¸ä¼ļæĶ¹åıĺæī¹å¤§å°ı":3941,"Ġæĺ¯æľĢåŁºç¡ĢçļĦåģ¥åº·ä¿¡":3942,"ĠçľŁæŃ£åĪĨç¦»":3943,"Ġä½įç½®åı¯ä»¥å½¼æŃ¤äº¤äºĴ":3944,"Ġå±ŀäºİä¸įåĲĮçļĦæī§è¡Įéĺ¶æ®µ":3945,"Ġautoregressive":3946,"ç»ıè¶³å¤ŁéªĮè¯ģå·¥ç¨ĭè·¯å¾Ħ":3947,"æķĪåľ°è¡¨ç¤ºé«ĺé¢ĳè¯į":3948,"è§Ĥå¯ŁåĪ°çļĦè¯įè¡¨éĢļå¸¸ä¼ļæĺİæĺ¾å°ıäºİçĽ®æłĩ":3949,"è®Ńç»ĥéĽĨä¸ĬçļĦæĶ¹è¿Ľæĺ¯åĲ¦ä¹Łèĥ½åľ¨æľªè§ģæł·æľ¬ä¸Ĭåĩº":3950,"æŃ¥æķ°ä»¥åıĬåħĥæķ°æį®":3951,"è¿Ļä¸įä¸Ģå®ļè¯´æĺİå®ŀçİ°éĶĻè¯¯":3952,"åı¯éĿłçļĦæķ°æį®æµģæ°´çº¿æľ¬èº«å°±æĺ¯æ¨¡åŀĭè´¨éĩıä¿ĿéļľçļĦä¸Ģ":3953,"éªĮè¯ģä¼ļä½¿çĶ¨çķĻåĩºçļĦæķ°æį®æĿ¥æ£ĢæŁ¥":3954,"éªĮè¯ģæĺ¯å¯¹è®Ńç»ĥç»ĵè®ºè¿Ľè¡Įè¾¹çķĮçº¦æĿŁçļĦä¸Ģç§įæ£ĢæŁ¥":3955,"ä»¥ä¾¿ä¹ĭåĲİæģ¢å¤įæĪĸæ£ĢæŁ¥ä¸Ģæ¬¡è¿Ĳè¡Į":3956,"æ¨¡åŀĭè§Ħæ¨¡åĴĮè¿Ĳè¡ĮæĹ¶éĹ´çŃīè§Ħæ¨¡åģĩè®¾":3957,"å¸¸è§ģåĨħå®¹åĮħæĭ¬æ¨¡åŀĭæĿĥéĩį":3958,"åĪĨè¯įåĻ¨ä¼ļæĬĬåİŁå§ĭæĸĩæľ¬è½¬æį¢æĪĲæ¨¡åŀĭåı¯ä»¥å¤ĦçĲĨçļĦç¦»":3959,"åĪĨè¯įåĻ¨æĺ¯åľ¨æ¨¡åŀĭè®Ńç»ĥä¹ĭåīįè¿Ľè¡Įåİĭç¼©ä¸İåĪĩåĪĨçļĦä¸Ģå±Ĥ":3960,"åĲĪéĢĤçļĦåĪĨè¯įåĻ¨åı¯ä»¥è®©æ¨¡åŀĭä»¥æĽ´ç¨³å®ļ":3961,"æ³¨æĦıåĬĽæİ©çłģçĶ¨äºİæİ§åĪ¶åĵªäºĽ":3962,"åľ¨èĩªåĽŀå½Ĵè®Ńç»ĥä¸Ń":3963,"æĽ´åı¯èĥ½è¯´æĺİè¯ŃæĸĻè¦ĨçĽĸéĿ¢ä¸įè¶³":3964,"æİ©çłģå±ŀäºİç»ĵæŀĦæŃ£ç¡®æĢ§è¦ģæ±Ĥ":3965,"ä¸İå¤§è§Ħæ¨¡ç¡¬ä»¶çĽ®æłĩæ··åľ¨ä¸Ģèµ·":3966,"å®ĥæĺ¯éĺ²æŃ¢è¿ĩåº¦è§£è¯»è®Ńç»ĥæįŁå¤±çļĦéĩįè¦ģæĸ¹æ³ķ":3967,"å®ĥæĹ¢èĥ½è¾ĥé«ĺæķĪåľ°è¡¨ç¤ºé«ĺé¢ĳè¯į":3968,"å¦Ĥæŀľæ£ĢæŁ¥çĤ¹æĹłæ³ķè¢«æŃ£ç¡®éĩįæĸ°åĬłè½½":3969,"å¦ĤæŀľæĬĬæľ¬åľ°éªĮè¯ģçĽ®æłĩä¸İå¤§è§Ħæ¨¡ç¡¬ä»¶çĽ®æłĩæ··åľ¨ä¸Ģèµ·":3970,"ĠåĪĨè¯įåĻ¨ä¼ļä»İè®Ńç»ĥè¯ŃæĸĻä¸ŃåŃ¦ä¹łåı¯å¤įçĶ¨çļĦåŃĲè¯įçīĩæ®µ":3971,"æķ°æį®æµģæ°´çº¿ä¼ļæĬĬåİŁå§ĭæĸĩæ¡£è½¬æį¢ä¸ºè§ĦèĮĥåĮĸ":3972,"åıªæľīä¿ĿåŃĺåĴĮéĩįè½½éĥ½èĥ½æŃ£å¸¸å·¥ä½ľæĹ¶":3973,"åĽłæŃ¤è¶ĭåĬ¿éĢļå¸¸æ¯Ķåįķä¸ªæķ°åŃĹæĽ´éĩįè¦ģ":3974,"åĽłæŀľæİ©çłģä¼ļéĺ»æŃ¢å½ĵåīįä½įç½®çľĭåĪ°æľªæĿ¥":3975,"ä¹Łèĥ½éĢļè¿ĩæĽ´å°ıçļĦçīĩæ®µå¤ĦçĲĨè¾ĥå°ĳè§ģçļĦæĸĩæľ¬":3976,"ä¸Ģèĩ´çļĦå½¢å¼ıæİ¥æĶ¶æĸĩæľ¬":3977,"éĶĻè¯¯çļĦæİ©çłģåı¯èĥ½ä¼ļæĤĦæĤĦæ³Ħéľ²æľªæĿ¥ä¿¡æģ¯":3978,"æłĩçŃ¾åĴĮçĽ®æłĩåĩ½æķ°åľ¨æķ°åĢ¼ä¸Ĭæĺ¯è¿ŀéĢļä¸Ķç¨³å®ļçļĦ":3979,"çŁŃèĢĮæľīè¾¹çķĮçļĦå¾ªçİ¯éĢļå¸¸å·²ç»ıè¶³å¤ŁéªĮè¯ģå·¥ç¨ĭè·¯å¾Ħ":3980,"éĤ£ä¹Īä¿ĿåŃĺä¸ĭæĿ¥çļĦäº§çī©ä»·åĢ¼ä¼ļå¤§å¹ħä¸ĭéĻį":3981,"Ġæĺ¯æľĢåŁºç¡ĢçļĦåģ¥åº·ä¿¡åı·":3982,"è§Ĥå¯ŁåĪ°çļĦè¯įè¡¨éĢļå¸¸ä¼ļæĺİæĺ¾å°ıäºİçĽ®æłĩè¯įè¡¨":3983,"è®Ńç»ĥéĽĨä¸ĬçļĦæĶ¹è¿Ľæĺ¯åĲ¦ä¹Łèĥ½åľ¨æľªè§ģæł·æľ¬ä¸Ĭåĩºçİ°":3984,"åı¯éĿłçļĦæķ°æį®æµģæ°´çº¿æľ¬èº«å°±æĺ¯æ¨¡åŀĭè´¨éĩıä¿ĿéļľçļĦä¸Ģéĥ¨åĪĨ":3985,"åĪĨè¯įåĻ¨ä¼ļæĬĬåİŁå§ĭæĸĩæľ¬è½¬æį¢æĪĲæ¨¡åŀĭåı¯ä»¥å¤ĦçĲĨçļĦç¦»æķ£åįķåħĥ":3986,"å®ĥæĺ¯éĺ²æŃ¢è¿ĩåº¦è§£è¯»è®Ńç»ĥæįŁå¤±çļĦéĩįè¦ģæĸ¹æ³ķä¹ĭä¸Ģ":3987}